{
  "version": "1.0",
  "truncation": null,
  "padding": null,
  "added_tokens": [
    {
      "id": 0,
      "content": "<s>",
      "single_word": false,
      "lstrip": false,
      "rstrip": false,
      "normalized": false,
      "special": true
    },
    {
      "id": 1,
      "content": "<pad>",
      "single_word": false,
      "lstrip": false,
      "rstrip": false,
      "normalized": false,
      "special": true
    },
    {
      "id": 2,
      "content": "</s>",
      "single_word": false,
      "lstrip": false,
      "rstrip": false,
      "normalized": false,
      "special": true
    },
    {
      "id": 3,
      "content": "<unk>",
      "single_word": false,
      "lstrip": false,
      "rstrip": false,
      "normalized": false,
      "special": true
    }
  ],
  "normalizer": null,
  "pre_tokenizer": {
    "type": "ByteLevel",
    "add_prefix_space": false,
    "trim_offsets": true,
    "use_regex": true
  },
  "post_processor": {
    "type": "ByteLevel",
    "add_prefix_space": true,
    "trim_offsets": false,
    "use_regex": true
  },
  "decoder": {
    "type": "ByteLevel",
    "add_prefix_space": true,
    "trim_offsets": true,
    "use_regex": true
  },
  "model": {
    "type": "BPE",
    "dropout": null,
    "unk_token": null,
    "continuing_subword_prefix": null,
    "end_of_word_suffix": null,
    "fuse_unk": false,
    "byte_fallback": false,
    "ignore_merges": false,
    "vocab": {
      "<s>": 0,
      "<pad>": 1,
      "</s>": 2,
      "<unk>": 3,
      "!": 4,
      "\"": 5,
      "#": 6,
      "$": 7,
      "%": 8,
      "&": 9,
      "'": 10,
      "(": 11,
      ")": 12,
      "*": 13,
      "+": 14,
      ",": 15,
      "-": 16,
      ".": 17,
      "/": 18,
      "0": 19,
      "1": 20,
      "2": 21,
      "3": 22,
      "4": 23,
      "5": 24,
      "6": 25,
      "7": 26,
      "8": 27,
      "9": 28,
      ":": 29,
      ";": 30,
      "<": 31,
      "=": 32,
      ">": 33,
      "?": 34,
      "@": 35,
      "A": 36,
      "B": 37,
      "C": 38,
      "D": 39,
      "E": 40,
      "F": 41,
      "G": 42,
      "H": 43,
      "I": 44,
      "J": 45,
      "K": 46,
      "L": 47,
      "M": 48,
      "N": 49,
      "O": 50,
      "P": 51,
      "Q": 52,
      "R": 53,
      "S": 54,
      "T": 55,
      "U": 56,
      "V": 57,
      "W": 58,
      "X": 59,
      "Y": 60,
      "Z": 61,
      "[": 62,
      "\\": 63,
      "]": 64,
      "^": 65,
      "_": 66,
      "`": 67,
      "a": 68,
      "b": 69,
      "c": 70,
      "d": 71,
      "e": 72,
      "f": 73,
      "g": 74,
      "h": 75,
      "i": 76,
      "j": 77,
      "k": 78,
      "l": 79,
      "m": 80,
      "n": 81,
      "o": 82,
      "p": 83,
      "q": 84,
      "r": 85,
      "s": 86,
      "t": 87,
      "u": 88,
      "v": 89,
      "w": 90,
      "x": 91,
      "y": 92,
      "z": 93,
      "{": 94,
      "|": 95,
      "}": 96,
      "~": 97,
      "¡": 98,
      "¢": 99,
      "£": 100,
      "¤": 101,
      "¥": 102,
      "¦": 103,
      "§": 104,
      "¨": 105,
      "©": 106,
      "ª": 107,
      "«": 108,
      "¬": 109,
      "®": 110,
      "¯": 111,
      "°": 112,
      "±": 113,
      "²": 114,
      "³": 115,
      "´": 116,
      "µ": 117,
      "¶": 118,
      "·": 119,
      "¸": 120,
      "¹": 121,
      "º": 122,
      "»": 123,
      "¼": 124,
      "½": 125,
      "¾": 126,
      "¿": 127,
      "À": 128,
      "Á": 129,
      "Â": 130,
      "Ã": 131,
      "Ä": 132,
      "Å": 133,
      "Æ": 134,
      "Ç": 135,
      "È": 136,
      "É": 137,
      "Ê": 138,
      "Ë": 139,
      "Ì": 140,
      "Í": 141,
      "Î": 142,
      "Ï": 143,
      "Ð": 144,
      "Ñ": 145,
      "Ò": 146,
      "Ó": 147,
      "Ô": 148,
      "Õ": 149,
      "Ö": 150,
      "×": 151,
      "Ø": 152,
      "Ù": 153,
      "Ú": 154,
      "Û": 155,
      "Ü": 156,
      "Ý": 157,
      "Þ": 158,
      "ß": 159,
      "à": 160,
      "á": 161,
      "â": 162,
      "ã": 163,
      "ä": 164,
      "å": 165,
      "æ": 166,
      "ç": 167,
      "è": 168,
      "é": 169,
      "ê": 170,
      "ë": 171,
      "ì": 172,
      "í": 173,
      "î": 174,
      "ï": 175,
      "ð": 176,
      "ñ": 177,
      "ò": 178,
      "ó": 179,
      "ô": 180,
      "õ": 181,
      "ö": 182,
      "÷": 183,
      "ø": 184,
      "ù": 185,
      "ú": 186,
      "û": 187,
      "ü": 188,
      "ý": 189,
      "þ": 190,
      "ÿ": 191,
      "Ā": 192,
      "ā": 193,
      "Ă": 194,
      "ă": 195,
      "Ą": 196,
      "ą": 197,
      "Ć": 198,
      "ć": 199,
      "Ĉ": 200,
      "ĉ": 201,
      "Ċ": 202,
      "ċ": 203,
      "Č": 204,
      "č": 205,
      "Ď": 206,
      "ď": 207,
      "Đ": 208,
      "đ": 209,
      "Ē": 210,
      "ē": 211,
      "Ĕ": 212,
      "ĕ": 213,
      "Ė": 214,
      "ė": 215,
      "Ę": 216,
      "ę": 217,
      "Ě": 218,
      "ě": 219,
      "Ĝ": 220,
      "ĝ": 221,
      "Ğ": 222,
      "ğ": 223,
      "Ġ": 224,
      "ġ": 225,
      "Ģ": 226,
      "ģ": 227,
      "Ĥ": 228,
      "ĥ": 229,
      "Ħ": 230,
      "ħ": 231,
      "Ĩ": 232,
      "ĩ": 233,
      "Ī": 234,
      "ī": 235,
      "Ĭ": 236,
      "ĭ": 237,
      "Į": 238,
      "į": 239,
      "İ": 240,
      "ı": 241,
      "Ĳ": 242,
      "ĳ": 243,
      "Ĵ": 244,
      "ĵ": 245,
      "Ķ": 246,
      "ķ": 247,
      "ĸ": 248,
      "Ĺ": 249,
      "ĺ": 250,
      "Ļ": 251,
      "ļ": 252,
      "Ľ": 253,
      "ľ": 254,
      "Ŀ": 255,
      "ŀ": 256,
      "Ł": 257,
      "ł": 258,
      "Ń": 259,
      "Ä±": 260,
      "Ġt": 261,
      "in": 262,
      "an": 263,
      "er": 264,
      "ar": 265,
      "Ġb": 266,
      "he": 267,
      "Ġs": 268,
      "Ġa": 269,
      "en": 270,
      "Ġo": 271,
      "Ã¼": 272,
      "Ġd": 273,
      "Ġthe": 274,
      "un": 275,
      "ed": 276,
      "on": 277,
      "ÅŁ": 278,
      "il": 279,
      "or": 280,
      "al": 281,
      "es": 282,
      "at": 283,
      "Ä±n": 284,
      "Ġ,": 285,
      "Ġk": 286,
      "is": 287,
      "as": 288,
      "ir": 289,
      "ÄŁ": 290,
      "Ġy": 291,
      "Ġg": 292,
      "čĊ": 293,
      "Ġw": 294,
      "el": 295,
      "Ġm": 296,
      "Ġf": 297,
      "Ã§": 298,
      "it": 299,
      "Ġh": 300,
      "Ġc": 301,
      "Ġ.": 302,
      "et": 303,
      "Ġan": 304,
      "Ġp": 305,
      "Ġin": 306,
      "ak": 307,
      "Ã¶": 308,
      "Ġof": 309,
      "ur": 310,
      "la": 311,
      "lar": 312,
      "Ġv": 313,
      "unk": 314,
      "ek": 315,
      "Ġr": 316,
      "Ġn": 317,
      "ing": 318,
      "Ġand": 319,
      "Ġ<": 320,
      "le": 321,
      "Ġto": 322,
      "am": 323,
      "ad": 324,
      "ay": 325,
      "ic": 326,
      "iy": 327,
      "ro": 328,
      "im": 329,
      "ec": 330,
      "em": 331,
      "Ġ1": 332,
      "ul": 333,
      "ion": 334,
      "de": 335,
      "ik": 336,
      "ler": 337,
      "da": 338,
      "us": 339,
      "Ġi": 340,
      "lan": 341,
      "Ġde": 342,
      "ent": 343,
      "om": 344,
      "Ġve": 345,
      "ol": 346,
      "Ġth": 347,
      "ut": 348,
      "ac": 349,
      "ĠÃ§": 350,
      "ap": 351,
      "Ġbir": 352,
      "Ã¼n": 353,
      "Ġe": 354,
      "Ġ2": 355,
      "lÄ±": 356,
      "aÅŁ": 357,
      "Ġl": 358,
      "Ġar": 359,
      "Ġis": 360,
      "Ã¼r": 361,
      "Ġ\"": 362,
      "um": 363,
      "st": 364,
      "Ä±r": 365,
      "iz": 366,
      "ĠÂ": 367,
      "Ġ@": 368,
      "re": 369,
      "Ġon": 370,
      "Ġal": 371,
      "ĠÃ¶": 372,
      "Ġwas": 373,
      "ĠS": 374,
      "iv": 375,
      "Ġda": 376,
      "ĠC": 377,
      "ter": 378,
      "Ġol": 379,
      "di": 380,
      "The": 381,
      "ot": 382,
      "Ä±k": 383,
      "Ġas": 384,
      "Ġfor": 385,
      "Ġ'": 386,
      "id": 387,
      "az": 388,
      "ab": 389,
      "Ġil": 390,
      "ig": 391,
      "ĠA": 392,
      "ey": 393,
      "ly": 394,
      "Ġbu": 395,
      "dÄ±": 396,
      "Ä±nÄ±": 397,
      "-@": 398,
      "Ġ@-@": 399,
      "av": 400,
      "Ä±l": 401,
      "du": 402,
      "Ġst": 403,
      "ini": 404,
      "ine": 405,
      "iÅŁ": 406,
      "ĠM": 407,
      "ith": 408,
      "li": 409,
      "ow": 410,
      "ce": 411,
      "Ġbe": 412,
      "Ä±ÅŁ": 413,
      "ĠÅŁ": 414,
      "ok": 415,
      "th": 416,
      "ers": 417,
      "Ġhe": 418,
      "est": 419,
      "ere": 420,
      "Ã¼z": 421,
      "ti": 422,
      "ĠgÃ¶": 423,
      "Ġat": 424,
      "Ä±nda": 425,
      "ev": 426,
      "Ä±m": 427,
      "Ġthat": 428,
      "Ġwith": 429,
      "00": 430,
      "Ġwh": 431,
      "ĠB": 432,
      "aÄŁ": 433,
      "Ġor": 434,
      "os": 435,
      "ation": 436,
      "Ġyap": 437,
      "ist": 438,
      "Ġu": 439,
      "dan": 440,
      "Ġpro": 441,
      "Ġit": 442,
      "Ġby": 443,
      "ĠbaÅŁ": 444,
      "ĠiÃ§": 445,
      "ah": 446,
      "ch": 447,
      "Ġ19": 448,
      "ĠÂĴ": 449,
      "asÄ±": 450,
      "inde": 451,
      "Ġre": 452,
      "Ġ(": 453,
      "Ġ)": 454,
      "Ġcon": 455,
      "iye": 456,
      "eri": 457,
      "lu": 458,
      "Ġen": 459,
      "yor": 460,
      "ib": 461,
      "Ã¼k": 462,
      "esi": 463,
      "ĠP": 464,
      "ra": 465,
      "ip": 466,
      "Ġson": 467,
      "tÄ±": 468,
      "ĠR": 469,
      "larÄ±n": 470,
      "edi": 471,
      "Ã¼l": 472,
      "Ġed": 473,
      "lay": 474,
      "rom": 475,
      "ast": 476,
      "larÄ±": 477,
      "inin": 478,
      "ÄŁÄ±": 479,
      "iyor": 480,
      "Ġ3": 481,
      "ma": 482,
      "Ä±z": 483,
      "ĠH": 484,
      "ag": 485,
      "op": 486,
      "Ġkon": 487,
      "art": 488,
      "ug": 489,
      "oÄŁ": 490,
      "alar": 491,
      "ĠD": 492,
      "oc": 493,
      "Ã¼rk": 494,
      "ĠG": 495,
      "ain": 496,
      "ĠN": 497,
      "Ġet": 498,
      "ĠF": 499,
      "den": 500,
      "Ġhis": 501,
      "ĠI": 502,
      "Ġfrom": 503,
      "man": 504,
      "ĠÃ¶n": 505,
      "ov": 506,
      "Ġcom": 507,
      "ĠJ": 508,
      "ĠT": 509,
      "ess": 510,
      "oun": 511,
      "ÄŁi": 512,
      "Ġsu": 513,
      "end": 514,
      "if": 515,
      "ilm": 516,
      "ĠL": 517,
      "uÅŁ": 518,
      "unu": 519,
      "ĠW": 520,
      "ect": 521,
      "Ġkar": 522,
      "od": 523,
      "Ġz": 524,
      "Ġse": 525,
      "Ã¼m": 526,
      "ĠiÃ§in": 527,
      "Ġver": 528,
      "Ġch": 529,
      "ĠtÃ¼rk": 530,
      "Ġoldu": 531,
      "Ã¶n": 532,
      "Ġun": 533,
      "Ġ20": 534,
      "ru": 535,
      "ort": 536,
      "Ġmil": 537,
      "Ġbel": 538,
      "ht": 539,
      "ct": 540,
      "Ġher": 541,
      "lam": 542,
      "and": 543,
      "Ġay": 544,
      "Ġne": 545,
      "ya": 546,
      "Ġgel": 547,
      "Ġwere": 548,
      "ece": 549,
      "ate": 550,
      "af": 551,
      "ans": 552,
      "anÄ±": 553,
      "te": 554,
      "ĠyÄ±l": 555,
      "lÄ±k": 556,
      "ard": 557,
      "Ä±s": 558,
      "ĠE": 559,
      "Ġile": 560,
      "leri": 561,
      "Ġ5": 562,
      "Ġad": 563,
      "Ġbil": 564,
      "ich": 565,
      "Ä±na": 566,
      "Ġ4": 567,
      "eler": 568,
      "Ä±nÄ±n": 569,
      "yon": 570,
      "ber": 571,
      "out": 572,
      "Ġsp": 573,
      "ĠaÃ§": 574,
      "all": 575,
      "Ã¶y": 576,
      "iler": 577,
      "pp": 578,
      "Ġex": 579,
      "lik": 580,
      "ame": 581,
      "Ã¼ÅŁ": 582,
      "ant": 583,
      "aya": 584,
      "ated": 585,
      "ity": 586,
      "Ġger": 587,
      "Ġtr": 588,
      "Ġâ": 589,
      "Ġel": 590,
      "uz": 591,
      "Ġare": 592,
      "ive": 593,
      "lac": 594,
      "Ã¼y": 595,
      "ore": 596,
      "Ġab": 597,
      "Ġsh": 598,
      "eb": 599,
      "qu": 600,
      "ez": 601,
      "Ġ201": 602,
      "Ġ200": 603,
      "ĠâĢ": 604,
      "ge": 605,
      "ark": 606,
      "Ġhad": 607,
      "ÄŁini": 608,
      "ĠolduÄŁ": 609,
      "Ä±ndan": 610,
      "ĠtÃ¼rkiye": 611,
      "ear": 612,
      "larak": 613,
      "In": 614,
      "Ġnot": 615,
      "tr": 616,
      "ĠO": 617,
      "masÄ±": 618,
      "Ġbul": 619,
      "der": 620,
      "Ġwhich": 621,
      "our": 622,
      "laÅŁ": 623,
      "uk": 624,
      "Ġle": 625,
      "ver": 626,
      "ha": 627,
      "ĠiÅŁ": 628,
      "ost": 629,
      "ĠdeÄŁ": 630,
      "Ġdev": 631,
      "se": 632,
      "Ġfir": 633,
      "ĠgÃ¶r": 634,
      "Ġnin": 635,
      "ong": 636,
      "Ġgen": 637,
      "Ġtar": 638,
      "ĠÃ§ok": 639,
      "ies": 640,
      "len": 641,
      "Ġist": 642,
      "Ġpr": 643,
      "ecek": 644,
      "aÃ§": 645,
      "tir": 646,
      "rit": 647,
      "Ġdur": 648,
      "Ġolarak": 649,
      "Ġinc": 650,
      "let": 651,
      "ous": 652,
      "eÃ§": 653,
      "ada": 654,
      "lem": 655,
      "oy": 656,
      "pt": 657,
      "Ġhav": 658,
      "ew": 659,
      "ade": 660,
      "Ġkal": 661,
      "og": 662,
      "Ġkul": 663,
      "Ġbelir": 664,
      "ally": 665,
      "mak": 666,
      "ugh": 667,
      "tÄ±r": 668,
      "ish": 669,
      "Ġ6": 670,
      "ĠgÃ¼n": 671,
      "eki": 672,
      "ĠU": 673,
      "ili": 674,
      "land": 675,
      "ight": 676,
      "ary": 677,
      "aki": 678,
      "Ġkad": 679,
      "ack": 680,
      "ĠsÃ¼r": 681,
      "ĠÃ¶z": 682,
      "Ġak": 683,
      "ord": 684,
      "Ġj": 685,
      "ĠK": 686,
      "Ã¶r": 687,
      "ĠÂĶ": 688,
      "Ä±lÄ±": 689,
      "Ġte": 690,
      "ĠÂĵ": 691,
      "ile": 692,
      "ĠyaÅŁ": 693,
      "ell": 694,
      "ÄŁÄ±nÄ±": 695,
      "Ġdo": 696,
      "Ġkur": 697,
      "ten": 698,
      "Ġkay": 699,
      "ĠyÃ¶n": 700,
      "Ġoy": 701,
      "eden": 702,
      "Ġyer": 703,
      "ĠgeÃ§": 704,
      "pr": 705,
      "ĠÃ§Ä±k": 706,
      "Ġ7": 707,
      "Ġdaha": 708,
      "her": 709,
      "ther": 710,
      "Ġuy": 711,
      "ĠÃ§al": 712,
      "so": 713,
      "Ġolan": 714,
      "lerin": 715,
      "ta": 716,
      "Ġ;": 717,
      "cc": 718,
      "Ġim": 719,
      "ide": 720,
      "gu": 721,
      "oul": 722,
      "Ġkullan": 723,
      "Ġhast": 724,
      "Ġtw": 725,
      "Ġres": 726,
      "mas": 727,
      "Ġbut": 728,
      "alÄ±": 729,
      "Ġtheir": 730,
      "Ġtak": 731,
      "ub": 732,
      "mer": 733,
      "Ġev": 734,
      "yla": 735,
      "Ġyen": 736,
      "Ġyar": 737,
      "Ġhas": 738,
      "akan": 739,
      "ih": 740,
      "ill": 741,
      "ĠÄ±n": 742,
      "Ġcomp": 743,
      "ia": 744,
      "Ġsor": 745,
      "Ġfirst": 746,
      "per": 747,
      "iyle": 748,
      "ĠyÃ¼z": 749,
      "fter": 750,
      "ĠCh": 751,
      "Ġvar": 752,
      "Ġits": 753,
      "ĠbÃ¼y": 754,
      "Ġ8": 755,
      "ĠSt": 756,
      "ions": 757,
      "Ġus": 758,
      "ever": 759,
      "ĠÃ§alÄ±ÅŁ": 760,
      "Ġer": 761,
      "Ġhal": 762,
      "acak": 763,
      "ould": 764,
      "ound": 765,
      "ork": 766,
      "Ġ18": 767,
      "larÄ±nÄ±": 768,
      "ment": 769,
      "cÄ±": 770,
      "tur": 771,
      "ĠsÃ¶y": 772,
      "ildi": 773,
      "ind": 774,
      "Ġtop": 775,
      "ĠâĢĵ": 776,
      "hed": 777,
      "Ġsay": 778,
      "ical": 779,
      "hen": 780,
      "ang": 781,
      "ri": 782,
      "Ġalso": 783,
      "Ġ:": 784,
      "Ä±lan": 785,
      "Ä±yor": 786,
      "ime": 787,
      "ken": 788,
      "ĠÃ¼z": 789,
      "Ġek": 790,
      "ass": 791,
      "own": 792,
      "Ġint": 793,
      "Ġtek": 794,
      "ĠsaÄŁ": 795,
      "ĠaÃ§Ä±k": 796,
      "isi": 797,
      "Ġart": 798,
      "ome": 799,
      "tern": 800,
      "adÄ±": 801,
      "lat": 802,
      "up": 803,
      "Ġik": 804,
      "ele": 805,
      "dÄ±r": 806,
      "ibi": 807,
      "Ġgerek": 808,
      "ld": 809,
      "Ġfilm": 810,
      "ilen": 811,
      "Ġise": 812,
      "ff": 813,
      "orm": 814,
      "me": 815,
      "ign": 816,
      "Ġ9": 817,
      "ci": 818,
      "ĠgÃ¶re": 819,
      "Ġhave": 820,
      "Ġbulun": 821,
      "Ġser": 822,
      "unda": 823,
      "Ġden": 824,
      "Ġapp": 825,
      "amp": 826,
      "ĠbaÅŁk": 827,
      "ley": 828,
      "Ġone": 829,
      "asÄ±nda": 830,
      "Ġrec": 831,
      "ater": 832,
      "ĠkarÅŁ": 833,
      "unun": 834,
      "ust": 835,
      "lÃ¼": 836,
      "ond": 837,
      "Ġif": 838,
      "ledi": 839,
      "ĠdÃ¼n": 840,
      "leÅŁ": 841,
      "low": 842,
      "Ġper": 843,
      "Ġpart": 844,
      "ĠV": 845,
      "Ġman": 846,
      "Ã¶z": 847,
      "Ġbeen": 848,
      "ue": 849,
      "Ġtwo": 850,
      "ren": 851,
      "ladÄ±": 852,
      "ĠolduÄŁunu": 853,
      "Ġ10": 854,
      ".@": 855,
      "Ġ@.@": 856,
      "ure": 857,
      "ĠbÃ¼yÃ¼k": 858,
      "Ġcont": 859,
      "ilir": 860,
      "ely": 861,
      "imiz": 862,
      "iyet": 863,
      "Ġwho": 864,
      "eÅŁ": 865,
      "ĠThe": 866,
      "Ġpar": 867,
      "ted": 868,
      "Ġdedi": 869,
      "Ġbec": 870,
      "Ġdis": 871,
      "gan": 872,
      "Ġplay": 873,
      "ob": 874,
      "cu": 875,
      "Ġolm": 876,
      "Ġins": 877,
      "Ġthis": 878,
      "ding": 879,
      "Ġbas": 880,
      "fer": 881,
      "ite": 882,
      "Ä±mÄ±z": 883,
      "age": 884,
      "ence": 885,
      "Ġort": 886,
      "ĠkonuÅŁ": 887,
      "Ġyak": 888,
      "Ã¼t": 889,
      "ian": 890,
      "Ġbin": 891,
      "ĠÃ¼": 892,
      "ĠdÃ¶n": 893,
      "ents": 894,
      "ition": 895,
      "Ġilg": 896,
      "ĠdoÄŁ": 897,
      "ĠdÃ¼ÅŁ": 898,
      "Ġag": 899,
      "Ġbo": 900,
      "ĠÃ¼l": 901,
      "Ġthey": 902,
      "Ġilk": 903,
      "cr": 904,
      "ĠÃ¶nem": 905,
      "eli": 906,
      "mek": 907,
      "ach": 908,
      "lerini": 909,
      "Ġdes": 910,
      "ram": 911,
      "Ġyear": 912,
      "Ġam": 913,
      "Ġgibi": 914,
      "ep": 915,
      "Ġbiz": 916,
      "Ä±ldÄ±": 917,
      "ĠnÄ±n": 918,
      "Ġetti": 919,
      "ank": 920,
      "urn": 921,
      "Ġget": 922,
      "ial": 923,
      "Ġkat": 924,
      "Ġsah": 925,
      "ĠgÃ¼": 926,
      "ory": 927,
      "ern": 928,
      "lab": 929,
      "arÄ±": 930,
      "eye": 931,
      "Ġafter": 932,
      "Ä±sÄ±": 933,
      "ĠyÃ¼zde": 934,
      "daki": 935,
      "ations": 936,
      "lara": 937,
      "Ġes": 938,
      "Ġsa": 939,
      "inden": 940,
      "ice": 941,
      "ayÄ±": 942,
      "ĠÃ¶zel": 943,
      "tu": 944,
      "etim": 945,
      "cak": 946,
      "ric": 947,
      "Ġ/": 948,
      ",@": 949,
      "Ġ@,@": 950,
      "sel": 951,
      "men": 952,
      "Ġcan": 953,
      "Ġmu": 954,
      "ĠkiÅŁ": 955,
      "ster": 956,
      "Ġuz": 957,
      "Ġkadar": 958,
      "Th": 959,
      "ts": 960,
      "Ġover": 961,
      "Ġem": 962,
      "Ġinclu": 963,
      "ree": 964,
      "Ġyeni": 965,
      "Ġout": 966,
      "Ġtaraf": 967,
      "Ġav": 968,
      "He": 969,
      "ĠdÃ¼z": 970,
      "baÅŁ": 971,
      "ĠÃ¼zer": 972,
      "ede": 973,
      "sa": 974,
      "malar": 975,
      "wn": 976,
      "uy": 977,
      "ĠbÃ¶": 978,
      "ĠIn": 979,
      "Ġter": 980,
      "Ġsur": 981,
      "bakan": 982,
      "lacak": 983,
      "met": 984,
      "ca": 985,
      "ĠÃ¼lk": 986,
      "ember": 987,
      "Ġkap": 988,
      "aman": 989,
      "ance": 990,
      "Ġneden": 991,
      "ood": 992,
      "dir": 993,
      "ry": 994,
      "Ġup": 995,
      "Ġfin": 996,
      "mÄ±ÅŁ": 997,
      "Ġother": 998,
      "iyi": 999,
      "Ġinto": 1000,
      "ough": 1001,
      "Ġtime": 1002,
      "ces": 1003,
      "tan": 1004,
      "Ġsc": 1005,
      "Ġgetir": 1006,
      "port": 1007,
      "Ġhak": 1008,
      "Ġben": 1009,
      "Ġyan": 1010,
      "Ġhay": 1011,
      "Ġoff": 1012,
      "ĠkarÅŁÄ±": 1013,
      "ĠÃ¼r": 1014,
      "one": 1015,
      "erek": 1016,
      "eh": 1017,
      "aj": 1018,
      "Ġdi": 1019,
      "we": 1020,
      "Ġmilyon": 1021,
      "Ġdr": 1022,
      "Ġshe": 1023,
      "ason": 1024,
      "ĠmÃ¼": 1025,
      "Ġ00": 1026,
      "ced": 1027,
      "les": 1028,
      "Ġ0": 1029,
      "Ġwould": 1030,
      "larÄ±nÄ±n": 1031,
      "Ġmore": 1032,
      "Ġsat": 1033,
      "lÄ±ÄŁÄ±": 1034,
      "ited": 1035,
      "ĠsÃ¶yledi": 1036,
      "ud": 1037,
      "una": 1038,
      "ors": 1039,
      "ward": 1040,
      "Ġla": 1041,
      "Ġ12": 1042,
      "larda": 1043,
      "Ġalan": 1044,
      "Ġhim": 1045,
      "elik": 1046,
      "arak": 1047,
      "Ġsonra": 1048,
      "It": 1049,
      "ĠyaptÄ±": 1050,
      "Ġpo": 1051,
      "ĠÃ§ek": 1052,
      "Ġbilg": 1053,
      "acaÄŁ": 1054,
      "Ã§ek": 1055,
      "alÄ±k": 1056,
      "Ġgir": 1057,
      "Ġcent": 1058,
      "Ġtem": 1059,
      "ose": 1060,
      "Ġsan": 1061,
      "ĠÅŁek": 1062,
      "Ġatt": 1063,
      "anÄ±n": 1064,
      "ket": 1065,
      "Ġnew": 1066,
      "ĠY": 1067,
      "ef": 1068,
      "Ġpol": 1069,
      "ded": 1070,
      "Ġco": 1071,
      "act": 1072,
      "igh": 1073,
      "Ġall": 1074,
      "ĠbÃ¶l": 1075,
      "ĠyÃ¼k": 1076,
      "ivers": 1077,
      "Ġalt": 1078,
      "Ġcl": 1079,
      "bul": 1080,
      "ĠbaÄŁ": 1081,
      "raf": 1082,
      "ix": 1083,
      "Ġwork": 1084,
      "miÅŁ": 1085,
      "Ġya": 1086,
      "ĠUn": 1087,
      "Ġbet": 1088,
      "ction": 1089,
      "ĠÃ¶nemli": 1090,
      "Ġgenel": 1091,
      "ered": 1092,
      "Ġmer": 1093,
      "Ġ199": 1094,
      "ens": 1095,
      "Ġwe": 1096,
      "Ã¶yle": 1097,
      "Ġilgili": 1098,
      "ne": 1099,
      "ĠÃ¼n": 1100,
      "Ġ15": 1101,
      "Ġzaman": 1102,
      "mes": 1103,
      "Ġmet": 1104,
      "als": 1105,
      "ons": 1106,
      "Ġsec": 1107,
      "iss": 1108,
      "ock": 1109,
      "Ġrem": 1110,
      "Ġwhen": 1111,
      "ates": 1112,
      "Ġdest": 1113,
      "Ġfe": 1114,
      "ki": 1115,
      "Ġyet": 1116,
      "asyon": 1117,
      "Ġoyun": 1118,
      "kin": 1119,
      "Ġsong": 1120,
      "ĠgÃ¶ster": 1121,
      "duÄŁ": 1122,
      "gÃ¼n": 1123,
      "ĠgerÃ§ek": 1124,
      "ubl": 1125,
      "Ġear": 1126,
      "Ġsav": 1127,
      "Ġnum": 1128,
      "ath": 1129,
      "bir": 1130,
      "dÄ±m": 1131,
      "able": 1132,
      "Ġbur": 1133,
      "Ġsev": 1134,
      "mesi": 1135,
      "ĠsÄ±r": 1136,
      "rol": 1137,
      "Ġbelirt": 1138,
      "Ġplan": 1139,
      "Ġexp": 1140,
      "Ġmost": 1141,
      "iyat": 1142,
      "Ġso": 1143,
      "Ġdem": 1144,
      "oÄŁlu": 1145,
      "Ġkn": 1146,
      "Ġiz": 1147,
      "Ġduring": 1148,
      "ĠmaÃ§": 1149,
      "Ġama": 1150,
      "endir": 1151,
      "uyor": 1152,
      "Ġthro": 1153,
      "Ġyaz": 1154,
      "Ġonly": 1155,
      "Ġdurum": 1156,
      "ail": 1157,
      "Ġid": 1158,
      "ĠaÄŁ": 1159,
      "Ġgame": 1160,
      "Ã¼nÃ¼": 1161,
      "ss": 1162,
      "Ġcons": 1163,
      "Ġ11": 1164,
      "Ġyol": 1165,
      "oth": 1166,
      "ĠsÃ¶z": 1167,
      "ĠdÃ¼zen": 1168,
      "Ġdir": 1169,
      "are": 1170,
      "anbul": 1171,
      "ron": 1172,
      "ran": 1173,
      "aus": 1174,
      "ara": 1175,
      "Ġsal": 1176,
      "att": 1177,
      "Ġday": 1178,
      "Ġkaz": 1179,
      "Ġaz": 1180,
      "rup": 1181,
      "Ġpre": 1182,
      "aret": 1183,
      "Ġdevam": 1184,
      "Ġsin": 1185,
      "Ġac": 1186,
      "orth": 1187,
      "ollow": 1188,
      "ween": 1189,
      "Ġkend": 1190,
      "ings": 1191,
      "Ġgro": 1192,
      "reat": 1193,
      "Ġdef": 1194,
      "Ġhar": 1195,
      "por": 1196,
      "Ġ16": 1197,
      "way": 1198,
      "Ġme": 1199,
      "Ġmak": 1200,
      "Ġdiye": 1201,
      "Ġalb": 1202,
      "ĠdÃ¼ny": 1203,
      "dÃ¼": 1204,
      "res": 1205,
      "Ġdec": 1206,
      "ult": 1207,
      "ĠÃ§oc": 1208,
      "outh": 1209,
      "ĠtarafÄ±ndan": 1210,
      "Ġcol": 1211,
      "und": 1212,
      "Ġabout": 1213,
      "diÄŁi": 1214,
      "hn": 1215,
      "Ġifade": 1216,
      "led": 1217,
      "Ġagain": 1218,
      "red": 1219,
      "ĠdÄ±ÅŁ": 1220,
      "Ġiyi": 1221,
      "Ġeden": 1222,
      "ĠdeÄŁil": 1223,
      "ĠAn": 1224,
      "Ġthree": 1225,
      "ters": 1226,
      "ÄŁer": 1227,
      "ĠolduÄŁu": 1228,
      "baÅŁk": 1229,
      "ĠgeliÅŁ": 1230,
      "Ġseason": 1231,
      "ale": 1232,
      "Ġform": 1233,
      "Ġinsan": 1234,
      "Ġbetween": 1235,
      "Ġchar": 1236,
      "istem": 1237,
      "Ġthan": 1238,
      "iliyor": 1239,
      "Ġthem": 1240,
      "Ġistanbul": 1241,
      "Ġdik": 1242,
      "ĠgÃ¶z": 1243,
      "ious": 1244,
      "eleri": 1245,
      "ational": 1246,
      "ph": 1247,
      "dÃ¼r": 1248,
      "usu": 1249,
      "ĠoluÅŁ": 1250,
      "ĠEn": 1251,
      "iÃ§": 1252,
      "uc": 1253,
      "ision": 1254,
      "Ġunder": 1255,
      "maya": 1256,
      "any": 1257,
      "Ġro": 1258,
      "ames": 1259,
      "ĠAr": 1260,
      "Ġrecord": 1261,
      "Ġye": 1262,
      "Ġkan": 1263,
      "Ġancak": 1264,
      "enin": 1265,
      "Ġthrough": 1266,
      "ĠyapÄ±lan": 1267,
      "esinde": 1268,
      "Ġgr": 1269,
      "ileri": 1270,
      "olo": 1271,
      "Ġdan": 1272,
      "ama": 1273,
      "Ġlater": 1274,
      "int": 1275,
      "Ä±ndaki": 1276,
      "Ġpos": 1277,
      "ĠdÃ¶nem": 1278,
      "hip": 1279,
      "Ġperf": 1280,
      "Ġlar": 1281,
      "ick": 1282,
      "ĠaÃ§Ä±klam": 1283,
      "Ġayr": 1284,
      "eyi": 1285,
      "Ġsistem": 1286,
      "Ã¼s": 1287,
      "adan": 1288,
      "iew": 1289,
      "ase": 1290,
      "ĠÃ¶ÄŁ": 1291,
      "Ġwhile": 1292,
      "Ġact": 1293,
      "doÄŁ": 1294,
      "Ġprodu": 1295,
      "tar": 1296,
      "Ġwrit": 1297,
      "Ġgo": 1298,
      "Ġ2012": 1299,
      "ulu": 1300,
      "Ġstr": 1301,
      "Ġder": 1302,
      "ĠdeÄŁer": 1303,
      "Ġseri": 1304,
      "Ġcomm": 1305,
      "ĠalÄ±n": 1306,
      "ven": 1307,
      "Ġmus": 1308,
      "ount": 1309,
      "Ġyay": 1310,
      "ished": 1311,
      "ĠMar": 1312,
      "Ġiki": 1313,
      "Ġmade": 1314,
      "ĠaÅŁ": 1315,
      "Ġgaz": 1316,
      "ily": 1317,
      "ilecek": 1318,
      "ĠAl": 1319,
      "Ġbek": 1320,
      "ected": 1321,
      "Ġrele": 1322,
      "Ġtam": 1323,
      "Ġ17": 1324,
      "ou": 1325,
      "Ġpe": 1326,
      "orn": 1327,
      "orld": 1328,
      "Ġbak": 1329,
      "atÄ±r": 1330,
      "ustr": 1331,
      "Ġwhere": 1332,
      "ĠkonuÅŁtu": 1333,
      "ayan": 1334,
      "ĠtÃ¼m": 1335,
      "Ġret": 1336,
      "Ġ000": 1337,
      "meric": 1338,
      "lerinin": 1339,
      "Ġhaz": 1340,
      "etti": 1341,
      "Ġdikk": 1342,
      "fore": 1343,
      "Ġmov": 1344,
      "Ġted": 1345,
      "dÄ±ÄŁÄ±": 1346,
      "Ġob": 1347,
      "Ġqu": 1348,
      "Ġproj": 1349,
      "Ġspec": 1350,
      "Ġtekn": 1351,
      "yar": 1352,
      "Ġrel": 1353,
      "ĠÃ¶nce": 1354,
      "Ġkas": 1355,
      "Ġinter": 1356,
      "ict": 1357,
      "Ġfark": 1358,
      "dem": 1359,
      "Ġacc": 1360,
      "ury": 1361,
      "lere": 1362,
      "Ġabd": 1363,
      "tÃ¼": 1364,
      "ace": 1365,
      "layan": 1366,
      "Ġintern": 1367,
      "azÄ±": 1368,
      "ĠAmeric": 1369,
      "Ġset": 1370,
      "leÅŁtir": 1371,
      "Ġsome": 1372,
      "Ġlik": 1373,
      "Ġsub": 1374,
      "ased": 1375,
      "On": 1376,
      "Ġoper": 1377,
      "Ġfollow": 1378,
      "olog": 1379,
      "ĠbaÅŁbakan": 1380,
      "ĠarasÄ±nda": 1381,
      "old": 1382,
      "lendir": 1383,
      "Ġmon": 1384,
      "Ġfaz": 1385,
      "liÄŁi": 1386,
      "Ġsuch": 1387,
      "ekt": 1388,
      "Ġsecond": 1389,
      "Ġhaf": 1390,
      "acÄ±": 1391,
      "Ġhayat": 1392,
      "ived": 1393,
      "Ġfour": 1394,
      "iyas": 1395,
      "Ġass": 1396,
      "ĠseÃ§": 1397,
      "oloj": 1398,
      "Ġrev": 1399,
      "Ġused": 1400,
      "deki": 1401,
      "ĠNew": 1402,
      "Ġtut": 1403,
      "Ġtrans": 1404,
      "Ġvur": 1405,
      "ilece": 1406,
      "Ġno": 1407,
      "ied": 1408,
      "Ġyok": 1409,
      "larÄ±na": 1410,
      "Ġdep": 1411,
      "ĠÃ§ocuk": 1412,
      "Ġdikkat": 1413,
      "ĠgÃ¶rÃ¼ÅŁ": 1414,
      "Ġend": 1415,
      "Ġcall": 1416,
      "Ġep": 1417,
      "ĠCom": 1418,
      "lerde": 1419,
      "Ġmar": 1420,
      "Ä±cÄ±": 1421,
      "ular": 1422,
      "Ġ13": 1423,
      "ali": 1424,
      "ild": 1425,
      "Ġpubl": 1426,
      "ins": 1427,
      "Ġok": 1428,
      "ement": 1429,
      "kez": 1430,
      "Ġbro": 1431,
      "iyon": 1432,
      "Ġ14": 1433,
      "Ġent": 1434,
      "ve": 1435,
      "iel": 1436,
      "ved": 1437,
      "ook": 1438,
      "aber": 1439,
      "Ġalbum": 1440,
      "ĠdeÄŁiÅŁ": 1441,
      "ĠtaÅŁ": 1442,
      "pen": 1443,
      "Ġsad": 1444,
      "Ġbefore": 1445,
      "iver": 1446,
      "imi": 1447,
      "Ġko": 1448,
      "hes": 1449,
      "doÄŁan": 1450,
      "lama": 1451,
      "Ġsonu": 1452,
      "ton": 1453,
      "Ġbeing": 1454,
      "Ġetk": 1455,
      "Ġduy": 1456,
      "Ġorgan": 1457,
      "ire": 1458,
      "Ġ25": 1459,
      "Ġinf": 1460,
      "ici": 1461,
      "iniz": 1462,
      "Ġtarih": 1463,
      "Ġthere": 1464,
      "Ġ30": 1465,
      "Ġbun": 1466,
      "Ġsupp": 1467,
      "Ġdam": 1468,
      "Ġprog": 1469,
      "atur": 1470,
      "owever": 1471,
      "Ġmem": 1472,
      "ane": 1473,
      "This": 1474,
      "par": 1475,
      "Ġkarar": 1476,
      "Ġ198": 1477,
      "Ã§e": 1478,
      "Ġbar": 1479,
      "son": 1480,
      "Ġyears": 1481,
      "sek": 1482,
      "Ġhigh": 1483,
      "Ġgal": 1484,
      "Ġsy": 1485,
      "ating": 1486,
      "ĠyapÄ±": 1487,
      "ie": 1488,
      "Ġuygu": 1489,
      "Ġtedav": 1490,
      "ise": 1491,
      "Ġpop": 1492,
      "Ġdiy": 1493,
      "eral": 1494,
      "ilde": 1495,
      "lerine": 1496,
      "tÃ¼r": 1497,
      "ĠiliÅŁ": 1498,
      "Ġhem": 1499,
      "Ġoyn": 1500,
      "Ġmes": 1501,
      "ual": 1502,
      "Ġeng": 1503,
      "Ä±lmasÄ±": 1504,
      "ĠtakÄ±m": 1505,
      "Ġreg": 1506,
      "Ġfazla": 1507,
      "ught": 1508,
      "Ġkonu": 1509,
      "min": 1510,
      "ics": 1511,
      "ĠsaÄŁlÄ±k": 1512,
      "Ġayn": 1513,
      "ĠbÃ¶lg": 1514,
      "ĠmÃ¼z": 1515,
      "aÅŁtÄ±r": 1516,
      "Ġard": 1517,
      "Ġfound": 1518,
      "Ġir": 1519,
      "ret": 1520,
      "Ġnumber": 1521,
      "ĠalÄ±": 1522,
      "ĠyaptÄ±ÄŁÄ±": 1523,
      "Ġseries": 1524,
      "ilerin": 1525,
      "ning": 1526,
      "Ġdav": 1527,
      "ĠbugÃ¼n": 1528,
      "igin": 1529,
      "ĠEng": 1530,
      "Ġanlat": 1531,
      "ĠeÄŁ": 1532,
      "eg": 1533,
      "Ġloc": 1534,
      "ines": 1535,
      "Ġmay": 1536,
      "alan": 1537,
      "alarÄ±": 1538,
      "Ġmod": 1539,
      "other": 1540,
      "sÄ±z": 1541,
      "ife": 1542,
      "elop": 1543,
      "han": 1544,
      "bak": 1545,
      "Ġest": 1546,
      "ĠiÃ§inde": 1547,
      "Ġboth": 1548,
      "Ġzor": 1549,
      "Ġbirlik": 1550,
      "ĠardÄ±ndan": 1551,
      "ĠSe": 1552,
      "ause": 1553,
      "everal": 1554,
      "Ġpres": 1555,
      "Ġcar": 1556,
      "Ġappear": 1557,
      "Ġcap": 1558,
      "Ġtal": 1559,
      "endi": 1560,
      "onom": 1561,
      "Ġmat": 1562,
      "Ġrece": 1563,
      "ĠaraÅŁtÄ±r": 1564,
      "lÄ±ÄŁ": 1565,
      "Ġthen": 1566,
      "bol": 1567,
      "Ġincluding": 1568,
      "Ġsahip": 1569,
      "Ġsadece": 1570,
      "Ġepis": 1571,
      "Ġwell": 1572,
      "Ġmin": 1573,
      "ĠhazÄ±r": 1574,
      "Ġhakk": 1575,
      "Ġul": 1576,
      "iyoruz": 1577,
      "ities": 1578,
      "ĠbaÅŁkan": 1579,
      "ohn": 1580,
      "ode": 1581,
      "Ġkayd": 1582,
      "Ġagainst": 1583,
      "likle": 1584,
      "ific": 1585,
      "ilmesi": 1586,
      "Ġbecame": 1587,
      "Ġtan": 1588,
      "Ġknown": 1589,
      "ised": 1590,
      "Ġsing": 1591,
      "Ġgelen": 1592,
      "Ġ!": 1593,
      "ĠÅŁir": 1594,
      "ĠâĢĶ": 1595,
      "oman": 1596,
      "mam": 1597,
      "Ġprof": 1598,
      "Ġmany": 1599,
      "its": 1600,
      "Ġ100": 1601,
      "ris": 1602,
      "ĠaynÄ±": 1603,
      "Ġnde": 1604,
      "ĠulaÅŁ": 1605,
      "larÄ±nda": 1606,
      "Ġbey": 1607,
      "ave": 1608,
      "Ġcharac": 1609,
      "ĠÅŁirket": 1610,
      "els": 1611,
      "Ġback": 1612,
      "Ġbuil": 1613,
      "ĠBrit": 1614,
      "iden": 1615,
      "Ġmerkez": 1616,
      "Ġmark": 1617,
      "rop": 1618,
      "Ġbakan": 1619,
      "ral": 1620,
      "Ġnun": 1621,
      "Ġinv": 1622,
      "baÅŁkanÄ±": 1623,
      "Ġbunun": 1624,
      "Ġsanat": 1625,
      "ĠsÄ±k": 1626,
      "ĠbazÄ±": 1627,
      "urch": 1628,
      "Ġmain": 1629,
      "ĠgÃ¶rev": 1630,
      "tain": 1631,
      "though": 1632,
      "ĠCar": 1633,
      "Ġlong": 1634,
      "rail": 1635,
      "dÄ±ÄŁÄ±nÄ±": 1636,
      "Ġsen": 1637,
      "lack": 1638,
      "Ã¼yor": 1639,
      "Ã¼nde": 1640,
      "yp": 1641,
      "masÄ±nÄ±": 1642,
      "Ġ197": 1643,
      "Ġtab": 1644,
      "asar": 1645,
      "Ġsm": 1646,
      "Ġtur": 1647,
      "iet": 1648,
      "crib": 1649,
      "ft": 1650,
      "ĠhiÃ§": 1651,
      "ektÃ¶r": 1652,
      "Ġta": 1653,
      "cÃ¼": 1654,
      "hur": 1655,
      "eks": 1656,
      "ĠbÃ¼t": 1657,
      "ize": 1658,
      "ilik": 1659,
      "Ġinternet": 1660,
      "ool": 1661,
      "Ġ194": 1662,
      "aÄŁÄ±": 1663,
      "Ġ196": 1664,
      "ĠUnited": 1665,
      "Ġshow": 1666,
      "Ġteam": 1667,
      "ĠkÃ¶": 1668,
      "Ġkurul": 1669,
      "Ġkazan": 1670,
      "Ġprogram": 1671,
      "Ġcre": 1672,
      "ĠÅŁekilde": 1673,
      "lenen": 1674,
      "til": 1675,
      "ĠdiÄŁer": 1676,
      "Ġortaya": 1677,
      "Ġih": 1678,
      "tal": 1679,
      "kan": 1680,
      "Ġmill": 1681,
      "Ġ2013": 1682,
      "Ġey": 1683,
      "ather": 1684,
      "rupa": 1685,
      "Ġcentury": 1686,
      "istan": 1687,
      "usunda": 1688,
      "udi": 1689,
      "ober": 1690,
      "ower": 1691,
      "Ġverdi": 1692,
      "ined": 1693,
      "Ġkam": 1694,
      "Ġbr": 1695,
      "ĠyÃ¼ksek": 1696,
      "Ġkit": 1697,
      "Ġrep": 1698,
      "indeki": 1699,
      "Ġkom": 1700,
      "Ġdevelop": 1701,
      "tÄ±k": 1702,
      "ection": 1703,
      "Ġtel": 1704,
      "Ġmal": 1705,
      "ĠÃ¶l": 1706,
      "Ġorigin": 1707,
      "ĠBr": 1708,
      "adÄ±ÄŁÄ±nÄ±": 1709,
      "Ġlir": 1710,
      "ĠgÃ¼ven": 1711,
      "Ġyas": 1712,
      "liÄŁ": 1713,
      "ĠÅŁÃ¶yle": 1714,
      "ĠgÃ¼Ã§": 1715,
      "ĠgeÃ§en": 1716,
      "Ġspor": 1717,
      "Ġseveral": 1718,
      "ider": 1719,
      "Ġstar": 1720,
      "Ġdevlet": 1721,
      "Ġlead": 1722,
      "Ġask": 1723,
      "dÄ±k": 1724,
      "Ġmillet": 1725,
      "ĠkÄ±s": 1726,
      "Ä±p": 1727,
      "overn": 1728,
      "maz": 1729,
      "Ġolab": 1730,
      "ĠbaÅŁkanÄ±": 1731,
      "Ġbegan": 1732,
      "Ġdif": 1733,
      "Ġnear": 1734,
      "Ġpat": 1735,
      "Ġcontin": 1736,
      "Ġair": 1737,
      "Ġuyg": 1738,
      "ĠÃ¼st": 1739,
      "air": 1740,
      "su": 1741,
      "be": 1742,
      "Ġkab": 1743,
      "urt": 1744,
      "Ġsign": 1745,
      "ĠyÃ¶net": 1746,
      "Ġinst": 1747,
      "Ġtoplan": 1748,
      "itt": 1749,
      "Ġsaat": 1750,
      "After": 1751,
      "inci": 1752,
      "Ġmilyar": 1753,
      "ĠÃ¶r": 1754,
      "lardan": 1755,
      "may": 1756,
      "Ġremain": 1757,
      "Ġkr": 1758,
      "io": 1759,
      "Ġdid": 1760,
      "une": 1761,
      "Ġsim": 1762,
      "Ġprov": 1763,
      "ser": 1764,
      "ĠiÃ§er": 1765,
      "Ġann": 1766,
      "ĠhÃ¼k": 1767,
      "orman": 1768,
      "esini": 1769,
      "Ġboy": 1770,
      "anda": 1771,
      "ĠkasÄ±m": 1772,
      "eyen": 1773,
      "Ġbildir": 1774,
      "luk": 1775,
      "Ġbirlikte": 1776,
      "ĠLe": 1777,
      "Ġship": 1778,
      "Ġwar": 1779,
      "ÄŁÃ¼": 1780,
      "ĠyÃ¶netim": 1781,
      "Ġdestek": 1782,
      "Ġkil": 1783,
      "ĠyanÄ±": 1784,
      "Ġcould": 1785,
      "Ġolacak": 1786,
      "Ġpay": 1787,
      "Ġcalled": 1788,
      "larla": 1789,
      "eng": 1790,
      "ĠayrÄ±": 1791,
      "Ġepisode": 1792,
      "Ġcrit": 1793,
      "Ġkes": 1794,
      "Ġearly": 1795,
      "Ġhalk": 1796,
      "okt": 1797,
      "Ġveya": 1798,
      "ĠkadÄ±n": 1799,
      "erson": 1800,
      "ield": 1801,
      "Ġdescrib": 1802,
      "ĠÃ§Ä±kar": 1803,
      "ĠÅŁu": 1804,
      "Ġsit": 1805,
      "Ġcum": 1806,
      "dÃ¼l": 1807,
      "cad": 1808,
      "inc": 1809,
      "ĠdeÄŁerlendir": 1810,
      "ehir": 1811,
      "Ġtamam": 1812,
      "ative": 1813,
      "Ġdown": 1814,
      "ople": 1815,
      "ĠyaklaÅŁ": 1816,
      "Ġkim": 1817,
      "Ġalong": 1818,
      "ĠÃ§alÄ±ÅŁmalar": 1819,
      "Ġsaid": 1820,
      "Ġkayb": 1821,
      "ĠTh": 1822,
      "ps": 1823,
      "Ġavrupa": 1824,
      "As": 1825,
      "Ġsun": 1826,
      "ope": 1827,
      "Ġfl": 1828,
      "Ġrun": 1829,
      "Ġulus": 1830,
      "Ġ2011": 1831,
      "ession": 1832,
      "ĠÅŁey": 1833,
      "Ġcoun": 1834,
      "hel": 1835,
      "Ġind": 1836,
      "kur": 1837,
      "Ġhiz": 1838,
      "duÄŁu": 1839,
      "Ġstart": 1840,
      "Ġlist": 1841,
      "ĠfarklÄ±": 1842,
      "Ġkm": 1843,
      "Ġconc": 1844,
      "Ġkor": 1845,
      "ĠÃ¼y": 1846,
      "ually": 1847,
      "Al": 1848,
      "Ġthese": 1849,
      "Ġediyor": 1850,
      "ird": 1851,
      "Ġ%": 1852,
      "ann": 1853,
      "ĠJohn": 1854,
      "ĠÃ¼Ã§": 1855,
      "isinde": 1856,
      "elerin": 1857,
      "ĠyÄ±lÄ±nda": 1858,
      "eme": 1859,
      "Ġolmak": 1860,
      "ĠAmerican": 1861,
      "Ġisrail": 1862,
      "Ġcity": 1863,
      "Ġkendi": 1864,
      "Ġpolit": 1865,
      "ross": 1866,
      "Ġcih": 1867,
      "tiÄŁini": 1868,
      "lanan": 1869,
      "Ġhat": 1870,
      "ĠhÃ¼kÃ¼m": 1871,
      "gest": 1872,
      "lerinde": 1873,
      "ĠbÃ¶yle": 1874,
      "esinin": 1875,
      "ink": 1876,
      "esine": 1877,
      "itim": 1878,
      "ulan": 1879,
      "Ġtes": 1880,
      "Ġris": 1881,
      "Ġref": 1882,
      "Ġuntil": 1883,
      "ina": 1884,
      "ĠÃ¶ÄŁren": 1885,
      "ital": 1886,
      "ove": 1887,
      "ĠdÃ¼nya": 1888,
      "Ġhaber": 1889,
      "Ġiddi": 1890,
      "Ġkez": 1891,
      "ccess": 1892,
      "Ġark": 1893,
      "Ġmuh": 1894,
      "med": 1895,
      "Ġhist": 1896,
      "uv": 1897,
      "Ġprev": 1898,
      "Ġserv": 1899,
      "def": 1900,
      "ĠdoÄŁru": 1901,
      "sun": 1902,
      "Ġsame": 1903,
      "Ġbelirten": 1904,
      "oot": 1905,
      "ĠsatÄ±ÅŁ": 1906,
      "Ġsil": 1907,
      "Ġdist": 1908,
      "br": 1909,
      "adÄ±ÄŁÄ±": 1910,
      "ĠÃ¼zerine": 1911,
      "ĠkÄ±r": 1912,
      "Ġ50": 1913,
      "ĠyatÄ±r": 1914,
      "fon": 1915,
      "bakanÄ±": 1916,
      "ided": 1917,
      "ÄŁimiz": 1918,
      "ized": 1919,
      "Ġreleased": 1920,
      "Ġdisc": 1921,
      "Ġgeldi": 1922,
      "Ġbulunan": 1923,
      "Ġ21": 1924,
      "Ġresp": 1925,
      "Ġland": 1926,
      "Ġown": 1927,
      "erman": 1928,
      "ĠbaÅŁar": 1929,
      "Ġhizmet": 1930,
      "Ġfut": 1931,
      "Ġprot": 1932,
      "Ġ195": 1933,
      "Ġreturn": 1934,
      "my": 1935,
      "Ġfac": 1936,
      "ful": 1937,
      "Ġsch": 1938,
      "iversit": 1939,
      "ana": 1940,
      "Ġsol": 1941,
      "Ġsuriye": 1942,
      "ĠBritish": 1943,
      "ĠWar": 1944,
      "Ġred": 1945,
      "Ġhedef": 1946,
      "Ġcer": 1947,
      "idir": 1948,
      "Ġdesign": 1949,
      "Ġopen": 1950,
      "tÄ±ÄŁÄ±": 1951,
      "Ġmillion": 1952,
      "Ġpass": 1953,
      "masÄ±na": 1954,
      "Ġfam": 1955,
      "enn": 1956,
      "Ġnedeniyle": 1957,
      "Ġdolar": 1958,
      "Ġot": 1959,
      "ets": 1960,
      "ĠeÅŁ": 1961,
      "Ġarea": 1962,
      "Ġ24": 1963,
      "ony": 1964,
      "ĠgerÃ§ekleÅŁtir": 1965,
      "ruct": 1966,
      "Ġbecause": 1967,
      "ince": 1968,
      "Ġiht": 1969,
      "tif": 1970,
      "ĠÃ¶nc": 1971,
      "Ġ2010": 1972,
      "Ä±mÄ±": 1973,
      "Ġfinal": 1974,
      "Ġph": 1975,
      "ĠhastalÄ±k": 1976,
      "Ġchp": 1977,
      "over": 1978,
      "Ġdin": 1979,
      "ete": 1980,
      "Ġtele": 1981,
      "Ġlike": 1982,
      "Ġdet": 1983,
      "manÄ±n": 1984,
      "ĠMay": 1985,
      "ĠIs": 1986,
      "amed": 1987,
      "Ġmut": 1988,
      "Ġnda": 1989,
      "osed": 1990,
      "ĠdÃ¼ÅŁÃ¼n": 1991,
      "ĠÃ¶dÃ¼l": 1992,
      "Ġfr": 1993,
      "ika": 1994,
      "Ġmah": 1995,
      "Ġocc": 1996,
      "uring": 1997,
      "eti": 1998,
      "Ġfa": 1999,
      "Ġolay": 2000,
      "ĠyÃ¼r": 2001,
      "Ġvurgu": 2002,
      "ugust": 2003,
      "Ġconst": 2004,
      "Ġpeople": 2005,
      "Ġekonom": 2006,
      "ty": 2007,
      "mayÄ±": 2008,
      "stem": 2009,
      "Ã¼ne": 2010,
      "ange": 2011,
      "ajor": 2012,
      "Ġbat": 2013,
      "osy": 2014,
      "ĠÃ¼zerinde": 2015,
      "Ġadv": 2016,
      "ently": 2017,
      "Ġany": 2018,
      "Ġport": 2019,
      "iklerini": 2020,
      "isyon": 2021,
      "Ġsel": 2022,
      "Ġbelirtti": 2023,
      "cept": 2024,
      "Ġgroup": 2025,
      "Ġrah": 2026,
      "Ġmen": 2027,
      "Ġsiyas": 2028,
      "Ġki": 2029,
      "ĠAustr": 2030,
      "Ġimp": 2031,
      "iÅŁim": 2032,
      "eci": 2033,
      "medi": 2034,
      "ĠgÃ¶rÃ¼l": 2035,
      "ĠbÄ±r": 2036,
      "ĠgenÃ§": 2037,
      "Ġdile": 2038,
      "They": 2039,
      "ible": 2040,
      "Ġmad": 2041,
      "ady": 2042,
      "Ġsorun": 2043,
      "Ġsupport": 2044,
      "gen": 2045,
      "Ġwin": 2046,
      "Ġsix": 2047,
      "Ġkonusunda": 2048,
      "ress": 2049,
      "Ġeff": 2050,
      "vek": 2051,
      "ĠAugust": 2052,
      "Ġaround": 2053,
      "Ġmusic": 2054,
      "ĠZ": 2055,
      "asÄ±nÄ±n": 2056,
      "Ġturn": 2057,
      "Ġperforman": 2058,
      "Ġbunu": 2059,
      "Ġvide": 2060,
      "idd": 2061,
      "liam": 2062,
      "iev": 2063,
      "meye": 2064,
      "Ġnorth": 2065,
      "Ġ193": 2066,
      "uth": 2067,
      "Ġ22": 2068,
      "Ġsuccess": 2069,
      "At": 2070,
      "ĠyardÄ±m": 2071,
      "ole": 2072,
      "Ġvat": 2073,
      "bu": 2074,
      "Ġrus": 2075,
      "lish": 2076,
      "Ġkaydetti": 2077,
      "ĠSept": 2078,
      "Ġuse": 2079,
      "dur": 2080,
      "asÄ±nÄ±": 2081,
      "Ġeach": 2082,
      "kÃ¼": 2083,
      "Ġ191": 2084,
      "Ġtit": 2085,
      "mi": 2086,
      "ĠJul": 2087,
      "lace": 2088,
      "Ä±y": 2089,
      "Ġcomplet": 2090,
      "ĠÃ¼rÃ¼n": 2091,
      "ĠÃ¶zellikle": 2092,
      "Ġfollowing": 2093,
      "ĠSeptember": 2094,
      "ebilir": 2095,
      "ĠSh": 2096,
      "ĠyakÄ±n": 2097,
      "ĠyayÄ±n": 2098,
      "ĠolmasÄ±": 2099,
      "ĠgÃ¶n": 2100,
      "asÄ±na": 2101,
      "xt": 2102,
      "Ġgu": 2103,
      "Ġtelefon": 2104,
      "leyen": 2105,
      "Ġcharacter": 2106,
      "imes": 2107,
      "kes": 2108,
      "aw": 2109,
      "ĠbaÅŁladÄ±": 2110,
      "oss": 2111,
      "Ġprob": 2112,
      "Ġuygulam": 2113,
      "lub": 2114,
      "Ġhead": 2115,
      "Ġrest": 2116,
      "Ġgovern": 2117,
      "Ġmas": 2118,
      "However": 2119,
      "lum": 2120,
      "ake": 2121,
      "ident": 2122,
      "She": 2123,
      "lo": 2124,
      "ĠbÄ±rak": 2125,
      "ĠaÃ§Ä±klamada": 2126,
      "Ġuzun": 2127,
      "Ġfive": 2128,
      "bo": 2129,
      "Ġteknoloj": 2130,
      "Ġever": 2131,
      "Ġwill": 2132,
      "Ġ28": 2133,
      "Ġcontinu": 2134,
      "Ġ2009": 2135,
      "Ġattack": 2136,
      "larÄ±mÄ±z": 2137,
      "dition": 2138,
      "ĠÃ§Ã¶z": 2139,
      "Ġsonr": 2140,
      "eal": 2141,
      "Ġcumhur": 2142,
      "ari": 2143,
      "gin": 2144,
      "wards": 2145,
      "ĠoluÅŁtur": 2146,
      "Ġham": 2147,
      "Ġlarge": 2148,
      "ival": 2149,
      "ĠyatÄ±rÄ±m": 2150,
      "ĠtÃ¼k": 2151,
      "Ġcez": 2152,
      "terek": 2153,
      "An": 2154,
      "ended": 2155,
      "ĠGerman": 2156,
      "aph": 2157,
      "Ġank": 2158,
      "ording": 2159,
      "ĠsaldÄ±r": 2160,
      "eceÄŁ": 2161,
      "elt": 2162,
      "Ġten": 2163,
      "Ġ23": 2164,
      "ĠÂĳ": 2165,
      "Ġsavun": 2166,
      "Ġwhat": 2167,
      "ĠsonuÃ§": 2168,
      "masÄ±nÄ±n": 2169,
      "Ġreport": 2170,
      "Ġyapan": 2171,
      "Ġkaps": 2172,
      "kÄ±": 2173,
      "Ġbook": 2174,
      "arasÄ±": 2175,
      "ĠmÃ¼cad": 2176,
      "ĠÃ§ev": 2177,
      "Ġlast": 2178,
      "Ġstand": 2179,
      "ĠtoplantÄ±": 2180,
      "Ġrap": 2181,
      "Ġvers": 2182,
      "Ã¼p": 2183,
      "Ä±t": 2184,
      "Ġbizim": 2185,
      "ute": 2186,
      "lerle": 2187,
      "ired": 2188,
      "bers": 2189,
      "larÄ±ndan": 2190,
      "gil": 2191,
      "Ġgre": 2192,
      "ĠCan": 2193,
      "erdoÄŁan": 2194,
      "Ġ2008": 2195,
      "isini": 2196,
      "ists": 2197,
      "ĠII": 2198,
      "ĠJune": 2199,
      "ĠiliÅŁkin": 2200,
      "ĠWorld": 2201,
      "Ġbelirterek": 2202,
      "illa": 2203,
      "ague": 2204,
      "ĠbÃ¼tÃ¼n": 2205,
      "Ġdeki": 2206,
      "Ġnas": 2207,
      "ution": 2208,
      "Ġna": 2209,
      "Ġolur": 2210,
      "ouse": 2211,
      "ling": 2212,
      "Ġcontr": 2213,
      "uan": 2214,
      "ĠgeÃ§ir": 2215,
      "Ġsince": 2216,
      "alarÄ±n": 2217,
      "Ġ$": 2218,
      "las": 2219,
      "Ġline": 2220,
      "Ġtelev": 2221,
      "ĠyaÅŁan": 2222,
      "ature": 2223,
      "Ġarr": 2224,
      "Ġdirect": 2225,
      "Ġharek": 2226,
      "Ġsouth": 2227,
      "ĠStates": 2228,
      "angi": 2229,
      "ody": 2230,
      "Ġname": 2231,
      "abilir": 2232,
      "Ġener": 2233,
      "anu": 2234,
      "Ġmajor": 2235,
      "lak": 2236,
      "Ġreceived": 2237,
      "Ġfeatur": 2238,
      "Ġnet": 2239,
      "ĠÃ§aÄŁ": 2240,
      "ĠUS": 2241,
      "Ã¼mÃ¼z": 2242,
      "eder": 2243,
      "rote": 2244,
      "ects": 2245,
      "Ġgru": 2246,
      "ĠgÃ¶rÃ¼n": 2247,
      "Ġbest": 2248,
      "ivision": 2249,
      "ner": 2250,
      "Ġgit": 2251,
      "Ġber": 2252,
      "Ġmed": 2253,
      "Ã¼nÃ¼n": 2254,
      "ately": 2255,
      "dom": 2256,
      "Ġvideo": 2257,
      "ĠÃ¼zere": 2258,
      "ĠkÃ¼r": 2259,
      "Ġboz": 2260,
      "Ġsystem": 2261,
      "adÄ±r": 2262,
      "Ġwon": 2263,
      "Ã§Ä±": 2264,
      "ier": 2265,
      "Ġgazet": 2266,
      "ĠÃ¼ret": 2267,
      "Ġisim": 2268,
      "Ġbre": 2269,
      "ism": 2270,
      "Ġpartic": 2271,
      "ĠyaÅŁam": 2272,
      "cÄ±sÄ±": 2273,
      "ĠkÃ¼l": 2274,
      "meler": 2275,
      "Ġpaz": 2276,
      "ĠÄ±": 2277,
      "ull": 2278,
      "rar": 2279,
      "Ġworld": 2280,
      "Ġlife": 2281,
      "Ġedildi": 2282,
      "ped": 2283,
      "lerinden": 2284,
      "ĠsektÃ¶r": 2285,
      "Ġpublic": 2286,
      "Ġoffic": 2287,
      "ĠhÄ±z": 2288,
      "yle": 2289,
      "ives": 2290,
      "ĠNorth": 2291,
      "Ã©": 2292,
      "Ġrisk": 2293,
      "Ġdescribed": 2294,
      "ements": 2295,
      "Ġoran": 2296,
      "ĠOct": 2297,
      "ored": 2298,
      "Ġperson": 2299,
      "alt": 2300,
      "hil": 2301,
      "Ġbilim": 2302,
      "Ġtra": 2303,
      "ham": 2304,
      "Ġhel": 2305,
      "Ġec": 2306,
      "mem": 2307,
      "lah": 2308,
      "Ġhol": 2309,
      "Ġziy": 2310,
      "ĠkÃ¼": 2311,
      "Ġstate": 2312,
      "Ġtest": 2313,
      "ĠkaÃ§": 2314,
      "andaÅŁ": 2315,
      "Ġplayed": 2316,
      "ĠOctober": 2317,
      "ĠvatandaÅŁ": 2318,
      "Ġnow": 2319,
      "Ä±nÄ±z": 2320,
      "Ġ40": 2321,
      "Ġkans": 2322,
      "line": 2323,
      "ĠAustral": 2324,
      "Ġbit": 2325,
      "Ġbatt": 2326,
      "Ġbah": 2327,
      "Ġtook": 2328,
      "ĠuÃ§": 2329,
      "Ġuluslar": 2330,
      "Ġclass": 2331,
      "Ġoyuncu": 2332,
      "Ġitib": 2333,
      "ĠCol": 2334,
      "ks": 2335,
      "Ġmi": 2336,
      "ĠEur": 2337,
      "Ġincre": 2338,
      "ĠtÃ¼r": 2339,
      "Ġ26": 2340,
      "oÄŁraf": 2341,
      "empt": 2342,
      "ĠkiÅŁi": 2343,
      "Ġappro": 2344,
      "ĠhakkÄ±nda": 2345,
      "iversitesi": 2346,
      "iving": 2347,
      "ĠtanÄ±": 2348,
      "ĠNov": 2349,
      "uÅŁtur": 2350,
      "Ġwrote": 2351,
      "ont": 2352,
      "ĠJuly": 2353,
      "Ġlate": 2354,
      "ĠiÅŁlem": 2355,
      "Ġsoru": 2356,
      "gÄ±": 2357,
      "ĠsuÃ§": 2358,
      "ĠeÄŁitim": 2359,
      "lin": 2360,
      "ji": 2361,
      "Ġsosy": 2362,
      "Ġsak": 2363,
      "Ġorder": 2364,
      "ĠSouth": 2365,
      "Ġrak": 2366,
      "lacaÄŁ": 2367,
      "ĠsÄ±": 2368,
      "tÃ¼rk": 2369,
      "ĠyaklaÅŁÄ±k": 2370,
      "Ġmuch": 2371,
      "taÅŁ": 2372,
      "ĠteÅŁ": 2373,
      "Ġconf": 2374,
      "ĠkÃ¼ltÃ¼r": 2375,
      "zon": 2376,
      "ĠKing": 2377,
      "Ġbank": 2378,
      "Ġchild": 2379,
      "Ġdolay": 2380,
      "ĠsayÄ±": 2381,
      "ektr": 2382,
      "ĠartÄ±r": 2383,
      "bakanlÄ±ÄŁÄ±": 2384,
      "Ġmilletvek": 2385,
      "ĠartÄ±k": 2386,
      "Ã§i": 2387,
      "ĠsÄ±n": 2388,
      "unlarÄ±": 2389,
      "oz": 2390,
      "Ġfot": 2391,
      "tÄ±ÄŁÄ±nÄ±": 2392,
      "Ġsingle": 2393,
      "ting": 2394,
      "Ġdue": 2395,
      "olu": 2396,
      "ĠTr": 2397,
      "ĠgerektiÄŁini": 2398,
      "Ġkoy": 2399,
      "lerden": 2400,
      "pril": 2401,
      "Ġshort": 2402,
      "Ġdiffer": 2403,
      "urr": 2404,
      "nak": 2405,
      "Ġallow": 2406,
      "Ġspecies": 2407,
      "During": 2408,
      "ĠayrÄ±ca": 2409,
      "ĠgeliÅŁtir": 2410,
      "ĠÅŁim": 2411,
      "Ġfiyat": 2412,
      "ropical": 2413,
      "Ġvis": 2414,
      "ikleri": 2415,
      "Ġcamp": 2416,
      "by": 2417,
      "iti": 2418,
      "ĠApril": 2419,
      "Ġbiri": 2420,
      "Ġkurum": 2421,
      "Ġgol": 2422,
      "Ġanother": 2423,
      "ĠuluslararasÄ±": 2424,
      "sal": 2425,
      "ĠPr": 2426,
      "Ġbor": 2427,
      "get": 2428,
      "ĠkÄ±z": 2429,
      "lor": 2430,
      "Ġfutbol": 2431,
      "Ġ192": 2432,
      "Ġincluded": 2433,
      "Ġ2007": 2434,
      "Ġdeath": 2435,
      "pres": 2436,
      "Ġposs": 2437,
      "acaÄŁÄ±nÄ±": 2438,
      "Ġ]": 2439,
      "Ġgun": 2440,
      "Ġbl": 2441,
      "ene": 2442,
      "aged": 2443,
      "ively": 2444,
      "leme": 2445,
      "Ġlira": 2446,
      "Ġkabul": 2447,
      "Ġeven": 2448,
      "Ġsosyal": 2449,
      "Ġgames": 2450,
      "ileceÄŁini": 2451,
      "ĠSc": 2452,
      "anuary": 2453,
      "ales": 2454,
      "Ġstorm": 2455,
      "ology": 2456,
      "ĠDec": 2457,
      "Ġperi": 2458,
      "omb": 2459,
      "na": 2460,
      "Ġifad": 2461,
      "ĠJanuary": 2462,
      "can": 2463,
      "duÄŁunu": 2464,
      "Ġwithin": 2465,
      "ead": 2466,
      "Ġleft": 2467,
      "ĠYork": 2468,
      "Ġ[": 2469,
      "ÄŁin": 2470,
      "ĠhÃ¼kÃ¼met": 2471,
      "Ã§ok": 2472,
      "ission": 2473,
      "ilar": 2474,
      "landÄ±r": 2475,
      "Ġtah": 2476,
      "ĠaldÄ±": 2477,
      "ĠhastalÄ±": 2478,
      "Ġrahat": 2479,
      "Ġdaki": 2480,
      "Ġcontrol": 2481,
      "laim": 2482,
      "Ġbased": 2483,
      "Ġstud": 2484,
      "abet": 2485,
      "lÃ¼k": 2486,
      "Ã¼b": 2487,
      "Ġestab": 2488,
      "Ġnamed": 2489,
      "ĠyÃ¶nelik": 2490,
      "Ġsk": 2491,
      "Ġedilen": 2492,
      "Ġmec": 2493,
      "Ġattempt": 2494,
      "Ġjust": 2495,
      "rat": 2496,
      "Ġlev": 2497,
      "Ġalthough": 2498,
      "ĠSp": 2499,
      "omin": 2500,
      "erv": 2501,
      "ges": 2502,
      "Ġkont": 2503,
      "aly": 2504,
      "ĠgÃ¶nder": 2505,
      "ĠkullanÄ±cÄ±": 2506,
      "Ġsmall": 2507,
      "Ġvery": 2508,
      "ĠkarÅŁÄ±laÅŁ": 2509,
      "ĠÃ¶lÃ¼m": 2510,
      "Ġgener": 2511,
      "Ġziyaret": 2512,
      "ras": 2513,
      "Ġtec": 2514,
      "Ġleg": 2515,
      "Ġthird": 2516,
      "ger": 2517,
      "Ġkamu": 2518,
      "ÄŁu": 2519,
      "ility": 2520,
      "Ġ27": 2521,
      "Ġankara": 2522,
      "Ġtrack": 2523,
      "ĠIr": 2524,
      "Ġuzman": 2525,
      "ĠkÃ¼Ã§": 2526,
      "Ġkapsam": 2527,
      "Ġedilm": 2528,
      "Ġwind": 2529,
      "ĠbeÅŁ": 2530,
      "Ġfil": 2531,
      "Ġgovernment": 2532,
      "Ġelektr": 2533,
      "..": 2534,
      "Ġprevious": 2535,
      "ention": 2536,
      "Ġhome": 2537,
      "ĠbirÃ§ok": 2538,
      "ĠyarÄ±ÅŁ": 2539,
      "ĠilaÃ§": 2540,
      "Ġrek": 2541,
      "Ġbile": 2542,
      "ilere": 2543,
      "Ġikinci": 2544,
      "ĠGr": 2545,
      "Ġhastan": 2546,
      "omet": 2547,
      "Ġhum": 2548,
      "Ġpower": 2549,
      "van": 2550,
      "Ġway": 2551,
      "isinin": 2552,
      "ages": 2553,
      "ĠNovember": 2554,
      "Ġwater": 2555,
      "Ġfamily": 2556,
      "Ġevent": 2557,
      "isine": 2558,
      "Ġhafta": 2559,
      "Ġmey": 2560,
      "unuz": 2561,
      "Ġperform": 2562,
      "Ġreview": 2563,
      "Ġsent": 2564,
      "Ġdel": 2565,
      "suz": 2566,
      "gi": 2567,
      "Ġschool": 2568,
      "erb": 2569,
      "ented": 2570,
      "ĠMarch": 2571,
      "ĠPar": 2572,
      "Ġbay": 2573,
      "Ġfar": 2574,
      "ĠpaylaÅŁ": 2575,
      "ĠaÄŁr": 2576,
      "Ġ...": 2577,
      "row": 2578,
      "Ġperiod": 2579,
      "hing": 2580,
      "raft": 2581,
      "Ġtedavi": 2582,
      "landÄ±": 2583,
      "Ġmy": 2584,
      "Ġihtiy": 2585,
      "Ġ500": 2586,
      "ĠfotoÄŁraf": 2587,
      "Ġfur": 2588,
      "itions": 2589,
      "ards": 2590,
      "ĠWil": 2591,
      "ĠterÃ¶r": 2592,
      "ĠDecember": 2593,
      "Ġkalp": 2594,
      "acaÄŁÄ±": 2595,
      "kem": 2596,
      "ĠbaÅŁka": 2597,
      "Ġthose": 2598,
      "ĠCon": 2599,
      "ĠÃ¶ner": 2600,
      "Ġplace": 2601,
      "ĠEurope": 2602,
      "Ä±lmÄ±ÅŁ": 2603,
      "Ġbab": 2604,
      "Ġcolle": 2605,
      "ayet": 2606,
      "ex": 2607,
      "Ġ&": 2608,
      "Ġolduk": 2609,
      "lÄ±yor": 2610,
      "ched": 2611,
      "iven": 2612,
      "Ġmilli": 2613,
      "Ġgreat": 2614,
      "Ġbuilt": 2615,
      "Ġtyp": 2616,
      "Ġeur": 2617,
      "oci": 2618,
      "Ġbulundu": 2619,
      "ms": 2620,
      "ĠyapÄ±ldÄ±": 2621,
      "ides": 2622,
      "Ġrol": 2623,
      "Ġconsid": 2624,
      "malÄ±": 2625,
      "ĠEngland": 2626,
      "Ġstory": 2627,
      "ĠyÃ¼ksel": 2628,
      "izi": 2629,
      "Ä±lÄ±yor": 2630,
      "ĠbÃ¶lÃ¼m": 2631,
      "ures": 2632,
      "ulation": 2633,
      "Ġprom": 2634,
      "ached": 2635,
      "ĠdÃ¶nÃ¼ÅŁ": 2636,
      "dar": 2637,
      "Ġyi": 2638,
      "avy": 2639,
      "Ġmonth": 2640,
      "Ġtasar": 2641,
      "Ġbilgis": 2642,
      "ze": 2643,
      "Ġhap": 2644,
      "tic": 2645,
      "Ġhand": 2646,
      "Ġreal": 2647,
      "Ġfun": 2648,
      "atÄ±": 2649,
      "Ġsilah": 2650,
      "Ġrefer": 2651,
      "Ġold": 2652,
      "Ġgeri": 2653,
      "ĠaralÄ±k": 2654,
      "Ġzar": 2655,
      "ior": 2656,
      "Ġsey": 2657,
      "iversity": 2658,
      "Ġoriginal": 2659,
      "Ġkill": 2660,
      "Ġ2006": 2661,
      "ĠÅŁunlarÄ±": 2662,
      "Ġbilgisay": 2663,
      "Ġcomman": 2664,
      "Ġyetk": 2665,
      "ax": 2666,
      "ese": 2667,
      "umuz": 2668,
      "Ġcare": 2669,
      "ett": 2670,
      "eor": 2671,
      "uss": 2672,
      "ĠsavaÅŁ": 2673,
      "Ġopp": 2674,
      "Ġitibar": 2675,
      "Ġgid": 2676,
      "Ġmake": 2677,
      "Ġclub": 2678,
      "Ġcountr": 2679,
      "ĠMan": 2680,
      "itary": 2681,
      "Ġtl": 2682,
      "ĠsÄ±nÄ±r": 2683,
      "ÄŁine": 2684,
      "emi": 2685,
      "Ġbilin": 2686,
      "Ġauth": 2687,
      "Ġrequ": 2688,
      "aban": 2689,
      "ned": 2690,
      "Ġod": 2691,
      "parti": 2692,
      "ĠnasÄ±l": 2693,
      "ĠÃ¶ld": 2694,
      "Ġsug": 2695,
      "Ġgrup": 2696,
      "Ġled": 2697,
      "riend": 2698,
      "aur": 2699,
      "oÄŁun": 2700,
      "Ġ29": 2701,
      "Ġbes": 2702,
      "lis": 2703,
      "ĠgÃ¼nÃ¼": 2704,
      "lig": 2705,
      "ars": 2706,
      "vur": 2707,
      "Ġseb": 2708,
      "Ġkitap": 2709,
      "ĠanlaÅŁ": 2710,
      "Ġlim": 2711,
      "Ġbilgi": 2712,
      "ĠQ": 2713,
      "Ġpazar": 2714,
      "umu": 2715,
      "ike": 2716,
      "gr": 2717,
      "ĠhiÃ§bir": 2718,
      "izyon": 2719,
      "urric": 2720,
      "eled": 2721,
      "ture": 2722,
      "Ġortak": 2723,
      "mey": 2724,
      "Ġteknik": 2725,
      "Ġview": 2726,
      "ÄŁÃ¼nÃ¼": 2727,
      "iyorum": 2728,
      "ĠartÄ±ÅŁ": 2729,
      "ought": 2730,
      "diÄŁini": 2731,
      "Ã§a": 2732,
      "ÄŁÄ±mÄ±z": 2733,
      "Ġhey": 2734,
      "mÃ¼": 2735,
      "ops": 2736,
      "Ġkol": 2737,
      "Ġconv": 2738,
      "ert": 2739,
      "Ġmoved": 2740,
      "Ġcour": 2741,
      "ĠdiÅŁ": 2742,
      "Ġtoplam": 2743,
      "ats": 2744,
      "ĠGu": 2745,
      "Ġistedi": 2746,
      "Ġtoplum": 2747,
      "ĠRo": 2748,
      "Ġcihaz": 2749,
      "Ġstill": 2750,
      "ĠÃ§Ä±kan": 2751,
      "ĠNational": 2752,
      "Ġrole": 2753,
      "Ġjo": 2754,
      "Ġpost": 2755,
      "ĠCity": 2756,
      "Ġcame": 2757,
      "ĠhatÄ±r": 2758,
      "Ġsezon": 2759,
      "ogr": 2760,
      "Ġlocal": 2761,
      "ĠRiver": 2762,
      "cient": 2763,
      "ĠaÄŁÄ±r": 2764,
      "Ġmag": 2765,
      "muÅŁ": 2766,
      "Ġfak": 2767,
      "ically": 2768,
      "umlu": 2769,
      "hile": 2770,
      "Ġkonusu": 2771,
      "Ġcommon": 2772,
      "Ġadam": 2773,
      "tedir": 2774,
      "Ġaddition": 2775,
      "Ġoften": 2776,
      "unuyor": 2777,
      "Ġuygun": 2778,
      "Ġcaus": 2779,
      "ĠÃ¼lke": 2780,
      "eceÄŁini": 2781,
      "day": 2782,
      "ruction": 2783,
      "Ġyerine": 2784,
      "Ä±ntÄ±": 2785,
      "Ġhaft": 2786,
      "mir": 2787,
      "ences": 2788,
      "ĠAt": 2789,
      "eter": 2790,
      "Ġfew": 2791,
      "Ġherkes": 2792,
      "elere": 2793,
      "Ġtart": 2794,
      "sh": 2795,
      "alarda": 2796,
      "Ã¼nkÃ¼": 2797,
      "There": 2798,
      "Ġdil": 2799,
      "Ġ35": 2800,
      "ĠÃ§Ã¼nkÃ¼": 2801,
      "Ġconsidered": 2802,
      "Ġnext": 2803,
      "Ġplayer": 2804,
      "When": 2805,
      "elerini": 2806,
      "ĠIndi": 2807,
      "ĠFr": 2808,
      "idge": 2809,
      "Ġmot": 2810,
      "ampiyon": 2811,
      "side": 2812,
      "Ġpiyas": 2813,
      "Ġproblem": 2814,
      "ĠsÃ¼rdÃ¼r": 2815,
      "Ġsuggest": 2816,
      "ĠdÃ¼nyanÄ±n": 2817,
      "Ġmik": 2818,
      "ged": 2819,
      "His": 2820,
      "Ġmev": 2821,
      "Ä±sÄ±nda": 2822,
      "Ġtrad": 2823,
      "Ġimz": 2824,
      "ĠkaldÄ±r": 2825,
      "astern": 2826,
      "Ġcompany": 2827,
      "Ġ31": 2828,
      "Ġdeb": 2829,
      "ĠadlÄ±": 2830,
      "rench": 2831,
      "Ġsimilar": 2832,
      "laced": 2833,
      "ories": 2834,
      "Ġbuilding": 2835,
      "Ġgelecek": 2836,
      "Ġresult": 2837,
      "lear": 2838,
      "Ġright": 2839,
      "ĠyÃ¶nt": 2840,
      "Ġside": 2841,
      "Ġrecorded": 2842,
      "Ġcontain": 2843,
      "iÅŁleri": 2844,
      "adÄ±k": 2845,
      "ĠseÃ§im": 2846,
      "Ġtic": 2847,
      "Ã¼zel": 2848,
      "ants": 2849,
      "Ġolabilir": 2850,
      "Ġaa": 2851,
      "ĠbaÅŁvur": 2852,
      "Ġclaim": 2853,
      "ĠbasÄ±n": 2854,
      "siz": 2855,
      "Ġgelir": 2856,
      "Ġdra": 2857,
      "By": 2858,
      "Ġyeniden": 2859,
      "adaÅŁ": 2860,
      "Ġarch": 2861,
      "rodu": 2862,
      "mp": 2863,
      "ĠbaÄŁlÄ±": 2864,
      "Ġetmek": 2865,
      "Ġah": 2866,
      "ĠgÃ¼l": 2867,
      "ĠAd": 2868,
      "Ġfest": 2869,
      "Ġimport": 2870,
      "Ġbeliev": 2871,
      "ĠÃ§alÄ±ÅŁan": 2872,
      "crip": 2873,
      "ple": 2874,
      "sil": 2875,
      "ĠolmadÄ±ÄŁÄ±nÄ±": 2876,
      "ney": 2877,
      "Ġext": 2878,
      "Ġpublished": 2879,
      "Ġcontinued": 2880,
      "Ġveren": 2881,
      "Ġtake": 2882,
      "Ġyou": 2883,
      "ĠarkadaÅŁ": 2884,
      "Ä±yoruz": 2885,
      "Ġbilgisayar": 2886,
      "Ġeser": 2887,
      "Ġstat": 2888,
      "ĠkÃ¼Ã§Ã¼k": 2889,
      "Ġwithout": 2890,
      "rist": 2891,
      "oyal": 2892,
      "eland": 2893,
      "Ġdifferent": 2894,
      "Ġren": 2895,
      "Ġroad": 2896,
      "ĠFrench": 2897,
      "ds": 2898,
      "ai": 2899,
      "bek": 2900,
      "Ġteh": 2901,
      "Ġsinem": 2902,
      "rov": 2903,
      "Ġthough": 2904,
      "Ġkontrol": 2905,
      "Ġsongs": 2906,
      "Ġmust": 2907,
      "Ġtown": 2908,
      "Ġincel": 2909,
      "ĠHer": 2910,
      "Ġrusya": 2911,
      "Ġlaz": 2912,
      "Ġait": 2913,
      "ĠMus": 2914,
      "ĠkiÅŁinin": 2915,
      "Ġheld": 2916,
      "Ġnorm": 2917,
      "ĠEnglish": 2918,
      "Ġtimes": 2919,
      "Ġru": 2920,
      "lif": 2921,
      "ĠÅŁekl": 2922,
      "yc": 2923,
      "ĠaraÃ§": 2924,
      "Ġingil": 2925,
      "Ġformer": 2926,
      "Ġhareket": 2927,
      "Ġamong": 2928,
      "baÅŁkan": 2929,
      "ĠfÄ±r": 2930,
      "Ġdak": 2931,
      "bar": 2932,
      "Ä±lÄ±m": 2933,
      "Ġrad": 2934,
      "Ä±lÄ±Ã§": 2935,
      "roy": 2936,
      "mez": 2937,
      "ĠgÃ¼ndem": 2938,
      "ampions": 2939,
      "Ġcr": 2940,
      "Ġprote": 2941,
      "ĠyanÄ±t": 2942,
      "ĠdÃ¼zenlenen": 2943,
      "Ġbenim": 2944,
      "ball": 2945,
      "Ġeski": 2946,
      "ĠBatt": 2947,
      "ĠÃ§in": 2948,
      "Ġengel": 2949,
      "ĠtartÄ±ÅŁ": 2950,
      "Ġwritten": 2951,
      "Ä±yla": 2952,
      "Ġsig": 2953,
      "atasar": 2954,
      "atasaray": 2955,
      "Ġpuan": 2956,
      "ĠÃ§Ä±ktÄ±": 2957,
      "Ġamel": 2958,
      "Ġbeh": 2959,
      "uted": 2960,
      "Ġband": 2961,
      "Ġkent": 2962,
      "Ġmodern": 2963,
      "Ġayak": 2964,
      "ivil": 2965,
      "mar": 2966,
      "iter": 2967,
      "Ġdepr": 2968,
      "san": 2969,
      "sp": 2970,
      "Ġanlam": 2971,
      "ĠraÄŁ": 2972,
      "estern": 2973,
      "Ġhalf": 2974,
      "Ġsar": 2975,
      "ĠÃ¼retim": 2976,
      "loy": 2977,
      "eÅŁtir": 2978,
      "mÃ¼dÃ¼r": 2979,
      "Ġoluyor": 2980,
      "ĠÃ¼lkeler": 2981,
      "Ġwest": 2982,
      "ried": 2983,
      "cut": 2984,
      "ĠeleÅŁtir": 2985,
      "Ġ60": 2986,
      "urricane": 2987,
      "itch": 2988,
      "Ġeast": 2989,
      "Ġtotal": 2990,
      "ĠyÄ±": 2991,
      "ift": 2992,
      "Ġdemok": 2993,
      "Ġcid": 2994,
      "alif": 2995,
      "Ġerk": 2996,
      "Ġfurther": 2997,
      "Ġameliyat": 2998,
      "Ġdok": 2999,
      "ounty": 3000,
      "ileceÄŁi": 3001,
      "Ġtakip": 3002,
      "Ġbecome": 3003,
      "Ġrepres": 3004,
      "Ġnak": 3005,
      "ĠDivision": 3006,
      "Ġkanser": 3007,
      "meyi": 3008,
      "ĠerdoÄŁan": 3009,
      "ister": 3010,
      "ccording": 3011,
      "Ġfre": 3012,
      "eceÄŁi": 3013,
      "Ġcommun": 3014,
      "Ġfield": 3015,
      "ĠateÅŁ": 3016,
      "Ġos": 3017,
      "Ġdisp": 3018,
      "Ġail": 3019,
      "ĠsaldÄ±rÄ±": 3020,
      "Ġlan": 3021,
      "Ġhowever": 3022,
      "Ġali": 3023,
      "Ġciddi": 3024,
      "pit": 3025,
      "Ġchurch": 3026,
      "Ġkaynak": 3027,
      "ness": 3028,
      "Ġvict": 3029,
      "Ġstudi": 3030,
      "ĠyÄ±lÄ±n": 3031,
      "Ġelde": 3032,
      "itar": 3033,
      "Ġrapor": 3034,
      "Ġdays": 3035,
      "Ã¼sÃ¼": 3036,
      "Ġalman": 3037,
      "Ġtro": 3038,
      "Ġum": 3039,
      "Ġli": 3040,
      "Ġexc": 3041,
      "Ġnokt": 3042,
      "ĠÃ¶ÄŁrenc": 3043,
      "Ġlow": 3044,
      "Ġstrong": 3045,
      "Ġide": 3046,
      "ĠiliÅŁk": 3047,
      "Ġdar": 3048,
      "ÄŁÄ±nda": 3049,
      "Ġetkin": 3050,
      "Ġfind": 3051,
      "Ġzarar": 3052,
      "Ġhes": 3053,
      "ĠadÄ±m": 3054,
      "mesini": 3055,
      "Ġamer": 3056,
      "Ġcev": 3057,
      "Ġprop": 3058,
      "ott": 3059,
      "ĠyaptÄ±k": 3060,
      "ata": 3061,
      "ĠgÃ¼zel": 3062,
      "ĠChris": 3063,
      "ech": 3064,
      "Ġkav": 3065,
      "si": 3066,
      "Ġyor": 3067,
      "ĠmaÄŁ": 3068,
      "ĠkuruluÅŁ": 3069,
      "thers": 3070,
      "apan": 3071,
      "ilmek": 3072,
      "ĠyaÄŁ": 3073,
      "Ġmeh": 3074,
      "Ġbeled": 3075,
      "Ġspe": 3076,
      "kurulu": 3077,
      "Ġsab": 3078,
      "ildiÄŁini": 3079,
      "Ġposition": 3080,
      "larÄ±yla": 3081,
      "cy": 3082,
      "asÄ±ndaki": 3083,
      "ĠsÃ¼re": 3084,
      "ĠraÄŁmen": 3085,
      "Ġocak": 3086,
      "Ġparticular": 3087,
      "Ġtitle": 3088,
      "Ġrelease": 3089,
      "ches": 3090,
      "Although": 3091,
      "pite": 3092,
      "ĠÃ§eÅŁ": 3093,
      "Ġnov": 3094,
      "Ġburada": 3095,
      "tian": 3096,
      "Ġseven": 3097,
      "omen": 3098,
      "pany": 3099,
      "rac": 3100,
      "Ġblack": 3101,
      "ĠÅŁampiyon": 3102,
      "Ġpoint": 3103,
      "Ġhistory": 3104,
      "ĠgeÃ§ti": 3105,
      "oktor": 3106,
      "kÃ¼n": 3107,
      "ateg": 3108,
      "Ġsiz": 3109,
      "ĠgerÃ§ekleÅŁ": 3110,
      "emb": 3111,
      "ekli": 3112,
      "ittle": 3113,
      "abancÄ±": 3114,
      "Ġgerekiyor": 3115,
      "que": 3116,
      "ĠettiÄŁi": 3117,
      "Ġauthor": 3118,
      "ĠPort": 3119,
      "Ġdoktor": 3120,
      "ĠWh": 3121,
      "Ġgalatasaray": 3122,
      "Ġversion": 3123,
      "oung": 3124,
      "Ġtour": 3125,
      "oute": 3126,
      "Ġadet": 3127,
      "ĠComm": 3128,
      "Ġyurt": 3129,
      "Ġweek": 3130,
      "ÄŁinde": 3131,
      "leriyle": 3132,
      "ĠaltÄ±nda": 3133,
      "ĠdeÄŁiÅŁik": 3134,
      "andÄ±r": 3135,
      "ĠayÄ±nda": 3136,
      "Ġmehmet": 3137,
      "layacak": 3138,
      "ĠkÄ±sa": 3139,
      "Ġ2005": 3140,
      "ĠtÃ¼ket": 3141,
      "ĠBro": 3142,
      "Ġsite": 3143,
      "Ġmilitary": 3144,
      "Ġfail": 3145,
      "hern": 3146,
      "tens": 3147,
      "ĠÃ¼cr": 3148,
      "Ġfoot": 3149,
      "ladÄ±ÄŁÄ±": 3150,
      "Ġless": 3151,
      "tadÄ±r": 3152,
      "Ġbenz": 3153,
      "Ġyine": 3154,
      "madan": 3155,
      "undan": 3156,
      "outhern": 3157,
      "ĠmÃ¼m": 3158,
      "Ġgave": 3159,
      "Ġederek": 3160,
      "ĠMc": 3161,
      "Ġdefe": 3162,
      "lex": 3163,
      "Ä±sÄ±ndan": 3164,
      "ĠsÄ±ra": 3165,
      "ylan": 3166,
      "ject": 3167,
      "Ġval": 3168,
      "ĠsÃ¼rec": 3169,
      "fric": 3170,
      "Ġbuna": 3171,
      "Ġbody": 3172,
      "ĠFeb": 3173,
      "ruary": 3174,
      "ĠFebruary": 3175,
      "ĠbaÅŁarÄ±": 3176,
      "Ġreported": 3177,
      "ayas": 3178,
      "ĠRoman": 3179,
      "Ġchang": 3180,
      "Ġmembers": 3181,
      "According": 3182,
      "Ġsiyasi": 3183,
      "ĠÃ¼zerinden": 3184,
      "ĠyÄ±ldÄ±": 3185,
      "Ġproduced": 3186,
      "Ġfrans": 3187,
      "ĠyÄ±lda": 3188,
      "unca": 3189,
      "ĠyÄ±ldÄ±z": 3190,
      "ĠState": 3191,
      "ĠChurch": 3192,
      "ties": 3193,
      "ĠiÃ§erisinde": 3194,
      "For": 3195,
      "gÃ¼t": 3196,
      "ĠmÃ¼zik": 3197,
      "ĠverdiÄŁi": 3198,
      "Ġgetiren": 3199,
      "Ġ45": 3200,
      "ilerinin": 3201,
      "cer": 3202,
      "ĠLeague": 3203,
      "ĠinÅŁ": 3204,
      "Ġmesaj": 3205,
      "Ġ2004": 3206,
      "Ġses": 3207,
      "self": 3208,
      "ĠHe": 3209,
      "ĠiÅŁaret": 3210,
      "lÃ¼ÄŁÃ¼": 3211,
      "sÄ±": 3212,
      "ining": 3213,
      "overed": 3214,
      "lished": 3215,
      "Ġaff": 3216,
      "ograph": 3217,
      "Ġyem": 3218,
      "iment": 3219,
      "Ġsl": 3220,
      "Ġanti": 3221,
      "ots": 3222,
      "ices": 3223,
      "pan": 3224,
      "of": 3225,
      "Ġherh": 3226,
      "ilmiÅŁ": 3227,
      "ĠÃ§eÅŁit": 3228,
      "arn": 3229,
      "Ġekim": 3230,
      "ĠGen": 3231,
      "Ġtropical": 3232,
      "ae": 3233,
      "ĠFor": 3234,
      "iety": 3235,
      "ael": 3236,
      "ÄŁÄ±na": 3237,
      "orther": 3238,
      "Ġevery": 3239,
      "sik": 3240,
      "rah": 3241,
      "ĠmÃ¼mkÃ¼n": 3242,
      "Ã¶ren": 3243,
      "uÄŁ": 3244,
      "Ġistem": 3245,
      "Ġkah": 3246,
      "Ã¢": 3247,
      "Ġ190": 3248,
      "ĠgÃ¼venlik": 3249,
      "Ġaktar": 3250,
      "Ġedecek": 3251,
      "Ġett": 3252,
      "ĠyanlÄ±": 3253,
      "Ġenerji": 3254,
      "Ġhistor": 3255,
      "Ġchildren": 3256,
      "gular": 3257,
      "Ġaf": 3258,
      "With": 3259,
      "dana": 3260,
      "Ġcareer": 3261,
      "Ġinclude": 3262,
      "Ġokul": 3263,
      "lacaÄŁÄ±nÄ±": 3264,
      "ĠhatÄ±rlat": 3265,
      "emiz": 3266,
      "orthern": 3267,
      "Ġproduction": 3268,
      "Ġsam": 3269,
      "ĠhÃ¼": 3270,
      "alet": 3271,
      "Ġhaving": 3272,
      "yÄ±l": 3273,
      "ky": 3274,
      "Ġpopular": 3275,
      "aat": 3276,
      "obil": 3277,
      "Ġlost": 3278,
      "ĠdoÄŁum": 3279,
      "Ġkem": 3280,
      "ĠÃ§Ã¶zÃ¼m": 3281,
      "Ġtep": 3282,
      "ments": 3283,
      "Ġpet": 3284,
      "press": 3285,
      "Ġsurv": 3286,
      "Ġgiven": 3287,
      "ĠÅŁidd": 3288,
      "Ġcritic": 3289,
      "Ġrom": 3290,
      "Ġwant": 3291,
      "Ġkolay": 3292,
      "Ġbomb": 3293,
      "ĠaldÄ±ÄŁÄ±": 3294,
      "Ġcul": 3295,
      "Ġinvol": 3296,
      "ĠyÃ¶ntem": 3297,
      "ke": 3298,
      "ox": 3299,
      "ium": 3300,
      "ĠAnd": 3301,
      "ĠÅŁimdi": 3302,
      "Ġanayas": 3303,
      "alion": 3304,
      "reet": 3305,
      "Ġlig": 3306,
      "ogle": 3307,
      "Ġinflu": 3308,
      "ĠÃ§eken": 3309,
      "ĠSong": 3310,
      "Ġmanag": 3311,
      "Ġdiv": 3312,
      "Ġcountry": 3313,
      "Ġmur": 3314,
      "lic": 3315,
      "ebook": 3316,
      "Ġtrav": 3317,
      "ĠyapÄ±l": 3318,
      "Ġpl": 3319,
      "Ġthought": 3320,
      "Ġnever": 3321,
      "birliÄŁi": 3322,
      "Ä±ldÄ±ÄŁÄ±": 3323,
      "ĠdÃ¶nemde": 3324,
      "ĠJapan": 3325,
      "Ġkonuda": 3326,
      "Ġft": 3327,
      "Ã¼nÃ¼yor": 3328,
      "Ġsom": 3329,
      "ĠaÃ§Ä±kladÄ±": 3330,
      "Ġforces": 3331,
      "Ġsignific": 3332,
      "ĠÃ§iz": 3333,
      "irc": 3334,
      "Ġ75": 3335,
      "ĠWest": 3336,
      "lim": 3337,
      "rey": 3338,
      "elf": 3339,
      "acaÄŁÄ±z": 3340,
      "Ġuyar": 3341,
      "mada": 3342,
      "ĠkullandÄ±": 3343,
      "Ġseen": 3344,
      "anÄ±yor": 3345,
      "Ġfem": 3346,
      "ĠalÄ±yor": 3347,
      "Ġgetirdi": 3348,
      "ĠmÃ¼cadele": 3349,
      "imin": 3350,
      "Ġra": 3351,
      "Ġyani": 3352,
      "Ġcas": 3353,
      "Ġhen": 3354,
      "ĠvÃ¼": 3355,
      "Ġmerkezi": 3356,
      "ĠÅŁeklinde": 3357,
      "des": 3358,
      "duk": 3359,
      "alara": 3360,
      "aster": 3361,
      "Ġseviy": 3362,
      "Ġpress": 3363,
      "Ġstated": 3364,
      "Ġvo": 3365,
      "Ġmaking": 3366,
      "dik": 3367,
      "Ġhow": 3368,
      "ÄŁe": 3369,
      "Ġput": 3370,
      "Ġpek": 3371,
      "Ġbekl": 3372,
      "Ġeight": 3373,
      "ĠPark": 3374,
      "Ġcompet": 3375,
      "Ġche": 3376,
      "ampionship": 3377,
      "Ġyarat": 3378,
      "ĠyoÄŁun": 3379,
      "Ġtemsil": 3380,
      "tÄ±m": 3381,
      "Ġtransfer": 3382,
      "Ġmatch": 3383,
      "Ġsound": 3384,
      "Ġerkek": 3385,
      "Ġgereken": 3386,
      "Ġmilletvekili": 3387,
      "yn": 3388,
      "co": 3389,
      "rak": 3390,
      "work": 3391,
      "Ġreturned": 3392,
      "Ġcomb": 3393,
      "Ġplat": 3394,
      "Ġdon": 3395,
      "sen": 3396,
      "Ġprim": 3397,
      "Ġoperasyon": 3398,
      "round": 3399,
      "Ġx": 3400,
      "mÄ±ÅŁtÄ±": 3401,
      "Ġkomisyon": 3402,
      "Ã¼niversitesi": 3403,
      "Ġfat": 3404,
      "ĠkapsamÄ±nda": 3405,
      "Ġnormal": 3406,
      "ves": 3407,
      "ĠChar": 3408,
      "Ġfire": 3409,
      "iber": 3410,
      "Ġgod": 3411,
      "ĠÃ¶zg": 3412,
      "ĠAfric": 3413,
      "ape": 3414,
      "Ġana": 3415,
      "elerinin": 3416,
      "Ġfriend": 3417,
      "oon": 3418,
      "lÃ¼l": 3419,
      "rew": 3420,
      "ĠyapÄ±lacak": 3421,
      "Ġserg": 3422,
      "ĠdÃ¼nyada": 3423,
      "ified": 3424,
      "Ġdeniz": 3425,
      "ĠBe": 3426,
      "ĠakÄ±l": 3427,
      "ional": 3428,
      "Ġord": 3429,
      "ys": 3430,
      "tiÄŁi": 3431,
      "uluk": 3432,
      "uch": 3433,
      "ĠOr": 3434,
      "Ġisland": 3435,
      "cript": 3436,
      "Ġanlatan": 3437,
      "Ġtekrar": 3438,
      "Ġcor": 3439,
      "Ġequ": 3440,
      "Ġestablished": 3441,
      "ÅŁam": 3442,
      "ither": 3443,
      "Ġlight": 3444,
      "cial": 3445,
      "ĠyÄ±lÄ±": 3446,
      "ilerine": 3447,
      "Ġships": 3448,
      "ĠMiss": 3449,
      "ova": 3450,
      "Ġekonomik": 3451,
      "eÄŁi": 3452,
      "Ġkalk": 3453,
      "Ġreached": 3454,
      "ĠMin": 3455,
      "ĠGeor": 3456,
      "Ġannoun": 3457,
      "Ġpopulation": 3458,
      "ĠUniversity": 3459,
      "Ġhour": 3460,
      "Ġearli": 3461,
      "sat": 3462,
      "ĠbaÅŁlat": 3463,
      "Ġfu": 3464,
      "ladÄ±k": 3465,
      "iyeti": 3466,
      "sequ": 3467,
      "While": 3468,
      "Ġsistemi": 3469,
      "ĠaraÅŁtÄ±rma": 3470,
      "Ġhava": 3471,
      "lerimiz": 3472,
      "Ġtarihi": 3473,
      "Ġhep": 3474,
      "ĠAmerica": 3475,
      "Ġuygulan": 3476,
      "Ġwat": 3477,
      "Ġherhangi": 3478,
      "Ġkut": 3479,
      "lendi": 3480,
      "Ġsoc": 3481,
      "ilerini": 3482,
      "ĠyanlÄ±ÅŁ": 3483,
      "dÄ±n": 3484,
      "ĠCent": 3485,
      "Ġmm": 3486,
      "Ġaway": 3487,
      "Ġtespit": 3488,
      "Ġstruct": 3489,
      "Ġdeveloped": 3490,
      "Ġpur": 3491,
      "Ġnoted": 3492,
      "Ġanda": 3493,
      "ably": 3494,
      "Ġzamanda": 3495,
      "tay": 3496,
      "Ġthroughout": 3497,
      "che": 3498,
      "ĠÃ¶rgÃ¼t": 3499,
      "miÅŁti": 3500,
      "Ġfaal": 3501,
      "igade": 3502,
      "bm": 3503,
      "Ġtalep": 3504,
      "inted": 3505,
      "Ġerken": 3506,
      "Ġchart": 3507,
      "Ġlider": 3508,
      "Ġgood": 3509,
      "ĠgÃ¼Ã§lÃ¼": 3510,
      "Ġacross": 3511,
      "ĠAss": 3512,
      "ÄŁÄ±n": 3513,
      "izm": 3514,
      "Ġemp": 3515,
      "ĠkÃ¶tÃ¼": 3516,
      "Ġpresent": 3517,
      "gÄ±n": 3518,
      "Ġintrodu": 3519,
      "Ġinan": 3520,
      "ĠBar": 3521,
      "Ġalm": 3522,
      "part": 3523,
      "ĠbaÄŁÄ±ÅŁ": 3524,
      "Ġvak": 3525,
      "Ġtemel": 3526,
      "Ġhimself": 3527,
      "ondon": 3528,
      "Ġusing": 3529,
      "Ġded": 3530,
      "Ġsavunma": 3531,
      "uma": 3532,
      "Ġfact": 3533,
      "These": 3534,
      "cil": 3535,
      "Ġcast": 3536,
      "Ġiy": 3537,
      "Ġbulunuyor": 3538,
      "Ġdemir": 3539,
      "Ġhig": 3540,
      "Ġyetkil": 3541,
      "Ġyal": 3542,
      "Ġ70": 3543,
      "ĠyabancÄ±": 3544,
      "ami": 3545,
      "daroÄŁlu": 3546,
      "ĠDylan": 3547,
      "ountain": 3548,
      "Ġindir": 3549,
      "Ġbildirdi": 3550,
      "Ġcat": 3551,
      "Ġberaber": 3552,
      "ĠiÅŁlet": 3553,
      "ained": 3554,
      "ĠÃ§ar": 3555,
      "yardÄ±m": 3556,
      "eceÄŁiz": 3557,
      "ico": 3558,
      "Ġorganiz": 3559,
      "ĠLondon": 3560,
      "aul": 3561,
      "Ġpra": 3562,
      "Ġ2003": 3563,
      "Ġsignificant": 3564,
      "ream": 3565,
      "Ġfelt": 3566,
      "ĠÃ§alÄ±ÅŁma": 3567,
      "istin": 3568,
      "Ġvol": 3569,
      "ront": 3570,
      "Ġgec": 3571,
      "ints": 3572,
      "ĠsÄ±rasÄ±nda": 3573,
      "ĠmÄ±": 3574,
      "ĠuÄŁ": 3575,
      "mesine": 3576,
      "Ġke": 3577,
      "Ġground": 3578,
      "ford": 3579,
      "Ġilet": 3580,
      "Ġteklif": 3581,
      "cih": 3582,
      "Ġsonucu": 3583,
      "ĠdÃ¶r": 3584,
      "Ġperformed": 3585,
      "Ġ80": 3586,
      "laÅŁtÄ±r": 3587,
      "Ġfig": 3588,
      "ĠGeneral": 3589,
      "ĠdÄ±ÅŁÄ±nda": 3590,
      "Ġvir": 3591,
      "siniz": 3592,
      "Ġotur": 3593,
      "Ġmodel": 3594,
      "Ġhalinde": 3595,
      "idence": 3596,
      "Ġduyur": 3597,
      "Ġoccur": 3598,
      "Ġimportant": 3599,
      "ray": 3600,
      "Ġnight": 3601,
      "Ġnit": 3602,
      "Ã¼ncÃ¼": 3603,
      "ĠÃ¼nlÃ¼": 3604,
      "ords": 3605,
      "ĠGre": 3606,
      "Ġsanay": 3607,
      "Ġ2015": 3608,
      "Ġmiles": 3609,
      "Ġfull": 3610,
      "Ġfen": 3611,
      "ĠaÃ§Ä±": 3612,
      "Ġmid": 3613,
      "ka": 3614,
      "Ġaskeri": 3615,
      "Ġvarious": 3616,
      "Ġlab": 3617,
      "cted": 3618,
      "alarÄ±nda": 3619,
      "Ġgrubu": 3620,
      "ĠIreland": 3621,
      "Ġbebek": 3622,
      "Ġgez": 3623,
      "Ġnden": 3624,
      "ĠÃ¶ldÃ¼r": 3625,
      "abilecek": 3626,
      "Ġdestroy": 3627,
      "Ġwhite": 3628,
      "app": 3629,
      "ck": 3630,
      "ĠOld": 3631,
      "malarÄ±": 3632,
      "Ġhuman": 3633,
      "used": 3634,
      "Ġyat": 3635,
      "fic": 3636,
      "afa": 3637,
      "Ä±lÄ±Ã§daroÄŁlu": 3638,
      "ĠlazÄ±m": 3639,
      "ĠbarÄ±ÅŁ": 3640,
      "ests": 3641,
      "Ġihrac": 3642,
      "Ġ36": 3643,
      "Ġdevelopment": 3644,
      "Ġrock": 3645,
      "lemek": 3646,
      "Ġlook": 3647,
      "Ġbal": 3648,
      "ĠdeÄŁiÅŁtir": 3649,
      "Ġproc": 3650,
      "Ġyeter": 3651,
      "Ġareas": 3652,
      "Ġlo": 3653,
      "Ġiddia": 3654,
      "tih": 3655,
      "Ġ90": 3656,
      "sunuz": 3657,
      "ean": 3658,
      "Ġfaaliyet": 3659,
      "Ġdied": 3660,
      "ĠÅŁub": 3661,
      "Ġlaw": 3662,
      "aff": 3663,
      "lamak": 3664,
      "Ġtelevision": 3665,
      "Ġobser": 3666,
      "Ġpeak": 3667,
      "Ġwriting": 3668,
      "yl": 3669,
      "Ġwent": 3670,
      "lediÄŁi": 3671,
      "Ġ189": 3672,
      "Ġaday": 3673,
      "ĠaÃ§Ä±sÄ±ndan": 3674,
      "Ġshould": 3675,
      "stit": 3676,
      "ĠkatkÄ±": 3677,
      "ĠtÃ¶ren": 3678,
      "yardÄ±mcÄ±sÄ±": 3679,
      "Ġgoogle": 3680,
      "Ġsuccessful": 3681,
      "ash": 3682,
      "leniyor": 3683,
      "Ġcin": 3684,
      "ĠyÄ±ldÄ±r": 3685,
      "imately": 3686,
      "ida": 3687,
      "Ġdoes": 3688,
      "Ġmedi": 3689,
      "ota": 3690,
      "elerde": 3691,
      "Ġneed": 3692,
      "ba": 3693,
      "cel": 3694,
      "abÄ±": 3695,
      "demir": 3696,
      "ĠmÃ¼dÃ¼r": 3697,
      "ĠPer": 3698,
      "ĠAir": 3699,
      "Ġpain": 3700,
      "ĠNo": 3701,
      "Ġazal": 3702,
      "Ġbelirtildi": 3703,
      "Ġfav": 3704,
      "20": 3705,
      "Ġforce": 3706,
      "asyonu": 3707,
      "Ġstarted": 3708,
      "ĠbaÅŁarÄ±lÄ±": 3709,
      "ĠWe": 3710,
      "Ġpara": 3711,
      "ĠadÄ±": 3712,
      "Ġmix": 3713,
      "Ġevents": 3714,
      "ĠAustralia": 3715,
      "tesi": 3716,
      "ĠyÃ¶netmen": 3717,
      "Ġfeet": 3718,
      "Ġformed": 3719,
      "Ġrange": 3720,
      "Ġsee": 3721,
      "Ġtechn": 3722,
      "urg": 3723,
      "Ġplayers": 3724,
      "madÄ±": 3725,
      "Ġtas": 3726,
      "Ġgeliyor": 3727,
      "Ġlive": 3728,
      "ising": 3729,
      "Ġelect": 3730,
      "ĠdoÄŁal": 3731,
      "Ġkriz": 3732,
      "Ä±sÄ±yla": 3733,
      "Ġactiv": 3734,
      "ĠkullanÄ±": 3735,
      "Ġbus": 3736,
      "Ġgl": 3737,
      "ĠyaÅŁanan": 3738,
      "Ġexamp": 3739,
      "Ġonun": 3740,
      "Ġceza": 3741,
      "Ġfather": 3742,
      "bank": 3743,
      "rum": 3744,
      "ĠJack": 3745,
      "Ġpoem": 3746,
      "Ġvilla": 3747,
      "itive": 3748,
      "Ġsem": 3749,
      "ensive": 3750,
      "Ä±sÄ±nÄ±n": 3751,
      "Ġcaused": 3752,
      "ÄŁinin": 3753,
      "ones": 3754,
      "Ġelektrik": 3755,
      "earch": 3756,
      "Ġiniti": 3757,
      "iness": 3758,
      "ĠDav": 3759,
      "go": 3760,
      "Ġ2014": 3761,
      "Ġread": 3762,
      "ĠWilliam": 3763,
      "bi": 3764,
      "form": 3765,
      "Ġrelations": 3766,
      "ĠÃ¼yesi": 3767,
      "gy": 3768,
      "ĠÅŁeh": 3769,
      "Ġsett": 3770,
      "ĠbulunduÄŁu": 3771,
      "Ġenf": 3772,
      "nd": 3773,
      "Ġtoo": 3774,
      "Ġbundan": 3775,
      "ĠaltÄ±n": 3776,
      "Ġtercih": 3777,
      "Ġizmir": 3778,
      "sin": 3779,
      "Ġverilen": 3780,
      "iting": 3781,
      "ĠsÃ¼reÃ§": 3782,
      "Ġnovel": 3783,
      "fall": 3784,
      "Ġfilistin": 3785,
      "ĠsoruÅŁtur": 3786,
      "ĠMon": 3787,
      "ĠsÃ¶yleyen": 3788,
      "eksiyon": 3789,
      "Ġmadd": 3790,
      "rik": 3791,
      "ĠsoÄŁ": 3792,
      "Ġhiss": 3793,
      "Ġanim": 3794,
      "aign": 3795,
      "ato": 3796,
      "ological": 3797,
      "Ġgar": 3798,
      "ichael": 3799,
      "Ġsahn": 3800,
      "au": 3801,
      "Ġtor": 3802,
      "Ġedil": 3803,
      "Ġcreated": 3804,
      "Ġofficial": 3805,
      "Ġage": 3806,
      "ĠRoad": 3807,
      "Ġtabi": 3808,
      "kim": 3809,
      "gel": 3810,
      "ison": 3811,
      "Ġikt": 3812,
      "ĠbÃ¼yÃ¼m": 3813,
      "Ġmeclis": 3814,
      "ened": 3815,
      "Ġstyle": 3816,
      "Ġlevel": 3817,
      "ĠarasÄ±ndaki": 3818,
      "ĠeÄŁer": 3819,
      "Ġsuff": 3820,
      "ending": 3821,
      "Ġpot": 3822,
      "Ġortam": 3823,
      "ĠdÃ¼ÅŁÃ¼nÃ¼yor": 3824,
      "deÅŁ": 3825,
      "ĠAll": 3826,
      "omm": 3827,
      "Ġable": 3828,
      "ĠCounty": 3829,
      "ago": 3830,
      "Ġothers": 3831,
      "Ġnedenle": 3832,
      "Ġpolitical": 3833,
      "ĠX": 3834,
      "Ġcel": 3835,
      "Ġnational": 3836,
      "kenin": 3837,
      "Ä±rÄ±": 3838,
      "str": 3839,
      "Ġpil": 3840,
      "erial": 3841,
      "ances": 3842,
      "Ġalmanya": 3843,
      "Ġsize": 3844,
      "ĠgÃ¼ney": 3845,
      "dÃ¼k": 3846,
      "Ġexperi": 3847,
      "cing": 3848,
      "Ġitibaren": 3849,
      "Ġburn": 3850,
      "Ġkuz": 3851,
      "Ġhous": 3852,
      "Ġcoast": 3853,
      "esel": 3854,
      "alarÄ±nÄ±n": 3855,
      "Ġdikkati": 3856,
      "ĠPro": 3857,
      "Ġuzak": 3858,
      "edir": 3859,
      "Ġanne": 3860,
      "Ġpak": 3861,
      "ĠyÃ¼rÃ¼t": 3862,
      "Ġdol": 3863,
      "ĠEl": 3864,
      "ĠsÃ¼": 3865,
      "Ġsum": 3866,
      "cent": 3867,
      "ĠÅŁehir": 3868,
      "Ġele": 3869,
      "menin": 3870,
      "Ġtelevizyon": 3871,
      "iktaÅŁ": 3872,
      "Ġcharacters": 3873,
      "Ġenc": 3874,
      "ĠHa": 3875,
      "ĠÃ¼lkenin": 3876,
      "lacaÄŁÄ±": 3877,
      "ÅŁehir": 3878,
      "Ġfacebook": 3879,
      "Ġsalon": 3880,
      "Ġrelig": 3881,
      "Ġbegin": 3882,
      "ÄŁa": 3883,
      "Ġant": 3884,
      "Ġeffect": 3885,
      "Ġtav": 3886,
      "ĠSu": 3887,
      "ĠyÄ±llÄ±k": 3888,
      "ying": 3889,
      "Ġedeb": 3890,
      "ĠrahatsÄ±z": 3891,
      "ĠkararÄ±": 3892,
      "Ġgazze": 3893,
      "ĠvurguladÄ±": 3894,
      "ĠettiÄŁini": 3895,
      "ĠÅŁart": 3896,
      "ĠdÄ±ÅŁiÅŁleri": 3897,
      "Ġhale": 3898,
      "Ġkilomet": 3899,
      "meden": 3900,
      "Ġrej": 3901,
      "Ġtbm": 3902,
      "Ġlet": 3903,
      "Ġtbmm": 3904,
      "Ġapple": 3905,
      "Ġileri": 3906,
      "ĠamaÃ§": 3907,
      "ĠReg": 3908,
      "ĠmÃ¼cadel": 3909,
      "Ġkamp": 3910,
      "ĠÃ§at": 3911,
      "Ġonce": 3912,
      "Ġhemen": 3913,
      "ĠgeÃ§miÅŁ": 3914,
      "beled": 3915,
      "Ġkonser": 3916,
      "Ġremained": 3917,
      "Ġparti": 3918,
      "Ġ400": 3919,
      "oming": 3920,
      "ogn": 3921,
      "ĠamacÄ±": 3922,
      "ĠÅŁah": 3923,
      "isted": 3924,
      "Ġlittle": 3925,
      "Ġconn": 3926,
      "Ġeuro": 3927,
      "Ġfif": 3928,
      "wing": 3929,
      "asÄ±yla": 3930,
      "Ġsayesinde": 3931,
      "aten": 3932,
      "ĠÅŁik": 3933,
      "ĠalÄ±ÅŁ": 3934,
      "Ġlocated": 3935,
      "Ġahmet": 3936,
      "Ġcross": 3937,
      "ĠSch": 3938,
      "Ġiran": 3939,
      "craft": 3940,
      "Ġ300": 3941,
      "bor": 3942,
      "ayacak": 3943,
      "daÄŁ": 3944,
      "ĠÅŁark": 3945,
      "ering": 3946,
      "Ġscored": 3947,
      "Ġkredi": 3948,
      "Ġboyunca": 3949,
      "Ġpolitik": 3950,
      "ĠeylÃ¼l": 3951,
      "asing": 3952,
      "Ġdiffic": 3953,
      "ica": 3954,
      "ĠRich": 3955,
      "ĠhayatÄ±nÄ±": 3956,
      "Ġbaz": 3957,
      "ator": 3958,
      "Ġbed": 3959,
      "ĠkoÅŁ": 3960,
      "Ġconstruction": 3961,
      "Ġ185": 3962,
      "Ġperformance": 3963,
      "Ġrank": 3964,
      "Ġmeet": 3965,
      "Ġetkil": 3966,
      "ĠPal": 3967,
      "Ġ33": 3968,
      "lus": 3969,
      "ĠÃ¶dem": 3970,
      "Ġcompleted": 3971,
      "vet": 3972,
      "ĠgiriÅŁim": 3973,
      "Ġpromot": 3974,
      "arken": 3975,
      "Ġcumhuriyet": 3976,
      "Ġhangi": 3977,
      "Ġisteyen": 3978,
      "iller": 3979,
      "itted": 3980,
      "atter": 3981,
      "Ġannounced": 3982,
      "Ġmass": 3983,
      "ĠparÃ§": 3984,
      "ĠbeÅŁiktaÅŁ": 3985,
      "ĠAustralian": 3986,
      "ĠâĢĻ": 3987,
      "Ä±ldÄ±ÄŁÄ±nÄ±": 3988,
      "Ġcerrah": 3989,
      "Ġregion": 3990,
      "Ġhelp": 3991,
      "Ġdoc": 3992,
      "nek": 3993,
      "Ġtradition": 3994,
      "Ġyoung": 3995,
      "ĠsanatÃ§Ä±": 3996,
      "Ġassoci": 3997,
      "ĠdolayÄ±": 3998,
      "ĠsayÄ±sÄ±": 3999,
      "ls": 4000,
      "Ġgazetec": 4001,
      "ula": 4002,
      "ĠCor": 4003,
      "ĠÅŁiddet": 4004,
      "tt": 4005,
      "adaki": 4006,
      "masÄ±nda": 4007,
      "ĠChrist": 4008,
      "Ġoffer": 4009,
      "Ġdiz": 4010,
      "aller": 4011,
      "ĠEd": 4012,
      "alam": 4013,
      "ĠyapÄ±yor": 4014,
      "Ġpred": 4015,
      "Ġyana": 4016,
      "Ä±lÄ±r": 4017,
      "Ġguns": 4018,
      "Ġfight": 4019,
      "Ġinstead": 4020,
      "Ġknow": 4021,
      "Ġadded": 4022,
      "Ġbirbir": 4023,
      "Ġbeslen": 4024,
      "Ġbattle": 4025,
      "Ġhaline": 4026,
      "Ä±lÄ±ÄŁÄ±": 4027,
      "Ġbd": 4028,
      "Ġirak": 4029,
      "ĠCompany": 4030,
      "Ġball": 4031,
      "ĠdÃ¼ÅŁÃ¼k": 4032,
      "ully": 4033,
      "Ġissu": 4034,
      "ĠbaÅŁÄ±nda": 4035,
      "Ġpen": 4036,
      "Ġstars": 4037,
      "Ġfollowed": 4038,
      "ality": 4039,
      "tere": 4040,
      "Ġ2002": 4041,
      "itter": 4042,
      "wood": 4043,
      "Ġleast": 4044,
      "alk": 4045,
      "Ġkayded": 4046,
      "Ġkir": 4047,
      "ĠÃ¶zgÃ¼r": 4048,
      "off": 4049,
      "Ã¼len": 4050,
      "ĠÅŁans": 4051,
      "ĠKingdom": 4052,
      "ĠolduÄŁuna": 4053,
      "Ġmor": 4054,
      "ĠIsland": 4055,
      "Ġappeared": 4056,
      "Ã¼le": 4057,
      "Ġworks": 4058,
      "ĠgeniÅŁ": 4059,
      "Ġcampaign": 4060,
      "Ġteknoloji": 4061,
      "Ġquar": 4062,
      "ways": 4063,
      "ĠÃ¶nceki": 4064,
      "Ġcevap": 4065,
      "aba": 4066,
      "Ġkilled": 4067,
      "Ã¶k": 4068,
      "Ġinde": 4069,
      "ĠgÄ±": 4070,
      "esiyle": 4071,
      "ĠkÃ¼rt": 4072,
      "ivid": 4073,
      "Ġmonths": 4074,
      "ĠCup": 4075,
      "Ġnar": 4076,
      "ublic": 4077,
      "alarÄ±nÄ±": 4078,
      "eyin": 4079,
      "Ġbize": 4080,
      "Ġsouthern": 4081,
      "Ġinterest": 4082,
      "Ġoriginally": 4083,
      "ĠsaÄŁlÄ±klÄ±": 4084,
      "uyu": 4085,
      "Ġloss": 4086,
      "phone": 4087,
      "Ġwife": 4088,
      "Ġalacak": 4089,
      "Ġkey": 4090,
      "Ġyapmak": 4091,
      "leet": 4092,
      "Ġzir": 4093,
      "meleri": 4094,
      "ĠPhil": 4095,
      "Ġolsun": 4096,
      "rek": 4097,
      "elling": 4098,
      "emy": 4099,
      "Ġekip": 4100,
      "Ġamerik": 4101,
      "ured": 4102,
      "ĠÃ§eÅŁitli": 4103,
      "ĠAtlan": 4104,
      "ĠoÄŁ": 4105,
      "ald": 4106,
      "yip": 4107,
      "ĠsarÄ±": 4108,
      "Ġvurgulayan": 4109,
      "Ġresmi": 4110,
      "ĠoluÅŁan": 4111,
      "ĠBlack": 4112,
      "Ġtip": 4113,
      "Ġeastern": 4114,
      "ĠhenÃ¼z": 4115,
      "Ġnuc": 4116,
      "ĠanlattÄ±": 4117,
      "Ġcomment": 4118,
      "Ġcompar": 4119,
      "Ġgalib": 4120,
      "ĠakÄ±llÄ±": 4121,
      "Ġagre": 4122,
      "ĠaÄŁrÄ±": 4123,
      "osp": 4124,
      "Ġnec": 4125,
      "Ġticaret": 4126,
      "Ġistiyor": 4127,
      "ĠHar": 4128,
      "ief": 4129,
      "iyesi": 4130,
      "Ġiktid": 4131,
      "Ġste": 4132,
      "Ġprocess": 4133,
      "Ġeder": 4134,
      "Ġident": 4135,
      "enth": 4136,
      "Ä±ÅŁtÄ±r": 4137,
      "abiliyor": 4138,
      "ĠbaÅŁlayan": 4139,
      "Ġorta": 4140,
      "etik": 4141,
      "Ġgoal": 4142,
      "Ġlay": 4143,
      "Ġpark": 4144,
      "ĠRober": 4145,
      "Ġcritics": 4146,
      "ĠJames": 4147,
      "Ġborn": 4148,
      "quad": 4149,
      "Ġwomen": 4150,
      "Ġaver": 4151,
      "Ġfransa": 4152,
      "ĠSte": 4153,
      "Ġhurricane": 4154,
      "ÃŃ": 4155,
      "Ġrelationship": 4156,
      "lanÄ±yor": 4157,
      "Ġweb": 4158,
      "alth": 4159,
      "Ġaward": 4160,
      "Ġeventually": 4161,
      "Ġattr": 4162,
      "Ġkesin": 4163,
      "ĠIntern": 4164,
      "Ġolmayan": 4165,
      "ĠyapÄ±lmasÄ±": 4166,
      "bay": 4167,
      "Ġgeneral": 4168,
      "ĠakÅŁam": 4169,
      "liÄŁini": 4170,
      "maktadÄ±r": 4171,
      "ung": 4172,
      "Ġotom": 4173,
      "Ġsonunda": 4174,
      "Ġbroad": 4175,
      "Ġni": 4176,
      "Ġtaken": 4177,
      "ĠkÄ±": 4178,
      "ĠCro": 4179,
      "Ġiler": 4180,
      "Ã¡": 4181,
      "ĠalÄ±nan": 4182,
      "Ġproject": 4183,
      "sak": 4184,
      "Ġ2000": 4185,
      "ĠMag": 4186,
      "Ġcep": 4187,
      "arch": 4188,
      "Ġgiy": 4189,
      "bet": 4190,
      "Ġdal": 4191,
      "ĠsonrasÄ±": 4192,
      "wo": 4193,
      "ĠbaÄŁÄ±m": 4194,
      "mÄ±z": 4195,
      "ense": 4196,
      "Ġappo": 4197,
      "Ġroute": 4198,
      "orse": 4199,
      "ĠHigh": 4200,
      "ender": 4201,
      "Ġfourth": 4202,
      "ligi": 4203,
      "Ġfeatures": 4204,
      "Ġsahibi": 4205,
      "ĠbugÃ¼ne": 4206,
      "ĠihtiyaÃ§": 4207,
      "Ġeg": 4208,
      "Ġheavy": 4209,
      "ĠsayÄ±n": 4210,
      "Ġast": 4211,
      "Ġsand": 4212,
      "ĠÃ¶nÃ¼mÃ¼z": 4213,
      "ĠaydÄ±n": 4214,
      "dÃ¼ÄŁÃ¼nÃ¼": 4215,
      "Ġserved": 4216,
      "ration": 4217,
      "ukuk": 4218,
      "ĠAs": 4219,
      "Ġarm": 4220,
      "Ġwall": 4221,
      "Ġdamage": 4222,
      "Ä±sÄ±nÄ±": 4223,
      "gun": 4224,
      "ĠSom": 4225,
      "Ġrady": 4226,
      "St": 4227,
      "ordan": 4228,
      "Ġdahil": 4229,
      "Ġsok": 4230,
      "ĠuÃ§ak": 4231,
      "ĠcumhurbaÅŁkanÄ±": 4232,
      "amÄ±z": 4233,
      "Ġlack": 4234,
      "Ġhesap": 4235,
      "Ġ2001": 4236,
      "Ġpk": 4237,
      "Ġkalan": 4238,
      "Ġestim": 4239,
      "Ġtrib": 4240,
      "ĠBo": 4241,
      "azine": 4242,
      "mel": 4243,
      "Ġking": 4244,
      "Ġeither": 4245,
      "Ġbreak": 4246,
      "Ġmother": 4247,
      "ĠMor": 4248,
      "ĠÃ§ekti": 4249,
      "Ġdecided": 4250,
      "Ġkork": 4251,
      "Ġsold": 4252,
      "ĠÃ§ift": 4253,
      "ita": 4254,
      "Ġkaydeden": 4255,
      "ĠArmy": 4256,
      "Ġvoc": 4257,
      "ĠPol": 4258,
      "to": 4259,
      "ĠsÄ±kÄ±ntÄ±": 4260,
      "ĠFrance": 4261,
      "Ġrecogn": 4262,
      "Äģ": 4263,
      "Ġmo": 4264,
      "era": 4265,
      "Ġbehind": 4266,
      "Ġrepresent": 4267,
      "yen": 4268,
      "ĠsÄ±rada": 4269,
      "ĠBattalion": 4270,
      "osaur": 4271,
      "ahÃ§e": 4272,
      "Ġbelieved": 4273,
      "elen": 4274,
      "Ġsigara": 4275,
      "Ġmiss": 4276,
      "liv": 4277,
      "Ġtoget": 4278,
      "Ġtogether": 4279,
      "ĠyaptÄ±r": 4280,
      "Ġbeyaz": 4281,
      "ste": 4282,
      "Ġcommer": 4283,
      "Ġdair": 4284,
      "olar": 4285,
      "Ġtemsilc": 4286,
      "Ġihracat": 4287,
      "Ġcondom": 4288,
      "Ġ38": 4289,
      "antry": 4290,
      "alya": 4291,
      "Ġsepar": 4292,
      "Ġinsp": 4293,
      "Ġbdp": 4294,
      "Ġsex": 4295,
      "Ġasl": 4296,
      "car": 4297,
      "uble": 4298,
      "Ġcreat": 4299,
      "Ġneg": 4300,
      "Ġ32": 4301,
      "gre": 4302,
      "Ġ188": 4303,
      "alarÄ±na": 4304,
      "Ġbunlar": 4305,
      "Ã¼nden": 4306,
      "layarak": 4307,
      "Ġplaying": 4308,
      "kaÃ§": 4309,
      "kom": 4310,
      "Ġop": 4311,
      "Ġkons": 4312,
      "Ġindivid": 4313,
      "Ġclear": 4314,
      "Ġcover": 4315,
      "Ä±rken": 4316,
      "mayan": 4317,
      "Ġip": 4318,
      "ĠyaÅŁayan": 4319,
      "ban": 4320,
      "ĠgÃ¶rÃ¼ntÃ¼": 4321,
      "ination": 4322,
      "ĠkullanÄ±m": 4323,
      "Ġsw": 4324,
      "ĠBill": 4325,
      "mah": 4326,
      "igned": 4327,
      "ĠÃ¼Ã§Ã¼ncÃ¼": 4328,
      "Ġkarak": 4329,
      "spor": 4330,
      "Ġspecial": 4331,
      "ĠiÅŁte": 4332,
      "Ġhik": 4333,
      "olution": 4334,
      "ĠEar": 4335,
      "Ġsorum": 4336,
      "Ġservice": 4337,
      "Ġexample": 4338,
      "ullah": 4339,
      "Ġhukuk": 4340,
      "mektedir": 4341,
      "Ġfestival": 4342,
      "Ġcell": 4343,
      "Ġpolis": 4344,
      "ades": 4345,
      "gs": 4346,
      "Ġalmost": 4347,
      "dÃ¼ÄŁÃ¼": 4348,
      "ni": 4349,
      "Ġcyc": 4350,
      "amaz": 4351,
      "Ġclose": 4352,
      "mÃ¼ÅŁ": 4353,
      "ildiÄŁi": 4354,
      "Ġgider": 4355,
      "Ġpast": 4356,
      "ĠEv": 4357,
      "meyen": 4358,
      "Ġbi": 4359,
      "Ġyapacak": 4360,
      "ĠYou": 4361,
      "Ġclos": 4362,
      "Ġsaf": 4363,
      "ee": 4364,
      "aching": 4365,
      "aving": 4366,
      "ĠtÄ±p": 4367,
      "Ġaccept": 4368,
      "liament": 4369,
      "ĠaÃ§Ä±klama": 4370,
      "Ġmove": 4371,
      "ĠSec": 4372,
      "ĠÃ¶lÃ§": 4373,
      "uklu": 4374,
      "Ġhouse": 4375,
      "Ġleading": 4376,
      "Ġfall": 4377,
      "Ġpetrol": 4378,
      "Ġrakam": 4379,
      "ĠalbÃ¼m": 4380,
      "Ġcentral": 4381,
      "Ġkilo": 4382,
      "ecut": 4383,
      "ederer": 4384,
      "ids": 4385,
      "osu": 4386,
      "utes": 4387,
      "Ġ65": 4388,
      "ĠkatÄ±ldÄ±": 4389,
      "Ġhost": 4390,
      "inal": 4391,
      "Ġopened": 4392,
      "Ġanayasa": 4393,
      "ĠTown": 4394,
      "omas": 4395,
      "lue": 4396,
      "Ġcurr": 4397,
      "Ġgenerally": 4398,
      "anan": 4399,
      "Ġhab": 4400,
      "Ġtowards": 4401,
      "Ġpkk": 4402,
      "lev": 4403,
      "ĠHol": 4404,
      "ko": 4405,
      "Ġobama": 4406,
      "ĠbuluÅŁ": 4407,
      "ulmasÄ±": 4408,
      "esinden": 4409,
      "Ġton": 4410,
      "aper": 4411,
      "Ġasker": 4412,
      "Ġfutbolcu": 4413,
      "Ġweeks": 4414,
      "lÄ±ÄŁÄ±nÄ±": 4415,
      "Ġgerekir": 4416,
      "Ġosman": 4417,
      "Ġ186": 4418,
      "lied": 4419,
      "ceed": 4420,
      "Ġmuht": 4421,
      "Ġbrought": 4422,
      "ĠRoyal": 4423,
      "Ġdamar": 4424,
      "Ġnon": 4425,
      "Ġsour": 4426,
      "ĠGrand": 4427,
      "Ġlaun": 4428,
      "Ġfinished": 4429,
      "ĠCre": 4430,
      "Ġgerekli": 4431,
      "Ġinterv": 4432,
      "chiev": 4433,
      "Ġelements": 4434,
      "ĠSw": 4435,
      "ĠamacÄ±yla": 4436,
      "ĠLove": 4437,
      "Ġhan": 4438,
      "Ġmutlak": 4439,
      "Ġcost": 4440,
      "Ġalmak": 4441,
      "Ġlangu": 4442,
      "rict": 4443,
      "Ġtre": 4444,
      "Ġmahk": 4445,
      "onya": 4446,
      "Ġtat": 4447,
      "lÄ±kla": 4448,
      "labilir": 4449,
      "omes": 4450,
      "Ġsaw": 4451,
      "ĠkardeÅŁ": 4452,
      "atic": 4453,
      "ĠÃ§ocuÄŁ": 4454,
      "sas": 4455,
      "Ġfeatured": 4456,
      "Ġciv": 4457,
      "ĠyaÅŁÄ±ndaki": 4458,
      "Ġpan": 4459,
      "ho": 4460,
      "Ġsayf": 4461,
      "orts": 4462,
      "iction": 4463,
      "Ġyun": 4464,
      "ĠMex": 4465,
      "Ġaircraft": 4466,
      "ows": 4467,
      "Ġbildirildi": 4468,
      "read": 4469,
      "lies": 4470,
      "Ġregular": 4471,
      "iyatro": 4472,
      "ems": 4473,
      "ĠSim": 4474,
      "erbahÃ§e": 4475,
      "ĠÃ¶rnek": 4476,
      "elerinde": 4477,
      "ĠsaÄŁlan": 4478,
      "ĠBrigade": 4479,
      "ental": 4480,
      "Ġuygulama": 4481,
      "tayyip": 4482,
      "Ġgalibiyet": 4483,
      "Ġcommand": 4484,
      "ĠEuropean": 4485,
      "Ġdiyor": 4486,
      "Ġperformans": 4487,
      "Ġdirected": 4488,
      "ĠdÃ¼zey": 4489,
      "gal": 4490,
      "Ġkuzey": 4491,
      "Ã§ev": 4492,
      "ws": 4493,
      "Ġstudy": 4494,
      "Ġbelediye": 4495,
      "atik": 4496,
      "Ġpoints": 4497,
      "ĠkÄ±ÅŁ": 4498,
      "Ä±nÃ§": 4499,
      "kÃ¼r": 4500,
      "Ġ48": 4501,
      "Ġfront": 4502,
      "Ġprovided": 4503,
      "tÃ¶r": 4504,
      "One": 4505,
      "aker": 4506,
      "Ġaction": 4507,
      "Ġmustafa": 4508,
      "Ġkurulu": 4509,
      "ĠdÃ¶rt": 4510,
      "Ġkurt": 4511,
      "Ġmahkem": 4512,
      "ĠÃ§er": 4513,
      "Ġaraya": 4514,
      "Ġdirector": 4515,
      "ĠtoplantÄ±s": 4516,
      "Ġupon": 4517,
      "Ġindustr": 4518,
      "ĠdaÄŁÄ±": 4519,
      "Ġyorum": 4520,
      "Ġhit": 4521,
      "ĠDavid": 4522,
      "ĠViet": 4523,
      "Ġhighway": 4524,
      "Ġmeas": 4525,
      "madÄ±ÄŁÄ±nÄ±": 4526,
      "kel": 4527,
      "ĠgÃ¶k": 4528,
      "Ġround": 4529,
      "Ġdiyen": 4530,
      "ĠÃ¶ne": 4531,
      "ĠkatÄ±lÄ±m": 4532,
      "Ġappearance": 4533,
      "ĠÃ¼niversitesi": 4534,
      "Ġmean": 4535,
      "iding": 4536,
      "icro": 4537,
      "Ġearlier": 4538,
      "Des": 4539,
      "ku": 4540,
      "Ġdakik": 4541,
      "ĠmÄ±s": 4542,
      "ĠbaÄŁlan": 4543,
      "Ġindic": 4544,
      "eum": 4545,
      "Ġmh": 4546,
      "Ġriver": 4547,
      "ĠRock": 4548,
      "ĠbirkaÃ§": 4549,
      "Ġredu": 4550,
      "Ġdifficult": 4551,
      "ĠÃ¼cret": 4552,
      "Ġsend": 4553,
      "ĠtaÅŁÄ±y": 4554,
      "Ġflood": 4555,
      "Ġrather": 4556,
      "ĠkÄ±sm": 4557,
      "ĠChampionship": 4558,
      "enced": 4559,
      "ground": 4560,
      "ĠyetiÅŁ": 4561,
      "Ġfemale": 4562,
      "Ġyard": 4563,
      "ector": 4564,
      "ĠÅŁeker": 4565,
      "landa": 4566,
      "lad": 4567,
      "Ġcam": 4568,
      "ring": 4569,
      "Ġrespect": 4570,
      "ĠsatÄ±n": 4571,
      "ues": 4572,
      "asÄ±ndan": 4573,
      "ĠkullanÄ±lan": 4574,
      "ĠHero": 4575,
      "enti": 4576,
      "Ġcem": 4577,
      "gar": 4578,
      "Ġma": 4579,
      "Ġkanun": 4580,
      "Ġvi": 4581,
      "Ġyazar": 4582,
      "ĠaslÄ±nda": 4583,
      "hest": 4584,
      "nal": 4585,
      "ollowing": 4586,
      "Ġlargest": 4587,
      "Ġkapat": 4588,
      "Some": 4589,
      "Ġtun": 4590,
      "omp": 4591,
      "Ġmek": 4592,
      "Ġsubsequ": 4593,
      "ĠadÄ±na": 4594,
      "Ġhon": 4595,
      "kar": 4596,
      "Ġinform": 4597,
      "Ġsequ": 4598,
      "Ġparticularly": 4599,
      "umb": 4600,
      "Ġmiktar": 4601,
      "Ġvictory": 4602,
      "ĠHam": 4603,
      "ĠsayÄ±da": 4604,
      "ential": 4605,
      "ĠhÄ±zlÄ±": 4606,
      "Ġmutlaka": 4607,
      "Ġedilmesi": 4608,
      "ĠÃ¶zellik": 4609,
      "ĠyanÄ±nda": 4610,
      "Ġsoruml": 4611,
      "for": 4612,
      "ĠdÄ±ÅŁÄ±": 4613,
      "sue": 4614,
      "Ġachiev": 4615,
      "Ġresul": 4616,
      "Ġemploy": 4617,
      "Ġada": 4618,
      "nam": 4619,
      "ĠsoÄŁuk": 4620,
      "ÄŁÄ±nÄ±n": 4621,
      "fak": 4622,
      "Ġopening": 4623,
      "ĠÃ¶nÃ¼mÃ¼zdeki": 4624,
      "ĠgÃ¼neÅŁ": 4625,
      "ĠAct": 4626,
      "Ġextr": 4627,
      "Ġresearch": 4628,
      "Ġkadro": 4629,
      "eth": 4630,
      "Ġtroops": 4631,
      "ĠÅŁikayet": 4632,
      "Ġyans": 4633,
      "ĠCr": 4634,
      "Ġcondu": 4635,
      "asi": 4636,
      "za": 4637,
      "ĠfenerbahÃ§e": 4638,
      "ĠVal": 4639,
      "ĠGod": 4640,
      "Ġwanted": 4641,
      "umsuz": 4642,
      "Ġolup": 4643,
      "ĠdolayÄ±sÄ±yla": 4644,
      "ĠAtlantic": 4645,
      "Ġreli": 4646,
      "ĠPres": 4647,
      "Ġ1970": 4648,
      "Ġengine": 4649,
      "Ġcut": 4650,
      "ĠreÃ§": 4651,
      "Ġtaraftar": 4652,
      "thlet": 4653,
      "Ġyards": 4654,
      "Ġdern": 4655,
      "Ġlove": 4656,
      "ĠoranÄ±": 4657,
      "Ġpossible": 4658,
      "ĠIt": 4659,
      "ption": 4660,
      "bilir": 4661,
      "Ġmember": 4662,
      "Ġpoor": 4663,
      "Following": 4664,
      "Ġnorthern": 4665,
      "Ġgiz": 4666,
      "imizi": 4667,
      "Ġ1990": 4668,
      "Ġmeydana": 4669,
      "ĠyarÄ±n": 4670,
      "hal": 4671,
      "Ġpi": 4672,
      "ĠmaÃ§Ä±": 4673,
      "Ġingiltere": 4674,
      "ounted": 4675,
      "Ġevidence": 4676,
      "ĠdirektÃ¶r": 4677,
      "Ġterm": 4678,
      "Ġfoc": 4679,
      "west": 4680,
      "board": 4681,
      "Ġleng": 4682,
      "Ġfilmi": 4683,
      "Ġyemek": 4684,
      "Ġdiyabet": 4685,
      "Ġallowed": 4686,
      "ĠCoun": 4687,
      "ĠmaÃ§Ä±nda": 4688,
      "gÃ¼l": 4689,
      "Ġoperations": 4690,
      "atÃ¶r": 4691,
      "Ġarz": 4692,
      "imizin": 4693,
      "Ġmanager": 4694,
      "Ġoutside": 4695,
      "Ġbiraz": 4696,
      "Ġinsanlar": 4697,
      "Ġbana": 4698,
      "Ġstren": 4699,
      "lorida": 4700,
      "ĠRec": 4701,
      "Ġsaying": 4702,
      "ĠyayÄ±m": 4703,
      "Ġroman": 4704,
      "Ġgeb": 4705,
      "Ġreason": 4706,
      "ĠÃ§erÃ§ev": 4707,
      "ouri": 4708,
      "ĠJew": 4709,
      "ĠStreet": 4710,
      "lenmesi": 4711,
      "Ġhours": 4712,
      "Ġderece": 4713,
      "olojik": 4714,
      "Ġcihan": 4715,
      "Ġwhom": 4716,
      "aves": 4717,
      "nes": 4718,
      "adolu": 4719,
      "Ä±nca": 4720,
      "Ġur": 4721,
      "Ġsus": 4722,
      "ĠdoÃ§": 4723,
      "yan": 4724,
      "ĠbunlarÄ±n": 4725,
      "ĠInternational": 4726,
      "Ġ*": 4727,
      "ĠkonuÅŁan": 4728,
      "iddle": 4729,
      "erous": 4730,
      "arbak": 4731,
      "ellow": 4732,
      "ĠGal": 4733,
      "oca": 4734,
      "atural": 4735,
      "Ġstage": 4736,
      "Ä±ÅŁÄ±": 4737,
      "ena": 4738,
      "Ġcop": 4739,
      "Ġexist": 4740,
      "Ġworking": 4741,
      "lerce": 4742,
      "Ġworked": 4743,
      "oÄŁu": 4744,
      "Ã¼yle": 4745,
      "Ġ34": 4746,
      "Ġ187": 4747,
      "Ġkaybetti": 4748,
      "hi": 4749,
      "Ġsiyaset": 4750,
      "tak": 4751,
      "Ġregard": 4752,
      "Ġtopr": 4753,
      "Ġfakat": 4754,
      "Ġaudi": 4755,
      "Ġstreng": 4756,
      "porary": 4757,
      "Ġcase": 4758,
      "Ġyolu": 4759,
      "ÄŁÄ±m": 4760,
      "bit": 4761,
      "ĠWhite": 4762,
      "Ġshar": 4763,
      "Ġolumsuz": 4764,
      "ĠMissouri": 4765,
      "Ġfon": 4766,
      "Ġmilletvekil": 4767,
      "Ġlength": 4768,
      "ardÄ±r": 4769,
      "rece": 4770,
      "ĠbaÅŁta": 4771,
      "tuÄŁ": 4772,
      "Ġ150": 4773,
      "mesinin": 4774,
      "ille": 4775,
      "deniz": 4776,
      "Ġsakat": 4777,
      "ĠSan": 4778,
      "Ġstop": 4779,
      "Ġmhp": 4780,
      "Ġterrit": 4781,
      "Ġsanayi": 4782,
      "Ġbusiness": 4783,
      "gaz": 4784,
      "Ġpract": 4785,
      "Ġrul": 4786,
      "ĠkeÅŁ": 4787,
      "Ġtehlik": 4788,
      "cum": 4789,
      "Ġpers": 4790,
      "Ġarac": 4791,
      "Ġmach": 4792,
      "Ġumut": 4793,
      "Ġndan": 4794,
      "Ġtrab": 4795,
      "Ã¼ltesi": 4796,
      "Ġfer": 4797,
      "Ġrespons": 4798,
      "ĠÅŁubat": 4799,
      "arbakÄ±r": 4800,
      "Ġinvest": 4801,
      "emey": 4802,
      "miyor": 4803,
      "oloji": 4804,
      "Ġdesigned": 4805,
      "Ġsurf": 4806,
      "iliÄŁi": 4807,
      "anlÄ±": 4808,
      "kul": 4809,
      "Ġthink": 4810,
      "ĠÃ§ab": 4811,
      "Ġiphone": 4812,
      "Ġbeyin": 4813,
      "ÄŁiniz": 4814,
      "ming": 4815,
      "zan": 4816,
      "dies": 4817,
      "ersiz": 4818,
      "Ġoyunc": 4819,
      "Ġintens": 4820,
      "ĠyÄ±llar": 4821,
      "Ġweak": 4822,
      "Ġdurumda": 4823,
      "ĠCarey": 4824,
      "ishing": 4825,
      "hy": 4826,
      "ĠkiÅŁiler": 4827,
      "recep": 4828,
      "Ä±sÄ±na": 4829,
      "Ġtamamen": 4830,
      "Ġpraised": 4831,
      "To": 4832,
      "evi": 4833,
      "Ġ47": 4834,
      "Ġsuper": 4835,
      "Ġcm": 4836,
      "pro": 4837,
      "rd": 4838,
      "anding": 4839,
      "ĠhastalÄ±ÄŁÄ±": 4840,
      "ĠyapÄ±m": 4841,
      "ultan": 4842,
      "Ġstay": 4843,
      "Ġyarar": 4844,
      "Ġavail": 4845,
      "ĠÃ§aÄŁr": 4846,
      "Ġforced": 4847,
      "aÄŁa": 4848,
      "Ġquick": 4849,
      "ights": 4850,
      "Ġzam": 4851,
      "ĠChristian": 4852,
      "ĠmÃ¼da": 4853,
      "ĠkarÅŁÄ±lÄ±k": 4854,
      "ĠaltÄ±na": 4855,
      "Ġconstruct": 4856,
      "Ġvarsa": 4857,
      "Ġremains": 4858,
      "Ġwinds": 4859,
      "Ġ+": 4860,
      "Ġkuru": 4861,
      "Ġ37": 4862,
      "ĠComman": 4863,
      "Ġ39": 4864,
      "Ġkendisine": 4865,
      "tured": 4866,
      "Ġhekim": 4867,
      "Ġeylem": 4868,
      "elerine": 4869,
      "Ġstation": 4870,
      "Ġhus": 4871,
      "itu": 4872,
      "ĠaÅŁk": 4873,
      "akes": 4874,
      "eyle": 4875,
      "action": 4876,
      "Ġdurumunda": 4877,
      "Ġaltern": 4878,
      "ĠAm": 4879,
      "Ġyeterli": 4880,
      "Ġinternational": 4881,
      "ĠÂ£": 4882,
      "ĠÃ¼lkemiz": 4883,
      "Ġrain": 4884,
      "ĠiletiÅŁim": 4885,
      "irst": 4886,
      "Ġsonuc": 4887,
      "ĠRobert": 4888,
      "Ġnomin": 4889,
      "ediÄŁini": 4890,
      "Ġincreased": 4891,
      "Ġplatform": 4892,
      "ĠÃ¼lkede": 4893,
      "Ġbelli": 4894,
      "har": 4895,
      "diÅŁ": 4896,
      "ffic": 4897,
      "Ġprotest": 4898,
      "istic": 4899,
      "Ġzaten": 4900,
      "Ġmevcut": 4901,
      "Ġpreviously": 4902,
      "ĠboÅŁ": 4903,
      "Ġkart": 4904,
      "ĠfÃ¼z": 4905,
      "Ġgoals": 4906,
      "Ġdemokras": 4907,
      "ĠRed": 4908,
      "ĠCo": 4909,
      "ilerek": 4910,
      "dam": 4911,
      "ĠEast": 4912,
      "Ġreplaced": 4913,
      "heast": 4914,
      "ĠdÃ¶neminde": 4915,
      "ĠdiyarbakÄ±r": 4916,
      "Ġabove": 4917,
      "Ġmobil": 4918,
      "Ġmutlu": 4919,
      "Ġhasta": 4920,
      "gÃ¶r": 4921,
      "Ġsoon": 4922,
      "Ġhayata": 4923,
      "Ġtreat": 4924,
      "ĠyÄ±llarda": 4925,
      "lÃ¼yor": 4926,
      "ĠDay": 4927,
      "mamasÄ±": 4928,
      "adem": 4929,
      "Ġtiyatro": 4930,
      "ĠRep": 4931,
      "leÅŁme": 4932,
      "hod": 4933,
      "ural": 4934,
      "oms": 4935,
      "Ġifadelerini": 4936,
      "ĠSy": 4937,
      "ĠHen": 4938,
      "ĠkÄ±rmÄ±z": 4939,
      "cast": 4940,
      "field": 4941,
      "ĠItal": 4942,
      "Ä±lÄ±ÅŁ": 4943,
      "ĠgÃ¶rÃ¼len": 4944,
      "ĠBay": 4945,
      "ĠHouse": 4946,
      "lÄ±ÄŁÄ±n": 4947,
      "ga": 4948,
      "Ġsi": 4949,
      "ĠWales": 4950,
      "ĠbulunduÄŁunu": 4951,
      "Ġmaintain": 4952,
      "Ġvit": 4953,
      "Ġsabah": 4954,
      "Ġkalit": 4955,
      "quar": 4956,
      "Ġyasak": 4957,
      "meli": 4958,
      "ĠbakÄ±m": 4959,
      "Ġsamsun": 4960,
      "Ã¼f": 4961,
      "Ġly": 4962,
      "Ġaile": 4963,
      "Ġhard": 4964,
      "Ġ1980": 4965,
      "ll": 4966,
      "ument": 4967,
      "Ġ42": 4968,
      "vest": 4969,
      "ĠinsanlarÄ±n": 4970,
      "gesi": 4971,
      "ĠWal": 4972,
      "ĠkayÄ±t": 4973,
      "luÄŁ": 4974,
      "asion": 4975,
      "Ġtwitter": 4976,
      "ediÄŁi": 4977,
      "amasÄ±": 4978,
      "hat": 4979,
      "Ġ44": 4980,
      "ibuted": 4981,
      "Ġinterview": 4982,
      "aint": 4983,
      "ĠolmadÄ±ÄŁÄ±": 4984,
      "Ġwriter": 4985,
      "onc": 4986,
      "Ġelektron": 4987,
      "hens": 4988,
      "Ġthreat": 4989,
      "ĠgÃ¶tÃ¼r": 4990,
      "lav": 4991,
      "mÄ±ÅŁtÄ±r": 4992,
      "Ġmph": 4993,
      "Ġfatih": 4994,
      "ĠCanada": 4995,
      "ĠmÄ±sÄ±r": 4996,
      "ĠOne": 4997,
      "ayla": 4998,
      "ĠÂ°": 4999
    },
    "merges": [
      [
        "Ä",
        "±"
      ],
      [
        "Ġ",
        "t"
      ],
      [
        "i",
        "n"
      ],
      [
        "a",
        "n"
      ],
      [
        "e",
        "r"
      ],
      [
        "a",
        "r"
      ],
      [
        "Ġ",
        "b"
      ],
      [
        "h",
        "e"
      ],
      [
        "Ġ",
        "s"
      ],
      [
        "Ġ",
        "a"
      ],
      [
        "e",
        "n"
      ],
      [
        "Ġ",
        "o"
      ],
      [
        "Ã",
        "¼"
      ],
      [
        "Ġ",
        "d"
      ],
      [
        "Ġt",
        "he"
      ],
      [
        "u",
        "n"
      ],
      [
        "e",
        "d"
      ],
      [
        "o",
        "n"
      ],
      [
        "Å",
        "Ł"
      ],
      [
        "i",
        "l"
      ],
      [
        "o",
        "r"
      ],
      [
        "a",
        "l"
      ],
      [
        "e",
        "s"
      ],
      [
        "a",
        "t"
      ],
      [
        "Ä±",
        "n"
      ],
      [
        "Ġ",
        ","
      ],
      [
        "Ġ",
        "k"
      ],
      [
        "i",
        "s"
      ],
      [
        "a",
        "s"
      ],
      [
        "i",
        "r"
      ],
      [
        "Ä",
        "Ł"
      ],
      [
        "Ġ",
        "y"
      ],
      [
        "Ġ",
        "g"
      ],
      [
        "č",
        "Ċ"
      ],
      [
        "Ġ",
        "w"
      ],
      [
        "e",
        "l"
      ],
      [
        "Ġ",
        "m"
      ],
      [
        "Ġ",
        "f"
      ],
      [
        "Ã",
        "§"
      ],
      [
        "i",
        "t"
      ],
      [
        "Ġ",
        "h"
      ],
      [
        "Ġ",
        "c"
      ],
      [
        "Ġ",
        "."
      ],
      [
        "e",
        "t"
      ],
      [
        "Ġ",
        "an"
      ],
      [
        "Ġ",
        "p"
      ],
      [
        "Ġ",
        "in"
      ],
      [
        "a",
        "k"
      ],
      [
        "Ã",
        "¶"
      ],
      [
        "Ġo",
        "f"
      ],
      [
        "u",
        "r"
      ],
      [
        "l",
        "a"
      ],
      [
        "l",
        "ar"
      ],
      [
        "Ġ",
        "v"
      ],
      [
        "un",
        "k"
      ],
      [
        "e",
        "k"
      ],
      [
        "Ġ",
        "r"
      ],
      [
        "Ġ",
        "n"
      ],
      [
        "in",
        "g"
      ],
      [
        "Ġan",
        "d"
      ],
      [
        "Ġ",
        "<"
      ],
      [
        "l",
        "e"
      ],
      [
        "Ġt",
        "o"
      ],
      [
        "a",
        "m"
      ],
      [
        "a",
        "d"
      ],
      [
        "a",
        "y"
      ],
      [
        "i",
        "c"
      ],
      [
        "i",
        "y"
      ],
      [
        "r",
        "o"
      ],
      [
        "i",
        "m"
      ],
      [
        "e",
        "c"
      ],
      [
        "e",
        "m"
      ],
      [
        "Ġ",
        "1"
      ],
      [
        "u",
        "l"
      ],
      [
        "i",
        "on"
      ],
      [
        "d",
        "e"
      ],
      [
        "i",
        "k"
      ],
      [
        "l",
        "er"
      ],
      [
        "d",
        "a"
      ],
      [
        "u",
        "s"
      ],
      [
        "Ġ",
        "i"
      ],
      [
        "l",
        "an"
      ],
      [
        "Ġd",
        "e"
      ],
      [
        "en",
        "t"
      ],
      [
        "o",
        "m"
      ],
      [
        "Ġv",
        "e"
      ],
      [
        "o",
        "l"
      ],
      [
        "Ġt",
        "h"
      ],
      [
        "u",
        "t"
      ],
      [
        "a",
        "c"
      ],
      [
        "Ġ",
        "Ã§"
      ],
      [
        "a",
        "p"
      ],
      [
        "Ġb",
        "ir"
      ],
      [
        "Ã¼",
        "n"
      ],
      [
        "Ġ",
        "e"
      ],
      [
        "Ġ",
        "2"
      ],
      [
        "l",
        "Ä±"
      ],
      [
        "a",
        "ÅŁ"
      ],
      [
        "Ġ",
        "l"
      ],
      [
        "Ġ",
        "ar"
      ],
      [
        "Ġ",
        "is"
      ],
      [
        "Ã¼",
        "r"
      ],
      [
        "Ġ",
        "\""
      ],
      [
        "u",
        "m"
      ],
      [
        "s",
        "t"
      ],
      [
        "Ä±",
        "r"
      ],
      [
        "i",
        "z"
      ],
      [
        "Ġ",
        "Â"
      ],
      [
        "Ġ",
        "@"
      ],
      [
        "r",
        "e"
      ],
      [
        "Ġo",
        "n"
      ],
      [
        "Ġa",
        "l"
      ],
      [
        "Ġ",
        "Ã¶"
      ],
      [
        "Ġw",
        "as"
      ],
      [
        "Ġ",
        "S"
      ],
      [
        "i",
        "v"
      ],
      [
        "Ġd",
        "a"
      ],
      [
        "Ġ",
        "C"
      ],
      [
        "t",
        "er"
      ],
      [
        "Ġo",
        "l"
      ],
      [
        "d",
        "i"
      ],
      [
        "T",
        "he"
      ],
      [
        "o",
        "t"
      ],
      [
        "Ä±",
        "k"
      ],
      [
        "Ġa",
        "s"
      ],
      [
        "Ġf",
        "or"
      ],
      [
        "Ġ",
        "'"
      ],
      [
        "i",
        "d"
      ],
      [
        "a",
        "z"
      ],
      [
        "a",
        "b"
      ],
      [
        "Ġ",
        "il"
      ],
      [
        "i",
        "g"
      ],
      [
        "Ġ",
        "A"
      ],
      [
        "e",
        "y"
      ],
      [
        "l",
        "y"
      ],
      [
        "Ġb",
        "u"
      ],
      [
        "d",
        "Ä±"
      ],
      [
        "Ä±n",
        "Ä±"
      ],
      [
        "-",
        "@"
      ],
      [
        "Ġ@",
        "-@"
      ],
      [
        "a",
        "v"
      ],
      [
        "Ä±",
        "l"
      ],
      [
        "d",
        "u"
      ],
      [
        "Ġs",
        "t"
      ],
      [
        "in",
        "i"
      ],
      [
        "in",
        "e"
      ],
      [
        "i",
        "ÅŁ"
      ],
      [
        "Ġ",
        "M"
      ],
      [
        "it",
        "h"
      ],
      [
        "l",
        "i"
      ],
      [
        "o",
        "w"
      ],
      [
        "c",
        "e"
      ],
      [
        "Ġb",
        "e"
      ],
      [
        "Ä±",
        "ÅŁ"
      ],
      [
        "Ġ",
        "ÅŁ"
      ],
      [
        "o",
        "k"
      ],
      [
        "t",
        "h"
      ],
      [
        "er",
        "s"
      ],
      [
        "Ġ",
        "he"
      ],
      [
        "es",
        "t"
      ],
      [
        "er",
        "e"
      ],
      [
        "Ã¼",
        "z"
      ],
      [
        "t",
        "i"
      ],
      [
        "Ġg",
        "Ã¶"
      ],
      [
        "Ġa",
        "t"
      ],
      [
        "Ä±n",
        "da"
      ],
      [
        "e",
        "v"
      ],
      [
        "Ä±",
        "m"
      ],
      [
        "Ġth",
        "at"
      ],
      [
        "Ġw",
        "ith"
      ],
      [
        "0",
        "0"
      ],
      [
        "Ġw",
        "h"
      ],
      [
        "Ġ",
        "B"
      ],
      [
        "a",
        "ÄŁ"
      ],
      [
        "Ġo",
        "r"
      ],
      [
        "o",
        "s"
      ],
      [
        "at",
        "ion"
      ],
      [
        "Ġy",
        "ap"
      ],
      [
        "is",
        "t"
      ],
      [
        "Ġ",
        "u"
      ],
      [
        "d",
        "an"
      ],
      [
        "Ġp",
        "ro"
      ],
      [
        "Ġ",
        "it"
      ],
      [
        "Ġb",
        "y"
      ],
      [
        "Ġb",
        "aÅŁ"
      ],
      [
        "Ġi",
        "Ã§"
      ],
      [
        "a",
        "h"
      ],
      [
        "c",
        "h"
      ],
      [
        "Ġ1",
        "9"
      ],
      [
        "ĠÂ",
        "Ĵ"
      ],
      [
        "as",
        "Ä±"
      ],
      [
        "in",
        "de"
      ],
      [
        "Ġr",
        "e"
      ],
      [
        "Ġ",
        "("
      ],
      [
        "Ġ",
        ")"
      ],
      [
        "Ġc",
        "on"
      ],
      [
        "iy",
        "e"
      ],
      [
        "er",
        "i"
      ],
      [
        "l",
        "u"
      ],
      [
        "Ġ",
        "en"
      ],
      [
        "y",
        "or"
      ],
      [
        "i",
        "b"
      ],
      [
        "Ã¼",
        "k"
      ],
      [
        "es",
        "i"
      ],
      [
        "Ġ",
        "P"
      ],
      [
        "r",
        "a"
      ],
      [
        "i",
        "p"
      ],
      [
        "Ġs",
        "on"
      ],
      [
        "t",
        "Ä±"
      ],
      [
        "Ġ",
        "R"
      ],
      [
        "lar",
        "Ä±n"
      ],
      [
        "ed",
        "i"
      ],
      [
        "Ã¼",
        "l"
      ],
      [
        "Ġ",
        "ed"
      ],
      [
        "la",
        "y"
      ],
      [
        "ro",
        "m"
      ],
      [
        "as",
        "t"
      ],
      [
        "lar",
        "Ä±"
      ],
      [
        "in",
        "in"
      ],
      [
        "ÄŁ",
        "Ä±"
      ],
      [
        "iy",
        "or"
      ],
      [
        "Ġ",
        "3"
      ],
      [
        "m",
        "a"
      ],
      [
        "Ä±",
        "z"
      ],
      [
        "Ġ",
        "H"
      ],
      [
        "a",
        "g"
      ],
      [
        "o",
        "p"
      ],
      [
        "Ġk",
        "on"
      ],
      [
        "ar",
        "t"
      ],
      [
        "u",
        "g"
      ],
      [
        "o",
        "ÄŁ"
      ],
      [
        "al",
        "ar"
      ],
      [
        "Ġ",
        "D"
      ],
      [
        "o",
        "c"
      ],
      [
        "Ã¼r",
        "k"
      ],
      [
        "Ġ",
        "G"
      ],
      [
        "a",
        "in"
      ],
      [
        "Ġ",
        "N"
      ],
      [
        "Ġ",
        "et"
      ],
      [
        "Ġ",
        "F"
      ],
      [
        "d",
        "en"
      ],
      [
        "Ġh",
        "is"
      ],
      [
        "Ġ",
        "I"
      ],
      [
        "Ġf",
        "rom"
      ],
      [
        "m",
        "an"
      ],
      [
        "ĠÃ¶",
        "n"
      ],
      [
        "o",
        "v"
      ],
      [
        "Ġc",
        "om"
      ],
      [
        "Ġ",
        "J"
      ],
      [
        "Ġ",
        "T"
      ],
      [
        "es",
        "s"
      ],
      [
        "o",
        "un"
      ],
      [
        "ÄŁ",
        "i"
      ],
      [
        "Ġs",
        "u"
      ],
      [
        "en",
        "d"
      ],
      [
        "i",
        "f"
      ],
      [
        "il",
        "m"
      ],
      [
        "Ġ",
        "L"
      ],
      [
        "u",
        "ÅŁ"
      ],
      [
        "un",
        "u"
      ],
      [
        "Ġ",
        "W"
      ],
      [
        "ec",
        "t"
      ],
      [
        "Ġk",
        "ar"
      ],
      [
        "o",
        "d"
      ],
      [
        "Ġ",
        "z"
      ],
      [
        "Ġs",
        "e"
      ],
      [
        "Ã¼",
        "m"
      ],
      [
        "ĠiÃ§",
        "in"
      ],
      [
        "Ġv",
        "er"
      ],
      [
        "Ġc",
        "h"
      ],
      [
        "Ġt",
        "Ã¼rk"
      ],
      [
        "Ġol",
        "du"
      ],
      [
        "Ã¶",
        "n"
      ],
      [
        "Ġ",
        "un"
      ],
      [
        "Ġ2",
        "0"
      ],
      [
        "r",
        "u"
      ],
      [
        "or",
        "t"
      ],
      [
        "Ġm",
        "il"
      ],
      [
        "Ġb",
        "el"
      ],
      [
        "h",
        "t"
      ],
      [
        "c",
        "t"
      ],
      [
        "Ġh",
        "er"
      ],
      [
        "la",
        "m"
      ],
      [
        "an",
        "d"
      ],
      [
        "Ġa",
        "y"
      ],
      [
        "Ġn",
        "e"
      ],
      [
        "y",
        "a"
      ],
      [
        "Ġg",
        "el"
      ],
      [
        "Ġw",
        "ere"
      ],
      [
        "ec",
        "e"
      ],
      [
        "at",
        "e"
      ],
      [
        "a",
        "f"
      ],
      [
        "an",
        "s"
      ],
      [
        "an",
        "Ä±"
      ],
      [
        "t",
        "e"
      ],
      [
        "Ġy",
        "Ä±l"
      ],
      [
        "lÄ±",
        "k"
      ],
      [
        "ar",
        "d"
      ],
      [
        "Ä±",
        "s"
      ],
      [
        "Ġ",
        "E"
      ],
      [
        "Ġil",
        "e"
      ],
      [
        "ler",
        "i"
      ],
      [
        "Ġ",
        "5"
      ],
      [
        "Ġa",
        "d"
      ],
      [
        "Ġb",
        "il"
      ],
      [
        "ic",
        "h"
      ],
      [
        "Ä±n",
        "a"
      ],
      [
        "Ġ",
        "4"
      ],
      [
        "el",
        "er"
      ],
      [
        "Ä±n",
        "Ä±n"
      ],
      [
        "y",
        "on"
      ],
      [
        "b",
        "er"
      ],
      [
        "o",
        "ut"
      ],
      [
        "Ġs",
        "p"
      ],
      [
        "Ġa",
        "Ã§"
      ],
      [
        "al",
        "l"
      ],
      [
        "Ã¶",
        "y"
      ],
      [
        "il",
        "er"
      ],
      [
        "p",
        "p"
      ],
      [
        "Ġe",
        "x"
      ],
      [
        "l",
        "ik"
      ],
      [
        "am",
        "e"
      ],
      [
        "Ã¼",
        "ÅŁ"
      ],
      [
        "an",
        "t"
      ],
      [
        "ay",
        "a"
      ],
      [
        "at",
        "ed"
      ],
      [
        "it",
        "y"
      ],
      [
        "Ġg",
        "er"
      ],
      [
        "Ġt",
        "r"
      ],
      [
        "Ġ",
        "â"
      ],
      [
        "Ġ",
        "el"
      ],
      [
        "u",
        "z"
      ],
      [
        "Ġar",
        "e"
      ],
      [
        "iv",
        "e"
      ],
      [
        "la",
        "c"
      ],
      [
        "Ã¼",
        "y"
      ],
      [
        "or",
        "e"
      ],
      [
        "Ġa",
        "b"
      ],
      [
        "Ġs",
        "h"
      ],
      [
        "e",
        "b"
      ],
      [
        "q",
        "u"
      ],
      [
        "e",
        "z"
      ],
      [
        "Ġ20",
        "1"
      ],
      [
        "Ġ2",
        "00"
      ],
      [
        "Ġâ",
        "Ģ"
      ],
      [
        "g",
        "e"
      ],
      [
        "ar",
        "k"
      ],
      [
        "Ġh",
        "ad"
      ],
      [
        "ÄŁ",
        "ini"
      ],
      [
        "Ġoldu",
        "ÄŁ"
      ],
      [
        "Ä±n",
        "dan"
      ],
      [
        "ĠtÃ¼rk",
        "iye"
      ],
      [
        "e",
        "ar"
      ],
      [
        "lar",
        "ak"
      ],
      [
        "I",
        "n"
      ],
      [
        "Ġn",
        "ot"
      ],
      [
        "t",
        "r"
      ],
      [
        "Ġ",
        "O"
      ],
      [
        "m",
        "asÄ±"
      ],
      [
        "Ġb",
        "ul"
      ],
      [
        "d",
        "er"
      ],
      [
        "Ġwh",
        "ich"
      ],
      [
        "o",
        "ur"
      ],
      [
        "la",
        "ÅŁ"
      ],
      [
        "u",
        "k"
      ],
      [
        "Ġ",
        "le"
      ],
      [
        "v",
        "er"
      ],
      [
        "h",
        "a"
      ],
      [
        "Ġi",
        "ÅŁ"
      ],
      [
        "o",
        "st"
      ],
      [
        "Ġde",
        "ÄŁ"
      ],
      [
        "Ġde",
        "v"
      ],
      [
        "s",
        "e"
      ],
      [
        "Ġf",
        "ir"
      ],
      [
        "ĠgÃ¶",
        "r"
      ],
      [
        "Ġn",
        "in"
      ],
      [
        "on",
        "g"
      ],
      [
        "Ġg",
        "en"
      ],
      [
        "Ġt",
        "ar"
      ],
      [
        "ĠÃ§",
        "ok"
      ],
      [
        "i",
        "es"
      ],
      [
        "l",
        "en"
      ],
      [
        "Ġis",
        "t"
      ],
      [
        "Ġp",
        "r"
      ],
      [
        "ec",
        "ek"
      ],
      [
        "a",
        "Ã§"
      ],
      [
        "t",
        "ir"
      ],
      [
        "r",
        "it"
      ],
      [
        "Ġd",
        "ur"
      ],
      [
        "Ġo",
        "larak"
      ],
      [
        "Ġin",
        "c"
      ],
      [
        "l",
        "et"
      ],
      [
        "o",
        "us"
      ],
      [
        "e",
        "Ã§"
      ],
      [
        "ad",
        "a"
      ],
      [
        "le",
        "m"
      ],
      [
        "o",
        "y"
      ],
      [
        "p",
        "t"
      ],
      [
        "Ġh",
        "av"
      ],
      [
        "e",
        "w"
      ],
      [
        "ad",
        "e"
      ],
      [
        "Ġk",
        "al"
      ],
      [
        "o",
        "g"
      ],
      [
        "Ġk",
        "ul"
      ],
      [
        "Ġbel",
        "ir"
      ],
      [
        "al",
        "ly"
      ],
      [
        "m",
        "ak"
      ],
      [
        "ug",
        "h"
      ],
      [
        "t",
        "Ä±r"
      ],
      [
        "is",
        "h"
      ],
      [
        "Ġ",
        "6"
      ],
      [
        "Ġg",
        "Ã¼n"
      ],
      [
        "ek",
        "i"
      ],
      [
        "Ġ",
        "U"
      ],
      [
        "il",
        "i"
      ],
      [
        "lan",
        "d"
      ],
      [
        "ig",
        "ht"
      ],
      [
        "ar",
        "y"
      ],
      [
        "ak",
        "i"
      ],
      [
        "Ġk",
        "ad"
      ],
      [
        "ac",
        "k"
      ],
      [
        "Ġs",
        "Ã¼r"
      ],
      [
        "ĠÃ¶",
        "z"
      ],
      [
        "Ġa",
        "k"
      ],
      [
        "or",
        "d"
      ],
      [
        "Ġ",
        "j"
      ],
      [
        "Ġ",
        "K"
      ],
      [
        "Ã¶",
        "r"
      ],
      [
        "ĠÂ",
        "Ķ"
      ],
      [
        "Ä±",
        "lÄ±"
      ],
      [
        "Ġt",
        "e"
      ],
      [
        "ĠÂ",
        "ĵ"
      ],
      [
        "il",
        "e"
      ],
      [
        "Ġy",
        "aÅŁ"
      ],
      [
        "el",
        "l"
      ],
      [
        "ÄŁ",
        "Ä±nÄ±"
      ],
      [
        "Ġd",
        "o"
      ],
      [
        "Ġk",
        "ur"
      ],
      [
        "t",
        "en"
      ],
      [
        "Ġk",
        "ay"
      ],
      [
        "Ġy",
        "Ã¶n"
      ],
      [
        "Ġo",
        "y"
      ],
      [
        "ed",
        "en"
      ],
      [
        "Ġy",
        "er"
      ],
      [
        "Ġg",
        "eÃ§"
      ],
      [
        "p",
        "r"
      ],
      [
        "ĠÃ§",
        "Ä±k"
      ],
      [
        "Ġ",
        "7"
      ],
      [
        "Ġda",
        "ha"
      ],
      [
        "h",
        "er"
      ],
      [
        "th",
        "er"
      ],
      [
        "Ġu",
        "y"
      ],
      [
        "ĠÃ§",
        "al"
      ],
      [
        "s",
        "o"
      ],
      [
        "Ġo",
        "lan"
      ],
      [
        "ler",
        "in"
      ],
      [
        "t",
        "a"
      ],
      [
        "Ġ",
        ";"
      ],
      [
        "c",
        "c"
      ],
      [
        "Ġ",
        "im"
      ],
      [
        "i",
        "de"
      ],
      [
        "g",
        "u"
      ],
      [
        "o",
        "ul"
      ],
      [
        "Ġkul",
        "lan"
      ],
      [
        "Ġh",
        "ast"
      ],
      [
        "Ġt",
        "w"
      ],
      [
        "Ġr",
        "es"
      ],
      [
        "m",
        "as"
      ],
      [
        "Ġb",
        "ut"
      ],
      [
        "al",
        "Ä±"
      ],
      [
        "Ġthe",
        "ir"
      ],
      [
        "Ġt",
        "ak"
      ],
      [
        "u",
        "b"
      ],
      [
        "m",
        "er"
      ],
      [
        "Ġe",
        "v"
      ],
      [
        "y",
        "la"
      ],
      [
        "Ġy",
        "en"
      ],
      [
        "Ġy",
        "ar"
      ],
      [
        "Ġh",
        "as"
      ],
      [
        "ak",
        "an"
      ],
      [
        "i",
        "h"
      ],
      [
        "il",
        "l"
      ],
      [
        "Ġ",
        "Ä±n"
      ],
      [
        "Ġcom",
        "p"
      ],
      [
        "i",
        "a"
      ],
      [
        "Ġs",
        "or"
      ],
      [
        "Ġfir",
        "st"
      ],
      [
        "p",
        "er"
      ],
      [
        "iy",
        "le"
      ],
      [
        "Ġy",
        "Ã¼z"
      ],
      [
        "f",
        "ter"
      ],
      [
        "ĠC",
        "h"
      ],
      [
        "Ġv",
        "ar"
      ],
      [
        "Ġit",
        "s"
      ],
      [
        "Ġb",
        "Ã¼y"
      ],
      [
        "Ġ",
        "8"
      ],
      [
        "ĠS",
        "t"
      ],
      [
        "ion",
        "s"
      ],
      [
        "Ġ",
        "us"
      ],
      [
        "ev",
        "er"
      ],
      [
        "ĠÃ§al",
        "Ä±ÅŁ"
      ],
      [
        "Ġ",
        "er"
      ],
      [
        "Ġh",
        "al"
      ],
      [
        "ac",
        "ak"
      ],
      [
        "oul",
        "d"
      ],
      [
        "oun",
        "d"
      ],
      [
        "or",
        "k"
      ],
      [
        "Ġ1",
        "8"
      ],
      [
        "lar",
        "Ä±nÄ±"
      ],
      [
        "m",
        "ent"
      ],
      [
        "c",
        "Ä±"
      ],
      [
        "t",
        "ur"
      ],
      [
        "Ġs",
        "Ã¶y"
      ],
      [
        "il",
        "di"
      ],
      [
        "in",
        "d"
      ],
      [
        "Ġto",
        "p"
      ],
      [
        "ĠâĢ",
        "ĵ"
      ],
      [
        "he",
        "d"
      ],
      [
        "Ġs",
        "ay"
      ],
      [
        "ic",
        "al"
      ],
      [
        "he",
        "n"
      ],
      [
        "an",
        "g"
      ],
      [
        "r",
        "i"
      ],
      [
        "Ġal",
        "so"
      ],
      [
        "Ġ",
        ":"
      ],
      [
        "Ä±",
        "lan"
      ],
      [
        "Ä±",
        "yor"
      ],
      [
        "im",
        "e"
      ],
      [
        "k",
        "en"
      ],
      [
        "Ġ",
        "Ã¼z"
      ],
      [
        "Ġ",
        "ek"
      ],
      [
        "as",
        "s"
      ],
      [
        "ow",
        "n"
      ],
      [
        "Ġin",
        "t"
      ],
      [
        "Ġt",
        "ek"
      ],
      [
        "Ġs",
        "aÄŁ"
      ],
      [
        "ĠaÃ§",
        "Ä±k"
      ],
      [
        "is",
        "i"
      ],
      [
        "Ġar",
        "t"
      ],
      [
        "om",
        "e"
      ],
      [
        "ter",
        "n"
      ],
      [
        "ad",
        "Ä±"
      ],
      [
        "l",
        "at"
      ],
      [
        "u",
        "p"
      ],
      [
        "Ġ",
        "ik"
      ],
      [
        "el",
        "e"
      ],
      [
        "d",
        "Ä±r"
      ],
      [
        "ib",
        "i"
      ],
      [
        "Ġger",
        "ek"
      ],
      [
        "l",
        "d"
      ],
      [
        "Ġf",
        "ilm"
      ],
      [
        "il",
        "en"
      ],
      [
        "Ġis",
        "e"
      ],
      [
        "f",
        "f"
      ],
      [
        "or",
        "m"
      ],
      [
        "m",
        "e"
      ],
      [
        "ig",
        "n"
      ],
      [
        "Ġ",
        "9"
      ],
      [
        "c",
        "i"
      ],
      [
        "ĠgÃ¶",
        "re"
      ],
      [
        "Ġhav",
        "e"
      ],
      [
        "Ġbul",
        "un"
      ],
      [
        "Ġs",
        "er"
      ],
      [
        "un",
        "da"
      ],
      [
        "Ġd",
        "en"
      ],
      [
        "Ġa",
        "pp"
      ],
      [
        "am",
        "p"
      ],
      [
        "ĠbaÅŁ",
        "k"
      ],
      [
        "le",
        "y"
      ],
      [
        "Ġon",
        "e"
      ],
      [
        "as",
        "Ä±nda"
      ],
      [
        "Ġr",
        "ec"
      ],
      [
        "at",
        "er"
      ],
      [
        "Ġkar",
        "ÅŁ"
      ],
      [
        "un",
        "un"
      ],
      [
        "us",
        "t"
      ],
      [
        "l",
        "Ã¼"
      ],
      [
        "on",
        "d"
      ],
      [
        "Ġi",
        "f"
      ],
      [
        "l",
        "edi"
      ],
      [
        "Ġd",
        "Ã¼n"
      ],
      [
        "le",
        "ÅŁ"
      ],
      [
        "l",
        "ow"
      ],
      [
        "Ġp",
        "er"
      ],
      [
        "Ġp",
        "art"
      ],
      [
        "Ġ",
        "V"
      ],
      [
        "Ġm",
        "an"
      ],
      [
        "Ã¶",
        "z"
      ],
      [
        "Ġbe",
        "en"
      ],
      [
        "u",
        "e"
      ],
      [
        "Ġtw",
        "o"
      ],
      [
        "r",
        "en"
      ],
      [
        "la",
        "dÄ±"
      ],
      [
        "ĠolduÄŁ",
        "unu"
      ],
      [
        "Ġ1",
        "0"
      ],
      [
        ".",
        "@"
      ],
      [
        "Ġ@",
        ".@"
      ],
      [
        "ur",
        "e"
      ],
      [
        "ĠbÃ¼y",
        "Ã¼k"
      ],
      [
        "Ġcon",
        "t"
      ],
      [
        "il",
        "ir"
      ],
      [
        "el",
        "y"
      ],
      [
        "im",
        "iz"
      ],
      [
        "iy",
        "et"
      ],
      [
        "Ġwh",
        "o"
      ],
      [
        "e",
        "ÅŁ"
      ],
      [
        "Ġ",
        "The"
      ],
      [
        "Ġp",
        "ar"
      ],
      [
        "t",
        "ed"
      ],
      [
        "Ġd",
        "edi"
      ],
      [
        "Ġb",
        "ec"
      ],
      [
        "Ġd",
        "is"
      ],
      [
        "g",
        "an"
      ],
      [
        "Ġp",
        "lay"
      ],
      [
        "o",
        "b"
      ],
      [
        "c",
        "u"
      ],
      [
        "Ġol",
        "m"
      ],
      [
        "Ġin",
        "s"
      ],
      [
        "Ġth",
        "is"
      ],
      [
        "d",
        "ing"
      ],
      [
        "Ġb",
        "as"
      ],
      [
        "f",
        "er"
      ],
      [
        "it",
        "e"
      ],
      [
        "Ä±m",
        "Ä±z"
      ],
      [
        "ag",
        "e"
      ],
      [
        "en",
        "ce"
      ],
      [
        "Ġor",
        "t"
      ],
      [
        "Ġkon",
        "uÅŁ"
      ],
      [
        "Ġy",
        "ak"
      ],
      [
        "Ã¼",
        "t"
      ],
      [
        "i",
        "an"
      ],
      [
        "Ġb",
        "in"
      ],
      [
        "Ġ",
        "Ã¼"
      ],
      [
        "Ġd",
        "Ã¶n"
      ],
      [
        "ent",
        "s"
      ],
      [
        "it",
        "ion"
      ],
      [
        "Ġil",
        "g"
      ],
      [
        "Ġd",
        "oÄŁ"
      ],
      [
        "Ġd",
        "Ã¼ÅŁ"
      ],
      [
        "Ġa",
        "g"
      ],
      [
        "Ġb",
        "o"
      ],
      [
        "Ġ",
        "Ã¼l"
      ],
      [
        "Ġthe",
        "y"
      ],
      [
        "Ġil",
        "k"
      ],
      [
        "c",
        "r"
      ],
      [
        "ĠÃ¶n",
        "em"
      ],
      [
        "el",
        "i"
      ],
      [
        "m",
        "ek"
      ],
      [
        "ac",
        "h"
      ],
      [
        "ler",
        "ini"
      ],
      [
        "Ġd",
        "es"
      ],
      [
        "r",
        "am"
      ],
      [
        "Ġy",
        "ear"
      ],
      [
        "Ġa",
        "m"
      ],
      [
        "Ġg",
        "ibi"
      ],
      [
        "e",
        "p"
      ],
      [
        "Ġb",
        "iz"
      ],
      [
        "Ä±l",
        "dÄ±"
      ],
      [
        "Ġn",
        "Ä±n"
      ],
      [
        "Ġet",
        "ti"
      ],
      [
        "an",
        "k"
      ],
      [
        "ur",
        "n"
      ],
      [
        "Ġg",
        "et"
      ],
      [
        "i",
        "al"
      ],
      [
        "Ġk",
        "at"
      ],
      [
        "Ġs",
        "ah"
      ],
      [
        "Ġg",
        "Ã¼"
      ],
      [
        "or",
        "y"
      ],
      [
        "er",
        "n"
      ],
      [
        "la",
        "b"
      ],
      [
        "ar",
        "Ä±"
      ],
      [
        "ey",
        "e"
      ],
      [
        "Ġa",
        "fter"
      ],
      [
        "Ä±s",
        "Ä±"
      ],
      [
        "ĠyÃ¼z",
        "de"
      ],
      [
        "d",
        "aki"
      ],
      [
        "ation",
        "s"
      ],
      [
        "lar",
        "a"
      ],
      [
        "Ġ",
        "es"
      ],
      [
        "Ġs",
        "a"
      ],
      [
        "in",
        "den"
      ],
      [
        "ic",
        "e"
      ],
      [
        "ay",
        "Ä±"
      ],
      [
        "ĠÃ¶z",
        "el"
      ],
      [
        "t",
        "u"
      ],
      [
        "et",
        "im"
      ],
      [
        "c",
        "ak"
      ],
      [
        "r",
        "ic"
      ],
      [
        "Ġ",
        "/"
      ],
      [
        ",",
        "@"
      ],
      [
        "Ġ@",
        ",@"
      ],
      [
        "s",
        "el"
      ],
      [
        "m",
        "en"
      ],
      [
        "Ġc",
        "an"
      ],
      [
        "Ġm",
        "u"
      ],
      [
        "Ġk",
        "iÅŁ"
      ],
      [
        "st",
        "er"
      ],
      [
        "Ġu",
        "z"
      ],
      [
        "Ġkad",
        "ar"
      ],
      [
        "T",
        "h"
      ],
      [
        "t",
        "s"
      ],
      [
        "Ġo",
        "ver"
      ],
      [
        "Ġ",
        "em"
      ],
      [
        "Ġinc",
        "lu"
      ],
      [
        "re",
        "e"
      ],
      [
        "Ġyen",
        "i"
      ],
      [
        "Ġo",
        "ut"
      ],
      [
        "Ġtar",
        "af"
      ],
      [
        "Ġa",
        "v"
      ],
      [
        "H",
        "e"
      ],
      [
        "Ġd",
        "Ã¼z"
      ],
      [
        "b",
        "aÅŁ"
      ],
      [
        "ĠÃ¼z",
        "er"
      ],
      [
        "ed",
        "e"
      ],
      [
        "s",
        "a"
      ],
      [
        "m",
        "alar"
      ],
      [
        "w",
        "n"
      ],
      [
        "u",
        "y"
      ],
      [
        "Ġb",
        "Ã¶"
      ],
      [
        "ĠI",
        "n"
      ],
      [
        "Ġt",
        "er"
      ],
      [
        "Ġs",
        "ur"
      ],
      [
        "b",
        "akan"
      ],
      [
        "lac",
        "ak"
      ],
      [
        "m",
        "et"
      ],
      [
        "c",
        "a"
      ],
      [
        "ĠÃ¼l",
        "k"
      ],
      [
        "em",
        "ber"
      ],
      [
        "Ġk",
        "ap"
      ],
      [
        "am",
        "an"
      ],
      [
        "an",
        "ce"
      ],
      [
        "Ġn",
        "eden"
      ],
      [
        "o",
        "od"
      ],
      [
        "d",
        "ir"
      ],
      [
        "r",
        "y"
      ],
      [
        "Ġu",
        "p"
      ],
      [
        "Ġf",
        "in"
      ],
      [
        "m",
        "Ä±ÅŁ"
      ],
      [
        "Ġo",
        "ther"
      ],
      [
        "iy",
        "i"
      ],
      [
        "Ġint",
        "o"
      ],
      [
        "o",
        "ugh"
      ],
      [
        "Ġt",
        "ime"
      ],
      [
        "c",
        "es"
      ],
      [
        "t",
        "an"
      ],
      [
        "Ġs",
        "c"
      ],
      [
        "Ġget",
        "ir"
      ],
      [
        "p",
        "ort"
      ],
      [
        "Ġh",
        "ak"
      ],
      [
        "Ġb",
        "en"
      ],
      [
        "Ġy",
        "an"
      ],
      [
        "Ġh",
        "ay"
      ],
      [
        "Ġof",
        "f"
      ],
      [
        "ĠkarÅŁ",
        "Ä±"
      ],
      [
        "Ġ",
        "Ã¼r"
      ],
      [
        "on",
        "e"
      ],
      [
        "er",
        "ek"
      ],
      [
        "e",
        "h"
      ],
      [
        "a",
        "j"
      ],
      [
        "Ġd",
        "i"
      ],
      [
        "w",
        "e"
      ],
      [
        "Ġmil",
        "yon"
      ],
      [
        "Ġd",
        "r"
      ],
      [
        "Ġs",
        "he"
      ],
      [
        "as",
        "on"
      ],
      [
        "Ġm",
        "Ã¼"
      ],
      [
        "Ġ",
        "00"
      ],
      [
        "c",
        "ed"
      ],
      [
        "l",
        "es"
      ],
      [
        "Ġ",
        "0"
      ],
      [
        "Ġw",
        "ould"
      ],
      [
        "larÄ±n",
        "Ä±n"
      ],
      [
        "Ġm",
        "ore"
      ],
      [
        "Ġs",
        "at"
      ],
      [
        "lÄ±",
        "ÄŁÄ±"
      ],
      [
        "it",
        "ed"
      ],
      [
        "ĠsÃ¶y",
        "ledi"
      ],
      [
        "u",
        "d"
      ],
      [
        "un",
        "a"
      ],
      [
        "or",
        "s"
      ],
      [
        "w",
        "ard"
      ],
      [
        "Ġ",
        "la"
      ],
      [
        "Ġ1",
        "2"
      ],
      [
        "lar",
        "da"
      ],
      [
        "Ġa",
        "lan"
      ],
      [
        "Ġh",
        "im"
      ],
      [
        "el",
        "ik"
      ],
      [
        "ar",
        "ak"
      ],
      [
        "Ġson",
        "ra"
      ],
      [
        "I",
        "t"
      ],
      [
        "Ġyap",
        "tÄ±"
      ],
      [
        "Ġp",
        "o"
      ],
      [
        "ĠÃ§",
        "ek"
      ],
      [
        "Ġbil",
        "g"
      ],
      [
        "ac",
        "aÄŁ"
      ],
      [
        "Ã§",
        "ek"
      ],
      [
        "al",
        "Ä±k"
      ],
      [
        "Ġg",
        "ir"
      ],
      [
        "Ġc",
        "ent"
      ],
      [
        "Ġt",
        "em"
      ],
      [
        "os",
        "e"
      ],
      [
        "Ġs",
        "an"
      ],
      [
        "ĠÅŁ",
        "ek"
      ],
      [
        "Ġat",
        "t"
      ],
      [
        "an",
        "Ä±n"
      ],
      [
        "k",
        "et"
      ],
      [
        "Ġne",
        "w"
      ],
      [
        "Ġ",
        "Y"
      ],
      [
        "e",
        "f"
      ],
      [
        "Ġp",
        "ol"
      ],
      [
        "d",
        "ed"
      ],
      [
        "Ġc",
        "o"
      ],
      [
        "ac",
        "t"
      ],
      [
        "ig",
        "h"
      ],
      [
        "Ġal",
        "l"
      ],
      [
        "ĠbÃ¶",
        "l"
      ],
      [
        "Ġy",
        "Ã¼k"
      ],
      [
        "iv",
        "ers"
      ],
      [
        "Ġal",
        "t"
      ],
      [
        "Ġc",
        "l"
      ],
      [
        "b",
        "ul"
      ],
      [
        "Ġb",
        "aÄŁ"
      ],
      [
        "ra",
        "f"
      ],
      [
        "i",
        "x"
      ],
      [
        "Ġw",
        "ork"
      ],
      [
        "m",
        "iÅŁ"
      ],
      [
        "Ġy",
        "a"
      ],
      [
        "ĠU",
        "n"
      ],
      [
        "Ġb",
        "et"
      ],
      [
        "ct",
        "ion"
      ],
      [
        "ĠÃ¶nem",
        "li"
      ],
      [
        "Ġgen",
        "el"
      ],
      [
        "er",
        "ed"
      ],
      [
        "Ġm",
        "er"
      ],
      [
        "Ġ19",
        "9"
      ],
      [
        "en",
        "s"
      ],
      [
        "Ġw",
        "e"
      ],
      [
        "Ã¶y",
        "le"
      ],
      [
        "Ġilg",
        "ili"
      ],
      [
        "n",
        "e"
      ],
      [
        "Ġ",
        "Ã¼n"
      ],
      [
        "Ġ1",
        "5"
      ],
      [
        "Ġz",
        "aman"
      ],
      [
        "m",
        "es"
      ],
      [
        "Ġm",
        "et"
      ],
      [
        "al",
        "s"
      ],
      [
        "on",
        "s"
      ],
      [
        "Ġs",
        "ec"
      ],
      [
        "is",
        "s"
      ],
      [
        "oc",
        "k"
      ],
      [
        "Ġr",
        "em"
      ],
      [
        "Ġw",
        "hen"
      ],
      [
        "at",
        "es"
      ],
      [
        "Ġd",
        "est"
      ],
      [
        "Ġf",
        "e"
      ],
      [
        "k",
        "i"
      ],
      [
        "Ġy",
        "et"
      ],
      [
        "as",
        "yon"
      ],
      [
        "Ġoy",
        "un"
      ],
      [
        "k",
        "in"
      ],
      [
        "Ġson",
        "g"
      ],
      [
        "ĠgÃ¶",
        "ster"
      ],
      [
        "du",
        "ÄŁ"
      ],
      [
        "g",
        "Ã¼n"
      ],
      [
        "Ġger",
        "Ã§ek"
      ],
      [
        "ub",
        "l"
      ],
      [
        "Ġe",
        "ar"
      ],
      [
        "Ġs",
        "av"
      ],
      [
        "Ġn",
        "um"
      ],
      [
        "at",
        "h"
      ],
      [
        "b",
        "ir"
      ],
      [
        "dÄ±",
        "m"
      ],
      [
        "ab",
        "le"
      ],
      [
        "Ġb",
        "ur"
      ],
      [
        "Ġs",
        "ev"
      ],
      [
        "m",
        "esi"
      ],
      [
        "Ġs",
        "Ä±r"
      ],
      [
        "ro",
        "l"
      ],
      [
        "Ġbelir",
        "t"
      ],
      [
        "Ġp",
        "lan"
      ],
      [
        "Ġex",
        "p"
      ],
      [
        "Ġm",
        "ost"
      ],
      [
        "iy",
        "at"
      ],
      [
        "Ġs",
        "o"
      ],
      [
        "Ġd",
        "em"
      ],
      [
        "oÄŁ",
        "lu"
      ],
      [
        "Ġk",
        "n"
      ],
      [
        "Ġi",
        "z"
      ],
      [
        "Ġdur",
        "ing"
      ],
      [
        "Ġm",
        "aÃ§"
      ],
      [
        "Ġa",
        "ma"
      ],
      [
        "end",
        "ir"
      ],
      [
        "u",
        "yor"
      ],
      [
        "Ġth",
        "ro"
      ],
      [
        "Ġy",
        "az"
      ],
      [
        "Ġon",
        "ly"
      ],
      [
        "Ġdur",
        "um"
      ],
      [
        "a",
        "il"
      ],
      [
        "Ġi",
        "d"
      ],
      [
        "Ġa",
        "ÄŁ"
      ],
      [
        "Ġg",
        "ame"
      ],
      [
        "Ã¼n",
        "Ã¼"
      ],
      [
        "s",
        "s"
      ],
      [
        "Ġcon",
        "s"
      ],
      [
        "Ġ1",
        "1"
      ],
      [
        "Ġy",
        "ol"
      ],
      [
        "ot",
        "h"
      ],
      [
        "Ġs",
        "Ã¶z"
      ],
      [
        "ĠdÃ¼z",
        "en"
      ],
      [
        "Ġd",
        "ir"
      ],
      [
        "ar",
        "e"
      ],
      [
        "an",
        "bul"
      ],
      [
        "r",
        "on"
      ],
      [
        "r",
        "an"
      ],
      [
        "a",
        "us"
      ],
      [
        "ar",
        "a"
      ],
      [
        "Ġs",
        "al"
      ],
      [
        "at",
        "t"
      ],
      [
        "Ġd",
        "ay"
      ],
      [
        "Ġk",
        "az"
      ],
      [
        "Ġa",
        "z"
      ],
      [
        "ru",
        "p"
      ],
      [
        "Ġp",
        "re"
      ],
      [
        "ar",
        "et"
      ],
      [
        "Ġdev",
        "am"
      ],
      [
        "Ġs",
        "in"
      ],
      [
        "Ġa",
        "c"
      ],
      [
        "or",
        "th"
      ],
      [
        "ol",
        "low"
      ],
      [
        "we",
        "en"
      ],
      [
        "Ġk",
        "end"
      ],
      [
        "ing",
        "s"
      ],
      [
        "Ġg",
        "ro"
      ],
      [
        "re",
        "at"
      ],
      [
        "Ġde",
        "f"
      ],
      [
        "Ġh",
        "ar"
      ],
      [
        "p",
        "or"
      ],
      [
        "Ġ1",
        "6"
      ],
      [
        "w",
        "ay"
      ],
      [
        "Ġm",
        "e"
      ],
      [
        "Ġm",
        "ak"
      ],
      [
        "Ġd",
        "iye"
      ],
      [
        "Ġal",
        "b"
      ],
      [
        "ĠdÃ¼n",
        "y"
      ],
      [
        "d",
        "Ã¼"
      ],
      [
        "r",
        "es"
      ],
      [
        "Ġd",
        "ec"
      ],
      [
        "ul",
        "t"
      ],
      [
        "ĠÃ§",
        "oc"
      ],
      [
        "out",
        "h"
      ],
      [
        "Ġtaraf",
        "Ä±ndan"
      ],
      [
        "Ġc",
        "ol"
      ],
      [
        "un",
        "d"
      ],
      [
        "Ġab",
        "out"
      ],
      [
        "di",
        "ÄŁi"
      ],
      [
        "h",
        "n"
      ],
      [
        "Ġif",
        "ade"
      ],
      [
        "l",
        "ed"
      ],
      [
        "Ġag",
        "ain"
      ],
      [
        "r",
        "ed"
      ],
      [
        "Ġd",
        "Ä±ÅŁ"
      ],
      [
        "Ġ",
        "iyi"
      ],
      [
        "Ġed",
        "en"
      ],
      [
        "ĠdeÄŁ",
        "il"
      ],
      [
        "ĠA",
        "n"
      ],
      [
        "Ġth",
        "ree"
      ],
      [
        "ter",
        "s"
      ],
      [
        "ÄŁ",
        "er"
      ],
      [
        "ĠolduÄŁ",
        "u"
      ],
      [
        "baÅŁ",
        "k"
      ],
      [
        "Ġgel",
        "iÅŁ"
      ],
      [
        "Ġse",
        "ason"
      ],
      [
        "al",
        "e"
      ],
      [
        "Ġfor",
        "m"
      ],
      [
        "Ġins",
        "an"
      ],
      [
        "Ġbet",
        "ween"
      ],
      [
        "Ġch",
        "ar"
      ],
      [
        "ist",
        "em"
      ],
      [
        "Ġth",
        "an"
      ],
      [
        "il",
        "iyor"
      ],
      [
        "Ġthe",
        "m"
      ],
      [
        "Ġist",
        "anbul"
      ],
      [
        "Ġd",
        "ik"
      ],
      [
        "ĠgÃ¶",
        "z"
      ],
      [
        "i",
        "ous"
      ],
      [
        "el",
        "eri"
      ],
      [
        "ation",
        "al"
      ],
      [
        "p",
        "h"
      ],
      [
        "d",
        "Ã¼r"
      ],
      [
        "us",
        "u"
      ],
      [
        "Ġol",
        "uÅŁ"
      ],
      [
        "ĠE",
        "n"
      ],
      [
        "i",
        "Ã§"
      ],
      [
        "u",
        "c"
      ],
      [
        "is",
        "ion"
      ],
      [
        "Ġun",
        "der"
      ],
      [
        "m",
        "aya"
      ],
      [
        "an",
        "y"
      ],
      [
        "Ġr",
        "o"
      ],
      [
        "am",
        "es"
      ],
      [
        "ĠA",
        "r"
      ],
      [
        "Ġrec",
        "ord"
      ],
      [
        "Ġy",
        "e"
      ],
      [
        "Ġk",
        "an"
      ],
      [
        "Ġan",
        "cak"
      ],
      [
        "en",
        "in"
      ],
      [
        "Ġthro",
        "ugh"
      ],
      [
        "Ġyap",
        "Ä±lan"
      ],
      [
        "es",
        "inde"
      ],
      [
        "Ġg",
        "r"
      ],
      [
        "il",
        "eri"
      ],
      [
        "ol",
        "o"
      ],
      [
        "Ġd",
        "an"
      ],
      [
        "am",
        "a"
      ],
      [
        "Ġl",
        "ater"
      ],
      [
        "in",
        "t"
      ],
      [
        "Ä±n",
        "daki"
      ],
      [
        "Ġp",
        "os"
      ],
      [
        "ĠdÃ¶n",
        "em"
      ],
      [
        "h",
        "ip"
      ],
      [
        "Ġper",
        "f"
      ],
      [
        "Ġ",
        "lar"
      ],
      [
        "ic",
        "k"
      ],
      [
        "ĠaÃ§Ä±k",
        "lam"
      ],
      [
        "Ġay",
        "r"
      ],
      [
        "ey",
        "i"
      ],
      [
        "Ġs",
        "istem"
      ],
      [
        "Ã¼",
        "s"
      ],
      [
        "ad",
        "an"
      ],
      [
        "i",
        "ew"
      ],
      [
        "as",
        "e"
      ],
      [
        "ĠÃ¶",
        "ÄŁ"
      ],
      [
        "Ġwh",
        "ile"
      ],
      [
        "Ġa",
        "ct"
      ],
      [
        "d",
        "oÄŁ"
      ],
      [
        "Ġpro",
        "du"
      ],
      [
        "t",
        "ar"
      ],
      [
        "Ġw",
        "rit"
      ],
      [
        "Ġg",
        "o"
      ],
      [
        "Ġ201",
        "2"
      ],
      [
        "ul",
        "u"
      ],
      [
        "Ġst",
        "r"
      ],
      [
        "Ġd",
        "er"
      ],
      [
        "ĠdeÄŁ",
        "er"
      ],
      [
        "Ġs",
        "eri"
      ],
      [
        "Ġcom",
        "m"
      ],
      [
        "Ġal",
        "Ä±n"
      ],
      [
        "v",
        "en"
      ],
      [
        "Ġm",
        "us"
      ],
      [
        "oun",
        "t"
      ],
      [
        "Ġy",
        "ay"
      ],
      [
        "is",
        "hed"
      ],
      [
        "ĠM",
        "ar"
      ],
      [
        "Ġik",
        "i"
      ],
      [
        "Ġm",
        "ade"
      ],
      [
        "Ġa",
        "ÅŁ"
      ],
      [
        "Ġg",
        "az"
      ],
      [
        "il",
        "y"
      ],
      [
        "il",
        "ecek"
      ],
      [
        "ĠA",
        "l"
      ],
      [
        "Ġb",
        "ek"
      ],
      [
        "ect",
        "ed"
      ],
      [
        "Ġr",
        "ele"
      ],
      [
        "Ġt",
        "am"
      ],
      [
        "Ġ1",
        "7"
      ],
      [
        "o",
        "u"
      ],
      [
        "Ġp",
        "e"
      ],
      [
        "or",
        "n"
      ],
      [
        "or",
        "ld"
      ],
      [
        "Ġb",
        "ak"
      ],
      [
        "at",
        "Ä±r"
      ],
      [
        "us",
        "tr"
      ],
      [
        "Ġwh",
        "ere"
      ],
      [
        "ĠkonuÅŁ",
        "tu"
      ],
      [
        "ay",
        "an"
      ],
      [
        "Ġt",
        "Ã¼m"
      ],
      [
        "Ġr",
        "et"
      ],
      [
        "Ġ00",
        "0"
      ],
      [
        "mer",
        "ic"
      ],
      [
        "ler",
        "inin"
      ],
      [
        "Ġh",
        "az"
      ],
      [
        "et",
        "ti"
      ],
      [
        "Ġdik",
        "k"
      ],
      [
        "f",
        "ore"
      ],
      [
        "Ġm",
        "ov"
      ],
      [
        "Ġt",
        "ed"
      ],
      [
        "dÄ±",
        "ÄŁÄ±"
      ],
      [
        "Ġo",
        "b"
      ],
      [
        "Ġ",
        "qu"
      ],
      [
        "Ġpro",
        "j"
      ],
      [
        "Ġsp",
        "ec"
      ],
      [
        "Ġtek",
        "n"
      ],
      [
        "y",
        "ar"
      ],
      [
        "Ġr",
        "el"
      ],
      [
        "ĠÃ¶n",
        "ce"
      ],
      [
        "Ġk",
        "as"
      ],
      [
        "Ġin",
        "ter"
      ],
      [
        "ic",
        "t"
      ],
      [
        "Ġf",
        "ark"
      ],
      [
        "d",
        "em"
      ],
      [
        "Ġa",
        "cc"
      ],
      [
        "ur",
        "y"
      ],
      [
        "ler",
        "e"
      ],
      [
        "Ġab",
        "d"
      ],
      [
        "t",
        "Ã¼"
      ],
      [
        "ac",
        "e"
      ],
      [
        "lay",
        "an"
      ],
      [
        "Ġin",
        "tern"
      ],
      [
        "az",
        "Ä±"
      ],
      [
        "ĠA",
        "meric"
      ],
      [
        "Ġs",
        "et"
      ],
      [
        "leÅŁ",
        "tir"
      ],
      [
        "Ġs",
        "ome"
      ],
      [
        "Ġl",
        "ik"
      ],
      [
        "Ġsu",
        "b"
      ],
      [
        "as",
        "ed"
      ],
      [
        "O",
        "n"
      ],
      [
        "Ġo",
        "per"
      ],
      [
        "Ġf",
        "ollow"
      ],
      [
        "ol",
        "og"
      ],
      [
        "ĠbaÅŁ",
        "bakan"
      ],
      [
        "Ġar",
        "asÄ±nda"
      ],
      [
        "ol",
        "d"
      ],
      [
        "l",
        "endir"
      ],
      [
        "Ġm",
        "on"
      ],
      [
        "Ġf",
        "az"
      ],
      [
        "li",
        "ÄŁi"
      ],
      [
        "Ġsu",
        "ch"
      ],
      [
        "ek",
        "t"
      ],
      [
        "Ġsec",
        "ond"
      ],
      [
        "Ġh",
        "af"
      ],
      [
        "ac",
        "Ä±"
      ],
      [
        "Ġhay",
        "at"
      ],
      [
        "iv",
        "ed"
      ],
      [
        "Ġf",
        "our"
      ],
      [
        "iy",
        "as"
      ],
      [
        "Ġas",
        "s"
      ],
      [
        "Ġse",
        "Ã§"
      ],
      [
        "olo",
        "j"
      ],
      [
        "Ġr",
        "ev"
      ],
      [
        "Ġus",
        "ed"
      ],
      [
        "d",
        "eki"
      ],
      [
        "ĠN",
        "ew"
      ],
      [
        "Ġt",
        "ut"
      ],
      [
        "Ġtr",
        "ans"
      ],
      [
        "Ġv",
        "ur"
      ],
      [
        "il",
        "ece"
      ],
      [
        "Ġn",
        "o"
      ],
      [
        "i",
        "ed"
      ],
      [
        "Ġy",
        "ok"
      ],
      [
        "larÄ±n",
        "a"
      ],
      [
        "Ġde",
        "p"
      ],
      [
        "ĠÃ§oc",
        "uk"
      ],
      [
        "Ġdikk",
        "at"
      ],
      [
        "ĠgÃ¶r",
        "Ã¼ÅŁ"
      ],
      [
        "Ġen",
        "d"
      ],
      [
        "Ġc",
        "all"
      ],
      [
        "Ġe",
        "p"
      ],
      [
        "ĠC",
        "om"
      ],
      [
        "ler",
        "de"
      ],
      [
        "Ġm",
        "ar"
      ],
      [
        "Ä±",
        "cÄ±"
      ],
      [
        "u",
        "lar"
      ],
      [
        "Ġ1",
        "3"
      ],
      [
        "al",
        "i"
      ],
      [
        "il",
        "d"
      ],
      [
        "Ġp",
        "ubl"
      ],
      [
        "in",
        "s"
      ],
      [
        "Ġo",
        "k"
      ],
      [
        "em",
        "ent"
      ],
      [
        "k",
        "ez"
      ],
      [
        "Ġb",
        "ro"
      ],
      [
        "iy",
        "on"
      ],
      [
        "Ġ1",
        "4"
      ],
      [
        "Ġ",
        "ent"
      ],
      [
        "v",
        "e"
      ],
      [
        "i",
        "el"
      ],
      [
        "v",
        "ed"
      ],
      [
        "o",
        "ok"
      ],
      [
        "ab",
        "er"
      ],
      [
        "Ġalb",
        "um"
      ],
      [
        "ĠdeÄŁ",
        "iÅŁ"
      ],
      [
        "Ġt",
        "aÅŁ"
      ],
      [
        "p",
        "en"
      ],
      [
        "Ġs",
        "ad"
      ],
      [
        "Ġbe",
        "fore"
      ],
      [
        "iv",
        "er"
      ],
      [
        "im",
        "i"
      ],
      [
        "Ġk",
        "o"
      ],
      [
        "he",
        "s"
      ],
      [
        "doÄŁ",
        "an"
      ],
      [
        "la",
        "ma"
      ],
      [
        "Ġson",
        "u"
      ],
      [
        "t",
        "on"
      ],
      [
        "Ġbe",
        "ing"
      ],
      [
        "Ġet",
        "k"
      ],
      [
        "Ġd",
        "uy"
      ],
      [
        "Ġor",
        "gan"
      ],
      [
        "ir",
        "e"
      ],
      [
        "Ġ2",
        "5"
      ],
      [
        "Ġin",
        "f"
      ],
      [
        "ic",
        "i"
      ],
      [
        "in",
        "iz"
      ],
      [
        "Ġtar",
        "ih"
      ],
      [
        "Ġth",
        "ere"
      ],
      [
        "Ġ3",
        "0"
      ],
      [
        "Ġb",
        "un"
      ],
      [
        "Ġsu",
        "pp"
      ],
      [
        "Ġd",
        "am"
      ],
      [
        "Ġpro",
        "g"
      ],
      [
        "at",
        "ur"
      ],
      [
        "ow",
        "ever"
      ],
      [
        "Ġm",
        "em"
      ],
      [
        "an",
        "e"
      ],
      [
        "Th",
        "is"
      ],
      [
        "p",
        "ar"
      ],
      [
        "Ġkar",
        "ar"
      ],
      [
        "Ġ19",
        "8"
      ],
      [
        "Ã§",
        "e"
      ],
      [
        "Ġb",
        "ar"
      ],
      [
        "s",
        "on"
      ],
      [
        "Ġyear",
        "s"
      ],
      [
        "s",
        "ek"
      ],
      [
        "Ġh",
        "igh"
      ],
      [
        "Ġg",
        "al"
      ],
      [
        "Ġs",
        "y"
      ],
      [
        "at",
        "ing"
      ],
      [
        "Ġyap",
        "Ä±"
      ],
      [
        "i",
        "e"
      ],
      [
        "Ġuy",
        "gu"
      ],
      [
        "Ġted",
        "av"
      ],
      [
        "is",
        "e"
      ],
      [
        "Ġp",
        "op"
      ],
      [
        "Ġd",
        "iy"
      ],
      [
        "er",
        "al"
      ],
      [
        "il",
        "de"
      ],
      [
        "ler",
        "ine"
      ],
      [
        "t",
        "Ã¼r"
      ],
      [
        "Ġil",
        "iÅŁ"
      ],
      [
        "Ġhe",
        "m"
      ],
      [
        "Ġoy",
        "n"
      ],
      [
        "Ġm",
        "es"
      ],
      [
        "u",
        "al"
      ],
      [
        "Ġen",
        "g"
      ],
      [
        "Ä±l",
        "masÄ±"
      ],
      [
        "Ġtak",
        "Ä±m"
      ],
      [
        "Ġre",
        "g"
      ],
      [
        "Ġfaz",
        "la"
      ],
      [
        "ug",
        "ht"
      ],
      [
        "Ġkon",
        "u"
      ],
      [
        "m",
        "in"
      ],
      [
        "ic",
        "s"
      ],
      [
        "ĠsaÄŁ",
        "lÄ±k"
      ],
      [
        "Ġay",
        "n"
      ],
      [
        "ĠbÃ¶l",
        "g"
      ],
      [
        "Ġm",
        "Ã¼z"
      ],
      [
        "aÅŁ",
        "tÄ±r"
      ],
      [
        "Ġar",
        "d"
      ],
      [
        "Ġf",
        "ound"
      ],
      [
        "Ġ",
        "ir"
      ],
      [
        "r",
        "et"
      ],
      [
        "Ġnum",
        "ber"
      ],
      [
        "Ġa",
        "lÄ±"
      ],
      [
        "ĠyaptÄ±",
        "ÄŁÄ±"
      ],
      [
        "Ġseri",
        "es"
      ],
      [
        "iler",
        "in"
      ],
      [
        "n",
        "ing"
      ],
      [
        "Ġda",
        "v"
      ],
      [
        "Ġbu",
        "gÃ¼n"
      ],
      [
        "ig",
        "in"
      ],
      [
        "ĠEn",
        "g"
      ],
      [
        "Ġan",
        "lat"
      ],
      [
        "Ġe",
        "ÄŁ"
      ],
      [
        "e",
        "g"
      ],
      [
        "Ġl",
        "oc"
      ],
      [
        "in",
        "es"
      ],
      [
        "Ġm",
        "ay"
      ],
      [
        "al",
        "an"
      ],
      [
        "alar",
        "Ä±"
      ],
      [
        "Ġm",
        "od"
      ],
      [
        "ot",
        "her"
      ],
      [
        "s",
        "Ä±z"
      ],
      [
        "if",
        "e"
      ],
      [
        "el",
        "op"
      ],
      [
        "h",
        "an"
      ],
      [
        "b",
        "ak"
      ],
      [
        "Ġ",
        "est"
      ],
      [
        "ĠiÃ§",
        "inde"
      ],
      [
        "Ġb",
        "oth"
      ],
      [
        "Ġz",
        "or"
      ],
      [
        "Ġbir",
        "lik"
      ],
      [
        "Ġard",
        "Ä±ndan"
      ],
      [
        "ĠS",
        "e"
      ],
      [
        "aus",
        "e"
      ],
      [
        "ever",
        "al"
      ],
      [
        "Ġpr",
        "es"
      ],
      [
        "Ġc",
        "ar"
      ],
      [
        "Ġapp",
        "ear"
      ],
      [
        "Ġc",
        "ap"
      ],
      [
        "Ġt",
        "al"
      ],
      [
        "en",
        "di"
      ],
      [
        "on",
        "om"
      ],
      [
        "Ġm",
        "at"
      ],
      [
        "Ġr",
        "ece"
      ],
      [
        "Ġar",
        "aÅŁtÄ±r"
      ],
      [
        "lÄ±",
        "ÄŁ"
      ],
      [
        "Ġthe",
        "n"
      ],
      [
        "b",
        "ol"
      ],
      [
        "Ġinclu",
        "ding"
      ],
      [
        "Ġsah",
        "ip"
      ],
      [
        "Ġsad",
        "ece"
      ],
      [
        "Ġep",
        "is"
      ],
      [
        "Ġw",
        "ell"
      ],
      [
        "Ġm",
        "in"
      ],
      [
        "Ġhaz",
        "Ä±r"
      ],
      [
        "Ġhak",
        "k"
      ],
      [
        "Ġ",
        "ul"
      ],
      [
        "iyor",
        "uz"
      ],
      [
        "it",
        "ies"
      ],
      [
        "ĠbaÅŁk",
        "an"
      ],
      [
        "o",
        "hn"
      ],
      [
        "o",
        "de"
      ],
      [
        "Ġkay",
        "d"
      ],
      [
        "Ġagain",
        "st"
      ],
      [
        "lik",
        "le"
      ],
      [
        "if",
        "ic"
      ],
      [
        "ilm",
        "esi"
      ],
      [
        "Ġbec",
        "ame"
      ],
      [
        "Ġt",
        "an"
      ],
      [
        "Ġkn",
        "own"
      ],
      [
        "is",
        "ed"
      ],
      [
        "Ġs",
        "ing"
      ],
      [
        "Ġgel",
        "en"
      ],
      [
        "Ġ",
        "!"
      ],
      [
        "ĠÅŁ",
        "ir"
      ],
      [
        "ĠâĢ",
        "Ķ"
      ],
      [
        "om",
        "an"
      ],
      [
        "m",
        "am"
      ],
      [
        "Ġpro",
        "f"
      ],
      [
        "Ġman",
        "y"
      ],
      [
        "it",
        "s"
      ],
      [
        "Ġ1",
        "00"
      ],
      [
        "r",
        "is"
      ],
      [
        "Ġayn",
        "Ä±"
      ],
      [
        "Ġn",
        "de"
      ],
      [
        "Ġu",
        "laÅŁ"
      ],
      [
        "lar",
        "Ä±nda"
      ],
      [
        "Ġb",
        "ey"
      ],
      [
        "av",
        "e"
      ],
      [
        "Ġchar",
        "ac"
      ],
      [
        "ĠÅŁir",
        "ket"
      ],
      [
        "el",
        "s"
      ],
      [
        "Ġb",
        "ack"
      ],
      [
        "Ġbu",
        "il"
      ],
      [
        "ĠB",
        "rit"
      ],
      [
        "id",
        "en"
      ],
      [
        "Ġmer",
        "kez"
      ],
      [
        "Ġm",
        "ark"
      ],
      [
        "ro",
        "p"
      ],
      [
        "Ġb",
        "akan"
      ],
      [
        "r",
        "al"
      ],
      [
        "Ġn",
        "un"
      ],
      [
        "Ġin",
        "v"
      ],
      [
        "baÅŁk",
        "anÄ±"
      ],
      [
        "Ġb",
        "unun"
      ],
      [
        "Ġsan",
        "at"
      ],
      [
        "Ġs",
        "Ä±k"
      ],
      [
        "Ġb",
        "azÄ±"
      ],
      [
        "ur",
        "ch"
      ],
      [
        "Ġm",
        "ain"
      ],
      [
        "ĠgÃ¶re",
        "v"
      ],
      [
        "t",
        "ain"
      ],
      [
        "th",
        "ough"
      ],
      [
        "ĠC",
        "ar"
      ],
      [
        "Ġl",
        "ong"
      ],
      [
        "ra",
        "il"
      ],
      [
        "dÄ±",
        "ÄŁÄ±nÄ±"
      ],
      [
        "Ġs",
        "en"
      ],
      [
        "lac",
        "k"
      ],
      [
        "Ã¼",
        "yor"
      ],
      [
        "Ã¼n",
        "de"
      ],
      [
        "y",
        "p"
      ],
      [
        "mas",
        "Ä±nÄ±"
      ],
      [
        "Ġ19",
        "7"
      ],
      [
        "Ġt",
        "ab"
      ],
      [
        "as",
        "ar"
      ],
      [
        "Ġs",
        "m"
      ],
      [
        "Ġt",
        "ur"
      ],
      [
        "i",
        "et"
      ],
      [
        "cr",
        "ib"
      ],
      [
        "f",
        "t"
      ],
      [
        "Ġh",
        "iÃ§"
      ],
      [
        "ekt",
        "Ã¶r"
      ],
      [
        "Ġt",
        "a"
      ],
      [
        "c",
        "Ã¼"
      ],
      [
        "h",
        "ur"
      ],
      [
        "ek",
        "s"
      ],
      [
        "Ġb",
        "Ã¼t"
      ],
      [
        "iz",
        "e"
      ],
      [
        "il",
        "ik"
      ],
      [
        "Ġintern",
        "et"
      ],
      [
        "o",
        "ol"
      ],
      [
        "Ġ19",
        "4"
      ],
      [
        "aÄŁ",
        "Ä±"
      ],
      [
        "Ġ19",
        "6"
      ],
      [
        "ĠUn",
        "ited"
      ],
      [
        "Ġsh",
        "ow"
      ],
      [
        "Ġte",
        "am"
      ],
      [
        "Ġk",
        "Ã¶"
      ],
      [
        "Ġkur",
        "ul"
      ],
      [
        "Ġkaz",
        "an"
      ],
      [
        "Ġprog",
        "ram"
      ],
      [
        "Ġc",
        "re"
      ],
      [
        "ĠÅŁek",
        "ilde"
      ],
      [
        "len",
        "en"
      ],
      [
        "t",
        "il"
      ],
      [
        "Ġdi",
        "ÄŁer"
      ],
      [
        "Ġort",
        "aya"
      ],
      [
        "Ġi",
        "h"
      ],
      [
        "t",
        "al"
      ],
      [
        "k",
        "an"
      ],
      [
        "Ġmil",
        "l"
      ],
      [
        "Ġ201",
        "3"
      ],
      [
        "Ġe",
        "y"
      ],
      [
        "at",
        "her"
      ],
      [
        "rup",
        "a"
      ],
      [
        "Ġcent",
        "ury"
      ],
      [
        "ist",
        "an"
      ],
      [
        "us",
        "unda"
      ],
      [
        "u",
        "di"
      ],
      [
        "o",
        "ber"
      ],
      [
        "ow",
        "er"
      ],
      [
        "Ġver",
        "di"
      ],
      [
        "in",
        "ed"
      ],
      [
        "Ġk",
        "am"
      ],
      [
        "Ġb",
        "r"
      ],
      [
        "ĠyÃ¼k",
        "sek"
      ],
      [
        "Ġk",
        "it"
      ],
      [
        "Ġre",
        "p"
      ],
      [
        "ind",
        "eki"
      ],
      [
        "Ġk",
        "om"
      ],
      [
        "Ġdev",
        "elop"
      ],
      [
        "t",
        "Ä±k"
      ],
      [
        "ect",
        "ion"
      ],
      [
        "Ġt",
        "el"
      ],
      [
        "Ġm",
        "al"
      ],
      [
        "ĠÃ¶",
        "l"
      ],
      [
        "Ġor",
        "igin"
      ],
      [
        "ĠB",
        "r"
      ],
      [
        "adÄ±",
        "ÄŁÄ±nÄ±"
      ],
      [
        "Ġl",
        "ir"
      ],
      [
        "ĠgÃ¼",
        "ven"
      ],
      [
        "Ġy",
        "as"
      ],
      [
        "li",
        "ÄŁ"
      ],
      [
        "ĠÅŁ",
        "Ã¶yle"
      ],
      [
        "ĠgÃ¼",
        "Ã§"
      ],
      [
        "ĠgeÃ§",
        "en"
      ],
      [
        "Ġsp",
        "or"
      ],
      [
        "Ġs",
        "everal"
      ],
      [
        "id",
        "er"
      ],
      [
        "Ġst",
        "ar"
      ],
      [
        "Ġdev",
        "let"
      ],
      [
        "Ġle",
        "ad"
      ],
      [
        "Ġas",
        "k"
      ],
      [
        "d",
        "Ä±k"
      ],
      [
        "Ġmil",
        "let"
      ],
      [
        "Ġk",
        "Ä±s"
      ],
      [
        "Ä±",
        "p"
      ],
      [
        "ov",
        "ern"
      ],
      [
        "m",
        "az"
      ],
      [
        "Ġo",
        "lab"
      ],
      [
        "ĠbaÅŁk",
        "anÄ±"
      ],
      [
        "Ġbe",
        "gan"
      ],
      [
        "Ġd",
        "if"
      ],
      [
        "Ġne",
        "ar"
      ],
      [
        "Ġp",
        "at"
      ],
      [
        "Ġcont",
        "in"
      ],
      [
        "Ġa",
        "ir"
      ],
      [
        "Ġuy",
        "g"
      ],
      [
        "ĠÃ¼",
        "st"
      ],
      [
        "a",
        "ir"
      ],
      [
        "s",
        "u"
      ],
      [
        "b",
        "e"
      ],
      [
        "Ġk",
        "ab"
      ],
      [
        "ur",
        "t"
      ],
      [
        "Ġs",
        "ign"
      ],
      [
        "ĠyÃ¶n",
        "et"
      ],
      [
        "Ġin",
        "st"
      ],
      [
        "Ġtop",
        "lan"
      ],
      [
        "it",
        "t"
      ],
      [
        "Ġsa",
        "at"
      ],
      [
        "A",
        "fter"
      ],
      [
        "in",
        "ci"
      ],
      [
        "Ġmil",
        "yar"
      ],
      [
        "ĠÃ¶",
        "r"
      ],
      [
        "lar",
        "dan"
      ],
      [
        "m",
        "ay"
      ],
      [
        "Ġrem",
        "ain"
      ],
      [
        "Ġk",
        "r"
      ],
      [
        "i",
        "o"
      ],
      [
        "Ġd",
        "id"
      ],
      [
        "un",
        "e"
      ],
      [
        "Ġs",
        "im"
      ],
      [
        "Ġpro",
        "v"
      ],
      [
        "s",
        "er"
      ],
      [
        "ĠiÃ§",
        "er"
      ],
      [
        "Ġan",
        "n"
      ],
      [
        "Ġh",
        "Ã¼k"
      ],
      [
        "or",
        "man"
      ],
      [
        "es",
        "ini"
      ],
      [
        "Ġb",
        "oy"
      ],
      [
        "an",
        "da"
      ],
      [
        "Ġkas",
        "Ä±m"
      ],
      [
        "ey",
        "en"
      ],
      [
        "Ġbil",
        "dir"
      ],
      [
        "lu",
        "k"
      ],
      [
        "Ġbirlik",
        "te"
      ],
      [
        "ĠL",
        "e"
      ],
      [
        "Ġsh",
        "ip"
      ],
      [
        "Ġw",
        "ar"
      ],
      [
        "ÄŁ",
        "Ã¼"
      ],
      [
        "ĠyÃ¶n",
        "etim"
      ],
      [
        "Ġdest",
        "ek"
      ],
      [
        "Ġk",
        "il"
      ],
      [
        "Ġy",
        "anÄ±"
      ],
      [
        "Ġc",
        "ould"
      ],
      [
        "Ġo",
        "lacak"
      ],
      [
        "Ġp",
        "ay"
      ],
      [
        "Ġcall",
        "ed"
      ],
      [
        "lar",
        "la"
      ],
      [
        "en",
        "g"
      ],
      [
        "Ġayr",
        "Ä±"
      ],
      [
        "Ġepis",
        "ode"
      ],
      [
        "Ġc",
        "rit"
      ],
      [
        "Ġk",
        "es"
      ],
      [
        "Ġear",
        "ly"
      ],
      [
        "Ġhal",
        "k"
      ],
      [
        "ok",
        "t"
      ],
      [
        "Ġve",
        "ya"
      ],
      [
        "Ġkad",
        "Ä±n"
      ],
      [
        "ers",
        "on"
      ],
      [
        "iel",
        "d"
      ],
      [
        "Ġdes",
        "crib"
      ],
      [
        "ĠÃ§Ä±k",
        "ar"
      ],
      [
        "ĠÅŁ",
        "u"
      ],
      [
        "Ġs",
        "it"
      ],
      [
        "Ġc",
        "um"
      ],
      [
        "d",
        "Ã¼l"
      ],
      [
        "c",
        "ad"
      ],
      [
        "in",
        "c"
      ],
      [
        "ĠdeÄŁer",
        "lendir"
      ],
      [
        "eh",
        "ir"
      ],
      [
        "Ġtam",
        "am"
      ],
      [
        "at",
        "ive"
      ],
      [
        "Ġd",
        "own"
      ],
      [
        "op",
        "le"
      ],
      [
        "Ġyak",
        "laÅŁ"
      ],
      [
        "Ġk",
        "im"
      ],
      [
        "Ġal",
        "ong"
      ],
      [
        "ĠÃ§alÄ±ÅŁ",
        "malar"
      ],
      [
        "Ġsa",
        "id"
      ],
      [
        "Ġkay",
        "b"
      ],
      [
        "ĠT",
        "h"
      ],
      [
        "p",
        "s"
      ],
      [
        "Ġav",
        "rupa"
      ],
      [
        "A",
        "s"
      ],
      [
        "Ġs",
        "un"
      ],
      [
        "op",
        "e"
      ],
      [
        "Ġf",
        "l"
      ],
      [
        "Ġr",
        "un"
      ],
      [
        "Ġul",
        "us"
      ],
      [
        "Ġ201",
        "1"
      ],
      [
        "ess",
        "ion"
      ],
      [
        "ĠÅŁ",
        "ey"
      ],
      [
        "Ġc",
        "oun"
      ],
      [
        "he",
        "l"
      ],
      [
        "Ġin",
        "d"
      ],
      [
        "k",
        "ur"
      ],
      [
        "Ġh",
        "iz"
      ],
      [
        "duÄŁ",
        "u"
      ],
      [
        "Ġst",
        "art"
      ],
      [
        "Ġl",
        "ist"
      ],
      [
        "Ġfark",
        "lÄ±"
      ],
      [
        "Ġk",
        "m"
      ],
      [
        "Ġcon",
        "c"
      ],
      [
        "Ġk",
        "or"
      ],
      [
        "Ġ",
        "Ã¼y"
      ],
      [
        "u",
        "ally"
      ],
      [
        "A",
        "l"
      ],
      [
        "Ġthe",
        "se"
      ],
      [
        "Ġed",
        "iyor"
      ],
      [
        "ir",
        "d"
      ],
      [
        "Ġ",
        "%"
      ],
      [
        "an",
        "n"
      ],
      [
        "ĠJ",
        "ohn"
      ],
      [
        "ĠÃ¼",
        "Ã§"
      ],
      [
        "is",
        "inde"
      ],
      [
        "eler",
        "in"
      ],
      [
        "ĠyÄ±l",
        "Ä±nda"
      ],
      [
        "em",
        "e"
      ],
      [
        "Ġol",
        "mak"
      ],
      [
        "ĠAmeric",
        "an"
      ],
      [
        "Ġis",
        "rail"
      ],
      [
        "Ġc",
        "ity"
      ],
      [
        "Ġk",
        "endi"
      ],
      [
        "Ġpol",
        "it"
      ],
      [
        "ro",
        "ss"
      ],
      [
        "Ġc",
        "ih"
      ],
      [
        "ti",
        "ÄŁini"
      ],
      [
        "lan",
        "an"
      ],
      [
        "Ġh",
        "at"
      ],
      [
        "ĠhÃ¼k",
        "Ã¼m"
      ],
      [
        "g",
        "est"
      ],
      [
        "ler",
        "inde"
      ],
      [
        "Ġb",
        "Ã¶yle"
      ],
      [
        "es",
        "inin"
      ],
      [
        "in",
        "k"
      ],
      [
        "es",
        "ine"
      ],
      [
        "it",
        "im"
      ],
      [
        "ul",
        "an"
      ],
      [
        "Ġt",
        "es"
      ],
      [
        "Ġr",
        "is"
      ],
      [
        "Ġre",
        "f"
      ],
      [
        "Ġun",
        "til"
      ],
      [
        "in",
        "a"
      ],
      [
        "ĠÃ¶ÄŁ",
        "ren"
      ],
      [
        "it",
        "al"
      ],
      [
        "ov",
        "e"
      ],
      [
        "ĠdÃ¼n",
        "ya"
      ],
      [
        "Ġh",
        "aber"
      ],
      [
        "Ġid",
        "di"
      ],
      [
        "Ġk",
        "ez"
      ],
      [
        "cc",
        "ess"
      ],
      [
        "Ġar",
        "k"
      ],
      [
        "Ġmu",
        "h"
      ],
      [
        "m",
        "ed"
      ],
      [
        "Ġh",
        "ist"
      ],
      [
        "u",
        "v"
      ],
      [
        "Ġpre",
        "v"
      ],
      [
        "Ġser",
        "v"
      ],
      [
        "de",
        "f"
      ],
      [
        "ĠdoÄŁ",
        "ru"
      ],
      [
        "s",
        "un"
      ],
      [
        "Ġs",
        "ame"
      ],
      [
        "Ġbelir",
        "ten"
      ],
      [
        "o",
        "ot"
      ],
      [
        "Ġsat",
        "Ä±ÅŁ"
      ],
      [
        "Ġs",
        "il"
      ],
      [
        "Ġd",
        "ist"
      ],
      [
        "b",
        "r"
      ],
      [
        "adÄ±",
        "ÄŁÄ±"
      ],
      [
        "ĠÃ¼zer",
        "ine"
      ],
      [
        "Ġk",
        "Ä±r"
      ],
      [
        "Ġ5",
        "0"
      ],
      [
        "Ġy",
        "atÄ±r"
      ],
      [
        "f",
        "on"
      ],
      [
        "bak",
        "anÄ±"
      ],
      [
        "id",
        "ed"
      ],
      [
        "ÄŁ",
        "imiz"
      ],
      [
        "iz",
        "ed"
      ],
      [
        "Ġrele",
        "ased"
      ],
      [
        "Ġdis",
        "c"
      ],
      [
        "Ġgel",
        "di"
      ],
      [
        "Ġbulun",
        "an"
      ],
      [
        "Ġ2",
        "1"
      ],
      [
        "Ġres",
        "p"
      ],
      [
        "Ġ",
        "land"
      ],
      [
        "Ġo",
        "wn"
      ],
      [
        "er",
        "man"
      ],
      [
        "ĠbaÅŁ",
        "ar"
      ],
      [
        "Ġhiz",
        "met"
      ],
      [
        "Ġf",
        "ut"
      ],
      [
        "Ġpro",
        "t"
      ],
      [
        "Ġ19",
        "5"
      ],
      [
        "Ġret",
        "urn"
      ],
      [
        "m",
        "y"
      ],
      [
        "Ġf",
        "ac"
      ],
      [
        "f",
        "ul"
      ],
      [
        "Ġs",
        "ch"
      ],
      [
        "ivers",
        "it"
      ],
      [
        "an",
        "a"
      ],
      [
        "Ġs",
        "ol"
      ],
      [
        "Ġsur",
        "iye"
      ],
      [
        "ĠBrit",
        "ish"
      ],
      [
        "ĠW",
        "ar"
      ],
      [
        "Ġr",
        "ed"
      ],
      [
        "Ġhe",
        "def"
      ],
      [
        "Ġc",
        "er"
      ],
      [
        "id",
        "ir"
      ],
      [
        "Ġdes",
        "ign"
      ],
      [
        "Ġo",
        "pen"
      ],
      [
        "tÄ±",
        "ÄŁÄ±"
      ],
      [
        "Ġmill",
        "ion"
      ],
      [
        "Ġp",
        "ass"
      ],
      [
        "mas",
        "Ä±na"
      ],
      [
        "Ġf",
        "am"
      ],
      [
        "en",
        "n"
      ],
      [
        "Ġneden",
        "iyle"
      ],
      [
        "Ġdo",
        "lar"
      ],
      [
        "Ġo",
        "t"
      ],
      [
        "et",
        "s"
      ],
      [
        "Ġe",
        "ÅŁ"
      ],
      [
        "Ġare",
        "a"
      ],
      [
        "Ġ2",
        "4"
      ],
      [
        "on",
        "y"
      ],
      [
        "ĠgerÃ§ek",
        "leÅŁtir"
      ],
      [
        "ru",
        "ct"
      ],
      [
        "Ġbec",
        "ause"
      ],
      [
        "in",
        "ce"
      ],
      [
        "Ġi",
        "ht"
      ],
      [
        "ti",
        "f"
      ],
      [
        "ĠÃ¶n",
        "c"
      ],
      [
        "Ġ201",
        "0"
      ],
      [
        "Ä±m",
        "Ä±"
      ],
      [
        "Ġfin",
        "al"
      ],
      [
        "Ġp",
        "h"
      ],
      [
        "Ġhast",
        "alÄ±k"
      ],
      [
        "Ġch",
        "p"
      ],
      [
        "ov",
        "er"
      ],
      [
        "Ġd",
        "in"
      ],
      [
        "et",
        "e"
      ],
      [
        "Ġt",
        "ele"
      ],
      [
        "Ġlik",
        "e"
      ],
      [
        "Ġd",
        "et"
      ],
      [
        "man",
        "Ä±n"
      ],
      [
        "ĠM",
        "ay"
      ],
      [
        "ĠI",
        "s"
      ],
      [
        "am",
        "ed"
      ],
      [
        "Ġm",
        "ut"
      ],
      [
        "Ġn",
        "da"
      ],
      [
        "os",
        "ed"
      ],
      [
        "ĠdÃ¼ÅŁ",
        "Ã¼n"
      ],
      [
        "ĠÃ¶",
        "dÃ¼l"
      ],
      [
        "Ġf",
        "r"
      ],
      [
        "ik",
        "a"
      ],
      [
        "Ġm",
        "ah"
      ],
      [
        "Ġo",
        "cc"
      ],
      [
        "ur",
        "ing"
      ],
      [
        "et",
        "i"
      ],
      [
        "Ġf",
        "a"
      ],
      [
        "Ġo",
        "lay"
      ],
      [
        "Ġy",
        "Ã¼r"
      ],
      [
        "Ġvur",
        "gu"
      ],
      [
        "ug",
        "ust"
      ],
      [
        "Ġcon",
        "st"
      ],
      [
        "Ġpe",
        "ople"
      ],
      [
        "Ġek",
        "onom"
      ],
      [
        "t",
        "y"
      ],
      [
        "m",
        "ayÄ±"
      ],
      [
        "st",
        "em"
      ],
      [
        "Ã¼n",
        "e"
      ],
      [
        "an",
        "ge"
      ],
      [
        "aj",
        "or"
      ],
      [
        "Ġb",
        "at"
      ],
      [
        "os",
        "y"
      ],
      [
        "ĠÃ¼zer",
        "inde"
      ],
      [
        "Ġad",
        "v"
      ],
      [
        "ent",
        "ly"
      ],
      [
        "Ġan",
        "y"
      ],
      [
        "Ġp",
        "ort"
      ],
      [
        "ik",
        "lerini"
      ],
      [
        "is",
        "yon"
      ],
      [
        "Ġs",
        "el"
      ],
      [
        "Ġbelirt",
        "ti"
      ],
      [
        "ce",
        "pt"
      ],
      [
        "Ġgro",
        "up"
      ],
      [
        "Ġr",
        "ah"
      ],
      [
        "Ġm",
        "en"
      ],
      [
        "Ġs",
        "iyas"
      ],
      [
        "Ġk",
        "i"
      ],
      [
        "ĠA",
        "ustr"
      ],
      [
        "Ġim",
        "p"
      ],
      [
        "iÅŁ",
        "im"
      ],
      [
        "ec",
        "i"
      ],
      [
        "m",
        "edi"
      ],
      [
        "ĠgÃ¶r",
        "Ã¼l"
      ],
      [
        "Ġb",
        "Ä±r"
      ],
      [
        "Ġgen",
        "Ã§"
      ],
      [
        "Ġd",
        "ile"
      ],
      [
        "The",
        "y"
      ],
      [
        "ib",
        "le"
      ],
      [
        "Ġm",
        "ad"
      ],
      [
        "ad",
        "y"
      ],
      [
        "Ġsor",
        "un"
      ],
      [
        "Ġsupp",
        "ort"
      ],
      [
        "g",
        "en"
      ],
      [
        "Ġw",
        "in"
      ],
      [
        "Ġs",
        "ix"
      ],
      [
        "Ġkon",
        "usunda"
      ],
      [
        "r",
        "ess"
      ],
      [
        "Ġe",
        "ff"
      ],
      [
        "v",
        "ek"
      ],
      [
        "ĠA",
        "ugust"
      ],
      [
        "Ġar",
        "ound"
      ],
      [
        "Ġmus",
        "ic"
      ],
      [
        "Ġ",
        "Z"
      ],
      [
        "as",
        "Ä±nÄ±n"
      ],
      [
        "Ġt",
        "urn"
      ],
      [
        "Ġperf",
        "orman"
      ],
      [
        "Ġb",
        "unu"
      ],
      [
        "Ġv",
        "ide"
      ],
      [
        "id",
        "d"
      ],
      [
        "li",
        "am"
      ],
      [
        "i",
        "ev"
      ],
      [
        "m",
        "eye"
      ],
      [
        "Ġn",
        "orth"
      ],
      [
        "Ġ19",
        "3"
      ],
      [
        "ut",
        "h"
      ],
      [
        "Ġ2",
        "2"
      ],
      [
        "Ġsu",
        "ccess"
      ],
      [
        "A",
        "t"
      ],
      [
        "Ġyar",
        "dÄ±m"
      ],
      [
        "o",
        "le"
      ],
      [
        "Ġv",
        "at"
      ],
      [
        "b",
        "u"
      ],
      [
        "Ġr",
        "us"
      ],
      [
        "l",
        "ish"
      ],
      [
        "Ġkayd",
        "etti"
      ],
      [
        "ĠSe",
        "pt"
      ],
      [
        "Ġus",
        "e"
      ],
      [
        "d",
        "ur"
      ],
      [
        "as",
        "Ä±nÄ±"
      ],
      [
        "Ġe",
        "ach"
      ],
      [
        "k",
        "Ã¼"
      ],
      [
        "Ġ19",
        "1"
      ],
      [
        "Ġt",
        "it"
      ],
      [
        "m",
        "i"
      ],
      [
        "ĠJ",
        "ul"
      ],
      [
        "la",
        "ce"
      ],
      [
        "Ä±",
        "y"
      ],
      [
        "Ġcomp",
        "let"
      ],
      [
        "ĠÃ¼r",
        "Ã¼n"
      ],
      [
        "ĠÃ¶zel",
        "likle"
      ],
      [
        "Ġfollow",
        "ing"
      ],
      [
        "ĠSept",
        "ember"
      ],
      [
        "eb",
        "ilir"
      ],
      [
        "ĠS",
        "h"
      ],
      [
        "Ġyak",
        "Ä±n"
      ],
      [
        "Ġyay",
        "Ä±n"
      ],
      [
        "Ġol",
        "masÄ±"
      ],
      [
        "ĠgÃ¶",
        "n"
      ],
      [
        "as",
        "Ä±na"
      ],
      [
        "x",
        "t"
      ],
      [
        "Ġg",
        "u"
      ],
      [
        "Ġtele",
        "fon"
      ],
      [
        "ley",
        "en"
      ],
      [
        "Ġcharac",
        "ter"
      ],
      [
        "im",
        "es"
      ],
      [
        "k",
        "es"
      ],
      [
        "a",
        "w"
      ],
      [
        "ĠbaÅŁ",
        "ladÄ±"
      ],
      [
        "os",
        "s"
      ],
      [
        "Ġpro",
        "b"
      ],
      [
        "Ġuygu",
        "lam"
      ],
      [
        "lu",
        "b"
      ],
      [
        "Ġhe",
        "ad"
      ],
      [
        "Ġr",
        "est"
      ],
      [
        "Ġg",
        "overn"
      ],
      [
        "Ġm",
        "as"
      ],
      [
        "H",
        "owever"
      ],
      [
        "l",
        "um"
      ],
      [
        "ak",
        "e"
      ],
      [
        "id",
        "ent"
      ],
      [
        "S",
        "he"
      ],
      [
        "l",
        "o"
      ],
      [
        "ĠbÄ±r",
        "ak"
      ],
      [
        "ĠaÃ§Ä±klam",
        "ada"
      ],
      [
        "Ġuz",
        "un"
      ],
      [
        "Ġf",
        "ive"
      ],
      [
        "b",
        "o"
      ],
      [
        "Ġtekn",
        "oloj"
      ],
      [
        "Ġe",
        "ver"
      ],
      [
        "Ġw",
        "ill"
      ],
      [
        "Ġ2",
        "8"
      ],
      [
        "Ġcontin",
        "u"
      ],
      [
        "Ġ200",
        "9"
      ],
      [
        "Ġatt",
        "ack"
      ],
      [
        "lar",
        "Ä±mÄ±z"
      ],
      [
        "d",
        "ition"
      ],
      [
        "ĠÃ§",
        "Ã¶z"
      ],
      [
        "Ġson",
        "r"
      ],
      [
        "e",
        "al"
      ],
      [
        "Ġcum",
        "hur"
      ],
      [
        "ar",
        "i"
      ],
      [
        "g",
        "in"
      ],
      [
        "ward",
        "s"
      ],
      [
        "ĠoluÅŁ",
        "tur"
      ],
      [
        "Ġh",
        "am"
      ],
      [
        "Ġlar",
        "ge"
      ],
      [
        "iv",
        "al"
      ],
      [
        "ĠyatÄ±r",
        "Ä±m"
      ],
      [
        "Ġt",
        "Ã¼k"
      ],
      [
        "Ġc",
        "ez"
      ],
      [
        "ter",
        "ek"
      ],
      [
        "A",
        "n"
      ],
      [
        "end",
        "ed"
      ],
      [
        "ĠG",
        "erman"
      ],
      [
        "ap",
        "h"
      ],
      [
        "Ġan",
        "k"
      ],
      [
        "ord",
        "ing"
      ],
      [
        "Ġsal",
        "dÄ±r"
      ],
      [
        "ece",
        "ÄŁ"
      ],
      [
        "el",
        "t"
      ],
      [
        "Ġt",
        "en"
      ],
      [
        "Ġ2",
        "3"
      ],
      [
        "ĠÂ",
        "ĳ"
      ],
      [
        "Ġsav",
        "un"
      ],
      [
        "Ġwh",
        "at"
      ],
      [
        "Ġsonu",
        "Ã§"
      ],
      [
        "mas",
        "Ä±nÄ±n"
      ],
      [
        "Ġre",
        "port"
      ],
      [
        "Ġyap",
        "an"
      ],
      [
        "Ġkap",
        "s"
      ],
      [
        "k",
        "Ä±"
      ],
      [
        "Ġbo",
        "ok"
      ],
      [
        "ar",
        "asÄ±"
      ],
      [
        "ĠmÃ¼",
        "cad"
      ],
      [
        "ĠÃ§",
        "ev"
      ],
      [
        "Ġl",
        "ast"
      ],
      [
        "Ġst",
        "and"
      ],
      [
        "Ġtoplan",
        "tÄ±"
      ],
      [
        "Ġr",
        "ap"
      ],
      [
        "Ġv",
        "ers"
      ],
      [
        "Ã¼",
        "p"
      ],
      [
        "Ä±",
        "t"
      ],
      [
        "Ġbiz",
        "im"
      ],
      [
        "ut",
        "e"
      ],
      [
        "ler",
        "le"
      ],
      [
        "ir",
        "ed"
      ],
      [
        "b",
        "ers"
      ],
      [
        "larÄ±n",
        "dan"
      ],
      [
        "g",
        "il"
      ],
      [
        "Ġg",
        "re"
      ],
      [
        "ĠC",
        "an"
      ],
      [
        "er",
        "doÄŁan"
      ],
      [
        "Ġ200",
        "8"
      ],
      [
        "is",
        "ini"
      ],
      [
        "ist",
        "s"
      ],
      [
        "ĠI",
        "I"
      ],
      [
        "ĠJ",
        "une"
      ],
      [
        "ĠiliÅŁ",
        "kin"
      ],
      [
        "ĠW",
        "orld"
      ],
      [
        "Ġbelir",
        "terek"
      ],
      [
        "il",
        "la"
      ],
      [
        "ag",
        "ue"
      ],
      [
        "ĠbÃ¼t",
        "Ã¼n"
      ],
      [
        "Ġd",
        "eki"
      ],
      [
        "Ġn",
        "as"
      ],
      [
        "ut",
        "ion"
      ],
      [
        "Ġn",
        "a"
      ],
      [
        "Ġol",
        "ur"
      ],
      [
        "ous",
        "e"
      ],
      [
        "l",
        "ing"
      ],
      [
        "Ġcon",
        "tr"
      ],
      [
        "u",
        "an"
      ],
      [
        "ĠgeÃ§",
        "ir"
      ],
      [
        "Ġsin",
        "ce"
      ],
      [
        "alar",
        "Ä±n"
      ],
      [
        "Ġ",
        "$"
      ],
      [
        "l",
        "as"
      ],
      [
        "Ġl",
        "ine"
      ],
      [
        "Ġtel",
        "ev"
      ],
      [
        "ĠyaÅŁ",
        "an"
      ],
      [
        "at",
        "ure"
      ],
      [
        "Ġar",
        "r"
      ],
      [
        "Ġdir",
        "ect"
      ],
      [
        "Ġhar",
        "ek"
      ],
      [
        "Ġs",
        "outh"
      ],
      [
        "ĠSt",
        "ates"
      ],
      [
        "ang",
        "i"
      ],
      [
        "od",
        "y"
      ],
      [
        "Ġn",
        "ame"
      ],
      [
        "ab",
        "ilir"
      ],
      [
        "Ġen",
        "er"
      ],
      [
        "an",
        "u"
      ],
      [
        "Ġm",
        "ajor"
      ],
      [
        "l",
        "ak"
      ],
      [
        "Ġrece",
        "ived"
      ],
      [
        "Ġfe",
        "atur"
      ],
      [
        "Ġn",
        "et"
      ],
      [
        "ĠÃ§",
        "aÄŁ"
      ],
      [
        "ĠU",
        "S"
      ],
      [
        "Ã¼m",
        "Ã¼z"
      ],
      [
        "ed",
        "er"
      ],
      [
        "ro",
        "te"
      ],
      [
        "ect",
        "s"
      ],
      [
        "Ġg",
        "ru"
      ],
      [
        "ĠgÃ¶r",
        "Ã¼n"
      ],
      [
        "Ġb",
        "est"
      ],
      [
        "iv",
        "ision"
      ],
      [
        "n",
        "er"
      ],
      [
        "Ġg",
        "it"
      ],
      [
        "Ġb",
        "er"
      ],
      [
        "Ġm",
        "ed"
      ],
      [
        "Ã¼n",
        "Ã¼n"
      ],
      [
        "at",
        "ely"
      ],
      [
        "d",
        "om"
      ],
      [
        "Ġvide",
        "o"
      ],
      [
        "ĠÃ¼z",
        "ere"
      ],
      [
        "Ġk",
        "Ã¼r"
      ],
      [
        "Ġbo",
        "z"
      ],
      [
        "Ġsy",
        "stem"
      ],
      [
        "ad",
        "Ä±r"
      ],
      [
        "Ġw",
        "on"
      ],
      [
        "Ã§",
        "Ä±"
      ],
      [
        "i",
        "er"
      ],
      [
        "Ġgaz",
        "et"
      ],
      [
        "ĠÃ¼r",
        "et"
      ],
      [
        "Ġis",
        "im"
      ],
      [
        "Ġb",
        "re"
      ],
      [
        "is",
        "m"
      ],
      [
        "Ġpart",
        "ic"
      ],
      [
        "ĠyaÅŁ",
        "am"
      ],
      [
        "c",
        "Ä±sÄ±"
      ],
      [
        "Ġk",
        "Ã¼l"
      ],
      [
        "m",
        "eler"
      ],
      [
        "Ġp",
        "az"
      ],
      [
        "Ġ",
        "Ä±"
      ],
      [
        "ul",
        "l"
      ],
      [
        "r",
        "ar"
      ],
      [
        "Ġw",
        "orld"
      ],
      [
        "Ġl",
        "ife"
      ],
      [
        "Ġed",
        "ildi"
      ],
      [
        "p",
        "ed"
      ],
      [
        "lerin",
        "den"
      ],
      [
        "Ġs",
        "ektÃ¶r"
      ],
      [
        "Ġpubl",
        "ic"
      ],
      [
        "Ġoff",
        "ic"
      ],
      [
        "Ġh",
        "Ä±z"
      ],
      [
        "y",
        "le"
      ],
      [
        "iv",
        "es"
      ],
      [
        "ĠN",
        "orth"
      ],
      [
        "Ã",
        "©"
      ],
      [
        "Ġris",
        "k"
      ],
      [
        "Ġdescrib",
        "ed"
      ],
      [
        "em",
        "ents"
      ],
      [
        "Ġor",
        "an"
      ],
      [
        "ĠO",
        "ct"
      ],
      [
        "or",
        "ed"
      ],
      [
        "Ġp",
        "erson"
      ],
      [
        "al",
        "t"
      ],
      [
        "h",
        "il"
      ],
      [
        "Ġbil",
        "im"
      ],
      [
        "Ġt",
        "ra"
      ],
      [
        "h",
        "am"
      ],
      [
        "Ġhe",
        "l"
      ],
      [
        "Ġ",
        "ec"
      ],
      [
        "m",
        "em"
      ],
      [
        "la",
        "h"
      ],
      [
        "Ġh",
        "ol"
      ],
      [
        "Ġz",
        "iy"
      ],
      [
        "Ġk",
        "Ã¼"
      ],
      [
        "Ġst",
        "ate"
      ],
      [
        "Ġt",
        "est"
      ],
      [
        "Ġk",
        "aÃ§"
      ],
      [
        "anda",
        "ÅŁ"
      ],
      [
        "Ġplay",
        "ed"
      ],
      [
        "ĠOct",
        "ober"
      ],
      [
        "Ġvat",
        "andaÅŁ"
      ],
      [
        "Ġn",
        "ow"
      ],
      [
        "Ä±nÄ±",
        "z"
      ],
      [
        "Ġ4",
        "0"
      ],
      [
        "Ġk",
        "ans"
      ],
      [
        "l",
        "ine"
      ],
      [
        "ĠAustr",
        "al"
      ],
      [
        "Ġb",
        "it"
      ],
      [
        "Ġb",
        "att"
      ],
      [
        "Ġb",
        "ah"
      ],
      [
        "Ġto",
        "ok"
      ],
      [
        "Ġu",
        "Ã§"
      ],
      [
        "Ġulus",
        "lar"
      ],
      [
        "Ġcl",
        "ass"
      ],
      [
        "Ġoyun",
        "cu"
      ],
      [
        "Ġit",
        "ib"
      ],
      [
        "ĠC",
        "ol"
      ],
      [
        "k",
        "s"
      ],
      [
        "Ġm",
        "i"
      ],
      [
        "ĠE",
        "ur"
      ],
      [
        "Ġinc",
        "re"
      ],
      [
        "Ġt",
        "Ã¼r"
      ],
      [
        "Ġ2",
        "6"
      ],
      [
        "oÄŁ",
        "raf"
      ],
      [
        "em",
        "pt"
      ],
      [
        "ĠkiÅŁ",
        "i"
      ],
      [
        "Ġapp",
        "ro"
      ],
      [
        "Ġhakk",
        "Ä±nda"
      ],
      [
        "iversit",
        "esi"
      ],
      [
        "iv",
        "ing"
      ],
      [
        "Ġt",
        "anÄ±"
      ],
      [
        "ĠN",
        "ov"
      ],
      [
        "uÅŁ",
        "tur"
      ],
      [
        "Ġw",
        "rote"
      ],
      [
        "on",
        "t"
      ],
      [
        "ĠJul",
        "y"
      ],
      [
        "Ġl",
        "ate"
      ],
      [
        "ĠiÅŁ",
        "lem"
      ],
      [
        "Ġsor",
        "u"
      ],
      [
        "g",
        "Ä±"
      ],
      [
        "Ġsu",
        "Ã§"
      ],
      [
        "ĠeÄŁ",
        "itim"
      ],
      [
        "l",
        "in"
      ],
      [
        "j",
        "i"
      ],
      [
        "Ġs",
        "osy"
      ],
      [
        "Ġs",
        "ak"
      ],
      [
        "Ġor",
        "der"
      ],
      [
        "ĠS",
        "outh"
      ],
      [
        "Ġr",
        "ak"
      ],
      [
        "lac",
        "aÄŁ"
      ],
      [
        "Ġs",
        "Ä±"
      ],
      [
        "t",
        "Ã¼rk"
      ],
      [
        "ĠyaklaÅŁ",
        "Ä±k"
      ],
      [
        "Ġmu",
        "ch"
      ],
      [
        "t",
        "aÅŁ"
      ],
      [
        "Ġte",
        "ÅŁ"
      ],
      [
        "Ġcon",
        "f"
      ],
      [
        "ĠkÃ¼l",
        "tÃ¼r"
      ],
      [
        "z",
        "on"
      ],
      [
        "ĠK",
        "ing"
      ],
      [
        "Ġb",
        "ank"
      ],
      [
        "Ġch",
        "ild"
      ],
      [
        "Ġdo",
        "lay"
      ],
      [
        "Ġsay",
        "Ä±"
      ],
      [
        "ek",
        "tr"
      ],
      [
        "Ġar",
        "tÄ±r"
      ],
      [
        "bakan",
        "lÄ±ÄŁÄ±"
      ],
      [
        "Ġmillet",
        "vek"
      ],
      [
        "Ġart",
        "Ä±k"
      ],
      [
        "Ã§",
        "i"
      ],
      [
        "Ġs",
        "Ä±n"
      ],
      [
        "un",
        "larÄ±"
      ],
      [
        "o",
        "z"
      ],
      [
        "Ġf",
        "ot"
      ],
      [
        "tÄ±",
        "ÄŁÄ±nÄ±"
      ],
      [
        "Ġsing",
        "le"
      ],
      [
        "t",
        "ing"
      ],
      [
        "Ġd",
        "ue"
      ],
      [
        "ol",
        "u"
      ],
      [
        "ĠT",
        "r"
      ],
      [
        "Ġgerek",
        "tiÄŁini"
      ],
      [
        "Ġk",
        "oy"
      ],
      [
        "ler",
        "den"
      ],
      [
        "pr",
        "il"
      ],
      [
        "Ġsh",
        "ort"
      ],
      [
        "Ġdif",
        "fer"
      ],
      [
        "ur",
        "r"
      ],
      [
        "n",
        "ak"
      ],
      [
        "Ġal",
        "low"
      ],
      [
        "Ġspec",
        "ies"
      ],
      [
        "D",
        "uring"
      ],
      [
        "ĠayrÄ±",
        "ca"
      ],
      [
        "ĠgeliÅŁ",
[...]
