{
  "version": "1.0",
  "truncation": null,
  "padding": null,
  "added_tokens": [
    {
      "id": 0,
      "content": "<s>",
      "single_word": false,
      "lstrip": false,
      "rstrip": false,
      "normalized": false,
      "special": true
    },
    {
      "id": 1,
      "content": "<pad>",
      "single_word": false,
      "lstrip": false,
      "rstrip": false,
      "normalized": false,
      "special": true
    },
    {
      "id": 2,
      "content": "</s>",
      "single_word": false,
      "lstrip": false,
      "rstrip": false,
      "normalized": false,
      "special": true
    },
    {
      "id": 3,
      "content": "<unk>",
      "single_word": false,
      "lstrip": false,
      "rstrip": false,
      "normalized": false,
      "special": true
    },
    {
      "id": 50000,
      "content": "<|sistem|>",
      "single_word": false,
      "lstrip": false,
      "rstrip": false,
      "normalized": false,
      "special": true
    },
    {
      "id": 50001,
      "content": "<|kullanici|>",
      "single_word": false,
      "lstrip": false,
      "rstrip": false,
      "normalized": false,
      "special": true
    },
    {
      "id": 50002,
      "content": "<|asistan|>",
      "single_word": false,
      "lstrip": false,
      "rstrip": false,
      "normalized": false,
      "special": true
    },
    {
      "id": 50003,
      "content": "<|son|>",
      "single_word": false,
      "lstrip": false,
      "rstrip": false,
      "normalized": false,
      "special": true
    }
  ],
  "normalizer": null,
  "pre_tokenizer": {
    "type": "ByteLevel",
    "add_prefix_space": false,
    "trim_offsets": true,
    "use_regex": true
  },
  "post_processor": null,
  "decoder": {
    "type": "ByteLevel",
    "add_prefix_space": true,
    "trim_offsets": true,
    "use_regex": true
  },
  "model": {
    "type": "BPE",
    "dropout": null,
    "unk_token": "<unk>",
    "continuing_subword_prefix": null,
    "end_of_word_suffix": null,
    "fuse_unk": false,
    "byte_fallback": false,
    "ignore_merges": false,
    "vocab": {
      "<s>": 0,
      "<pad>": 1,
      "</s>": 2,
      "<unk>": 3,
      "!": 4,
      "\"": 5,
      "#": 6,
      "$": 7,
      "%": 8,
      "&": 9,
      "'": 10,
      "(": 11,
      ")": 12,
      "*": 13,
      "+": 14,
      ",": 15,
      "-": 16,
      ".": 17,
      "/": 18,
      "0": 19,
      "1": 20,
      "2": 21,
      "3": 22,
      "4": 23,
      "5": 24,
      "6": 25,
      "7": 26,
      "8": 27,
      "9": 28,
      ":": 29,
      ";": 30,
      "<": 31,
      "=": 32,
      ">": 33,
      "?": 34,
      "@": 35,
      "A": 36,
      "B": 37,
      "C": 38,
      "D": 39,
      "E": 40,
      "F": 41,
      "G": 42,
      "H": 43,
      "I": 44,
      "J": 45,
      "K": 46,
      "L": 47,
      "M": 48,
      "N": 49,
      "O": 50,
      "P": 51,
      "Q": 52,
      "R": 53,
      "S": 54,
      "T": 55,
      "U": 56,
      "V": 57,
      "W": 58,
      "X": 59,
      "Y": 60,
      "Z": 61,
      "[": 62,
      "\\": 63,
      "]": 64,
      "^": 65,
      "_": 66,
      "`": 67,
      "a": 68,
      "b": 69,
      "c": 70,
      "d": 71,
      "e": 72,
      "f": 73,
      "g": 74,
      "h": 75,
      "i": 76,
      "j": 77,
      "k": 78,
      "l": 79,
      "m": 80,
      "n": 81,
      "o": 82,
      "p": 83,
      "q": 84,
      "r": 85,
      "s": 86,
      "t": 87,
      "u": 88,
      "v": 89,
      "w": 90,
      "x": 91,
      "y": 92,
      "z": 93,
      "{": 94,
      "|": 95,
      "}": 96,
      "~": 97,
      "¡": 98,
      "¢": 99,
      "£": 100,
      "¤": 101,
      "¥": 102,
      "¦": 103,
      "§": 104,
      "¨": 105,
      "©": 106,
      "ª": 107,
      "«": 108,
      "¬": 109,
      "®": 110,
      "¯": 111,
      "°": 112,
      "±": 113,
      "²": 114,
      "³": 115,
      "´": 116,
      "µ": 117,
      "¶": 118,
      "·": 119,
      "¸": 120,
      "¹": 121,
      "º": 122,
      "»": 123,
      "¼": 124,
      "½": 125,
      "¾": 126,
      "¿": 127,
      "À": 128,
      "Á": 129,
      "Â": 130,
      "Ã": 131,
      "Ä": 132,
      "Å": 133,
      "Æ": 134,
      "Ç": 135,
      "È": 136,
      "É": 137,
      "Ê": 138,
      "Ë": 139,
      "Ì": 140,
      "Í": 141,
      "Î": 142,
      "Ï": 143,
      "Ð": 144,
      "Ñ": 145,
      "Ò": 146,
      "Ó": 147,
      "Ô": 148,
      "Õ": 149,
      "Ö": 150,
      "×": 151,
      "Ø": 152,
      "Ù": 153,
      "Ú": 154,
      "Û": 155,
      "Ü": 156,
      "Ý": 157,
      "Þ": 158,
      "ß": 159,
      "à": 160,
      "á": 161,
      "â": 162,
      "ã": 163,
      "ä": 164,
      "å": 165,
      "æ": 166,
      "ç": 167,
      "è": 168,
      "é": 169,
      "ê": 170,
      "ë": 171,
      "ì": 172,
      "í": 173,
      "î": 174,
      "ï": 175,
      "ð": 176,
      "ñ": 177,
      "ò": 178,
      "ó": 179,
      "ô": 180,
      "õ": 181,
      "ö": 182,
      "÷": 183,
      "ø": 184,
      "ù": 185,
      "ú": 186,
      "û": 187,
      "ü": 188,
      "ý": 189,
      "þ": 190,
      "ÿ": 191,
      "Ā": 192,
      "ā": 193,
      "Ă": 194,
      "ă": 195,
      "Ą": 196,
      "ą": 197,
      "Ć": 198,
      "ć": 199,
      "Ĉ": 200,
      "ĉ": 201,
      "Ċ": 202,
      "ċ": 203,
      "Č": 204,
      "č": 205,
      "Ď": 206,
      "ď": 207,
      "Đ": 208,
      "đ": 209,
      "Ē": 210,
      "ē": 211,
      "Ĕ": 212,
      "ĕ": 213,
      "Ė": 214,
      "ė": 215,
      "Ę": 216,
      "ę": 217,
      "Ě": 218,
      "ě": 219,
      "Ĝ": 220,
      "ĝ": 221,
      "Ğ": 222,
      "ğ": 223,
      "Ġ": 224,
      "ġ": 225,
      "Ģ": 226,
      "ģ": 227,
      "Ĥ": 228,
      "ĥ": 229,
      "Ħ": 230,
      "ħ": 231,
      "Ĩ": 232,
      "ĩ": 233,
      "Ī": 234,
      "ī": 235,
      "Ĭ": 236,
      "ĭ": 237,
      "Į": 238,
      "į": 239,
      "İ": 240,
      "ı": 241,
      "Ĳ": 242,
      "ĳ": 243,
      "Ĵ": 244,
      "ĵ": 245,
      "Ķ": 246,
      "ķ": 247,
      "ĸ": 248,
      "Ĺ": 249,
      "ĺ": 250,
      "Ļ": 251,
      "ļ": 252,
      "Ľ": 253,
      "ľ": 254,
      "Ŀ": 255,
      "ŀ": 256,
      "Ł": 257,
      "ł": 258,
      "Ń": 259,
      "Ä±": 260,
      "Ġt": 261,
      "in": 262,
      "an": 263,
      "er": 264,
      "ar": 265,
      "Ġb": 266,
      "he": 267,
      "Ġs": 268,
      "Ġa": 269,
      "en": 270,
      "Ġo": 271,
      "Ã¼": 272,
      "Ġd": 273,
      "Ġthe": 274,
      "un": 275,
      "ed": 276,
      "on": 277,
      "ÅŁ": 278,
      "il": 279,
      "or": 280,
      "al": 281,
      "es": 282,
      "at": 283,
      "Ä±n": 284,
      "Ġ,": 285,
      "Ġk": 286,
      "is": 287,
      "as": 288,
      "ir": 289,
      "ÄŁ": 290,
      "Ġy": 291,
      "Ġg": 292,
      "čĊ": 293,
      "Ġw": 294,
      "el": 295,
      "Ġm": 296,
      "Ġf": 297,
      "Ã§": 298,
      "it": 299,
      "Ġh": 300,
      "Ġc": 301,
      "Ġ.": 302,
      "et": 303,
      "Ġan": 304,
      "Ġp": 305,
      "Ġin": 306,
      "ak": 307,
      "Ã¶": 308,
      "Ġof": 309,
      "ur": 310,
      "la": 311,
      "lar": 312,
      "Ġv": 313,
      "unk": 314,
      "ek": 315,
      "Ġr": 316,
      "Ġn": 317,
      "ing": 318,
      "Ġand": 319,
      "Ġ<": 320,
      "le": 321,
      "Ġto": 322,
      "am": 323,
      "ad": 324,
      "ay": 325,
      "ic": 326,
      "iy": 327,
      "ro": 328,
      "im": 329,
      "ec": 330,
      "em": 331,
      "Ġ1": 332,
      "ul": 333,
      "ion": 334,
      "de": 335,
      "ik": 336,
      "ler": 337,
      "da": 338,
      "us": 339,
      "Ġi": 340,
      "lan": 341,
      "Ġde": 342,
      "ent": 343,
      "om": 344,
      "Ġve": 345,
      "ol": 346,
      "Ġth": 347,
      "ut": 348,
      "ac": 349,
      "ĠÃ§": 350,
      "ap": 351,
      "Ġbir": 352,
      "Ã¼n": 353,
      "Ġe": 354,
      "Ġ2": 355,
      "lÄ±": 356,
      "aÅŁ": 357,
      "Ġl": 358,
      "Ġar": 359,
      "Ġis": 360,
      "Ã¼r": 361,
      "Ġ\"": 362,
      "um": 363,
      "st": 364,
      "Ä±r": 365,
      "iz": 366,
      "ĠÂ": 367,
      "Ġ@": 368,
      "re": 369,
      "Ġon": 370,
      "Ġal": 371,
      "ĠÃ¶": 372,
      "Ġwas": 373,
      "ĠS": 374,
      "iv": 375,
      "Ġda": 376,
      "ĠC": 377,
      "ter": 378,
      "Ġol": 379,
      "di": 380,
      "The": 381,
      "ot": 382,
      "Ä±k": 383,
      "Ġas": 384,
      "Ġfor": 385,
      "Ġ'": 386,
      "id": 387,
      "az": 388,
      "ab": 389,
      "Ġil": 390,
      "ig": 391,
      "ĠA": 392,
      "ey": 393,
      "ly": 394,
      "Ġbu": 395,
      "dÄ±": 396,
      "Ä±nÄ±": 397,
      "-@": 398,
      "Ġ@-@": 399,
      "av": 400,
      "Ä±l": 401,
      "du": 402,
      "Ġst": 403,
      "ini": 404,
      "ine": 405,
      "iÅŁ": 406,
      "ĠM": 407,
      "ith": 408,
      "li": 409,
      "ow": 410,
      "ce": 411,
      "Ġbe": 412,
      "Ä±ÅŁ": 413,
      "ĠÅŁ": 414,
      "ok": 415,
      "th": 416,
      "ers": 417,
      "Ġhe": 418,
      "est": 419,
      "ere": 420,
      "Ã¼z": 421,
      "ti": 422,
      "ĠgÃ¶": 423,
      "Ġat": 424,
      "Ä±nda": 425,
      "ev": 426,
      "Ä±m": 427,
      "Ġthat": 428,
      "Ġwith": 429,
      "00": 430,
      "Ġwh": 431,
      "ĠB": 432,
      "aÄŁ": 433,
      "Ġor": 434,
      "os": 435,
      "ation": 436,
      "Ġyap": 437,
      "ist": 438,
      "Ġu": 439,
      "dan": 440,
      "Ġpro": 441,
      "Ġit": 442,
      "Ġby": 443,
      "ĠbaÅŁ": 444,
      "ĠiÃ§": 445,
      "ah": 446,
      "ch": 447,
      "Ġ19": 448,
      "ĠÂĴ": 449,
      "asÄ±": 450,
      "inde": 451,
      "Ġre": 452,
      "Ġ(": 453,
      "Ġ)": 454,
      "Ġcon": 455,
      "iye": 456,
      "eri": 457,
      "lu": 458,
      "Ġen": 459,
      "yor": 460,
      "ib": 461,
      "Ã¼k": 462,
      "esi": 463,
      "ĠP": 464,
      "ra": 465,
      "ip": 466,
      "Ġson": 467,
      "tÄ±": 468,
      "ĠR": 469,
      "larÄ±n": 470,
      "edi": 471,
      "Ã¼l": 472,
      "Ġed": 473,
      "lay": 474,
      "rom": 475,
      "ast": 476,
      "larÄ±": 477,
      "inin": 478,
      "ÄŁÄ±": 479,
      "iyor": 480,
      "Ġ3": 481,
      "ma": 482,
      "Ä±z": 483,
      "ĠH": 484,
      "ag": 485,
      "op": 486,
      "Ġkon": 487,
      "art": 488,
      "ug": 489,
      "oÄŁ": 490,
      "alar": 491,
      "ĠD": 492,
      "oc": 493,
      "Ã¼rk": 494,
      "ĠG": 495,
      "ain": 496,
      "ĠN": 497,
      "Ġet": 498,
      "ĠF": 499,
      "den": 500,
      "Ġhis": 501,
      "ĠI": 502,
      "Ġfrom": 503,
      "man": 504,
      "ĠÃ¶n": 505,
      "ov": 506,
      "Ġcom": 507,
      "ĠJ": 508,
      "ĠT": 509,
      "ess": 510,
      "oun": 511,
      "ÄŁi": 512,
      "Ġsu": 513,
      "end": 514,
      "if": 515,
      "ilm": 516,
      "ĠL": 517,
      "uÅŁ": 518,
      "unu": 519,
      "ĠW": 520,
      "ect": 521,
      "Ġkar": 522,
      "od": 523,
      "Ġz": 524,
      "Ġse": 525,
      "Ã¼m": 526,
      "ĠiÃ§in": 527,
      "Ġver": 528,
      "Ġch": 529,
      "ĠtÃ¼rk": 530,
      "Ġoldu": 531,
      "Ã¶n": 532,
      "Ġun": 533,
      "Ġ20": 534,
      "ru": 535,
      "ort": 536,
      "Ġmil": 537,
      "Ġbel": 538,
      "ht": 539,
      "ct": 540,
      "Ġher": 541,
      "lam": 542,
      "and": 543,
      "Ġay": 544,
      "Ġne": 545,
      "ya": 546,
      "Ġgel": 547,
      "Ġwere": 548,
      "ece": 549,
      "ate": 550,
      "af": 551,
      "ans": 552,
      "anÄ±": 553,
      "te": 554,
      "ĠyÄ±l": 555,
      "lÄ±k": 556,
      "ard": 557,
      "Ä±s": 558,
      "ĠE": 559,
      "Ġile": 560,
      "leri": 561,
      "Ġ5": 562,
      "Ġad": 563,
      "Ġbil": 564,
      "ich": 565,
      "Ä±na": 566,
      "Ġ4": 567,
      "eler": 568,
      "Ä±nÄ±n": 569,
      "yon": 570,
      "ber": 571,
      "out": 572,
      "Ġsp": 573,
      "ĠaÃ§": 574,
      "all": 575,
      "Ã¶y": 576,
      "iler": 577,
      "pp": 578,
      "Ġex": 579,
      "lik": 580,
      "ame": 581,
      "Ã¼ÅŁ": 582,
      "ant": 583,
      "aya": 584,
      "ated": 585,
      "ity": 586,
      "Ġger": 587,
      "Ġtr": 588,
      "Ġâ": 589,
      "Ġel": 590,
      "uz": 591,
      "Ġare": 592,
      "ive": 593,
      "lac": 594,
      "Ã¼y": 595,
      "ore": 596,
      "Ġab": 597,
      "Ġsh": 598,
      "eb": 599,
      "qu": 600,
      "ez": 601,
      "Ġ201": 602,
      "Ġ200": 603,
      "ĠâĢ": 604,
      "ge": 605,
      "ark": 606,
      "Ġhad": 607,
      "ÄŁini": 608,
      "ĠolduÄŁ": 609,
      "Ä±ndan": 610,
      "ĠtÃ¼rkiye": 611,
      "ear": 612,
      "larak": 613,
      "In": 614,
      "Ġnot": 615,
      "tr": 616,
      "ĠO": 617,
      "masÄ±": 618,
      "Ġbul": 619,
      "der": 620,
      "Ġwhich": 621,
      "our": 622,
      "laÅŁ": 623,
      "uk": 624,
      "Ġle": 625,
      "ver": 626,
      "ha": 627,
      "ĠiÅŁ": 628,
      "ost": 629,
      "ĠdeÄŁ": 630,
      "Ġdev": 631,
      "se": 632,
      "Ġfir": 633,
      "ĠgÃ¶r": 634,
      "Ġnin": 635,
      "ong": 636,
      "Ġgen": 637,
      "Ġtar": 638,
      "ĠÃ§ok": 639,
      "ies": 640,
      "len": 641,
      "Ġist": 642,
      "Ġpr": 643,
      "ecek": 644,
      "aÃ§": 645,
      "tir": 646,
      "rit": 647,
      "Ġdur": 648,
      "Ġolarak": 649,
      "Ġinc": 650,
      "let": 651,
      "ous": 652,
      "eÃ§": 653,
      "ada": 654,
      "lem": 655,
      "oy": 656,
      "pt": 657,
      "Ġhav": 658,
      "ew": 659,
      "ade": 660,
      "Ġkal": 661,
      "og": 662,
      "Ġkul": 663,
      "Ġbelir": 664,
      "ally": 665,
      "mak": 666,
      "ugh": 667,
      "tÄ±r": 668,
      "ish": 669,
      "Ġ6": 670,
      "ĠgÃ¼n": 671,
      "eki": 672,
      "ĠU": 673,
      "ili": 674,
      "land": 675,
      "ight": 676,
      "ary": 677,
      "aki": 678,
      "Ġkad": 679,
      "ack": 680,
      "ĠsÃ¼r": 681,
      "ĠÃ¶z": 682,
      "Ġak": 683,
      "ord": 684,
      "Ġj": 685,
      "ĠK": 686,
      "Ã¶r": 687,
      "ĠÂĶ": 688,
      "Ä±lÄ±": 689,
      "Ġte": 690,
      "ĠÂĵ": 691,
      "ile": 692,
      "ĠyaÅŁ": 693,
      "ell": 694,
      "ÄŁÄ±nÄ±": 695,
      "Ġdo": 696,
      "Ġkur": 697,
      "ten": 698,
      "Ġkay": 699,
      "ĠyÃ¶n": 700,
      "Ġoy": 701,
      "eden": 702,
      "Ġyer": 703,
      "ĠgeÃ§": 704,
      "pr": 705,
      "ĠÃ§Ä±k": 706,
      "Ġ7": 707,
      "Ġdaha": 708,
      "her": 709,
      "ther": 710,
      "Ġuy": 711,
      "ĠÃ§al": 712,
      "so": 713,
      "Ġolan": 714,
      "lerin": 715,
      "ta": 716,
      "Ġ;": 717,
      "cc": 718,
      "Ġim": 719,
      "ide": 720,
      "gu": 721,
      "oul": 722,
      "Ġkullan": 723,
      "Ġhast": 724,
      "Ġtw": 725,
      "Ġres": 726,
      "mas": 727,
      "Ġbut": 728,
      "alÄ±": 729,
      "Ġtheir": 730,
      "Ġtak": 731,
      "ub": 732,
      "mer": 733,
      "Ġev": 734,
      "yla": 735,
      "Ġyen": 736,
      "Ġyar": 737,
      "Ġhas": 738,
      "akan": 739,
      "ih": 740,
      "ill": 741,
      "ĠÄ±n": 742,
      "Ġcomp": 743,
      "ia": 744,
      "Ġsor": 745,
      "Ġfirst": 746,
      "per": 747,
      "iyle": 748,
      "ĠyÃ¼z": 749,
      "fter": 750,
      "ĠCh": 751,
      "Ġvar": 752,
      "Ġits": 753,
      "ĠbÃ¼y": 754,
      "Ġ8": 755,
      "ĠSt": 756,
      "ions": 757,
      "Ġus": 758,
      "ever": 759,
      "ĠÃ§alÄ±ÅŁ": 760,
      "Ġer": 761,
      "Ġhal": 762,
      "acak": 763,
      "ould": 764,
      "ound": 765,
      "ork": 766,
      "Ġ18": 767,
      "larÄ±nÄ±": 768,
      "ment": 769,
      "cÄ±": 770,
      "tur": 771,
      "ĠsÃ¶y": 772,
      "ildi": 773,
      "ind": 774,
      "Ġtop": 775,
      "ĠâĢĵ": 776,
      "hed": 777,
      "Ġsay": 778,
      "ical": 779,
      "hen": 780,
      "ang": 781,
      "ri": 782,
      "Ġalso": 783,
      "Ġ:": 784,
      "Ä±lan": 785,
      "Ä±yor": 786,
      "ime": 787,
      "ken": 788,
      "ĠÃ¼z": 789,
      "Ġek": 790,
      "ass": 791,
      "own": 792,
      "Ġint": 793,
      "Ġtek": 794,
      "ĠsaÄŁ": 795,
      "ĠaÃ§Ä±k": 796,
      "isi": 797,
      "Ġart": 798,
      "ome": 799,
      "tern": 800,
      "adÄ±": 801,
      "lat": 802,
      "up": 803,
      "Ġik": 804,
      "ele": 805,
      "dÄ±r": 806,
      "ibi": 807,
      "Ġgerek": 808,
      "ld": 809,
      "Ġfilm": 810,
      "ilen": 811,
      "Ġise": 812,
      "ff": 813,
      "orm": 814,
      "me": 815,
      "ign": 816,
      "Ġ9": 817,
      "ci": 818,
      "ĠgÃ¶re": 819,
      "Ġhave": 820,
      "Ġbulun": 821,
      "Ġser": 822,
      "unda": 823,
      "Ġden": 824,
      "Ġapp": 825,
      "amp": 826,
      "ĠbaÅŁk": 827,
      "ley": 828,
      "Ġone": 829,
      "asÄ±nda": 830,
      "Ġrec": 831,
      "ater": 832,
      "ĠkarÅŁ": 833,
      "unun": 834,
      "ust": 835,
      "lÃ¼": 836,
      "ond": 837,
      "Ġif": 838,
      "ledi": 839,
      "ĠdÃ¼n": 840,
      "leÅŁ": 841,
      "low": 842,
      "Ġper": 843,
      "Ġpart": 844,
      "ĠV": 845,
      "Ġman": 846,
      "Ã¶z": 847,
      "Ġbeen": 848,
      "ue": 849,
      "Ġtwo": 850,
      "ren": 851,
      "ladÄ±": 852,
      "ĠolduÄŁunu": 853,
      "Ġ10": 854,
      ".@": 855,
      "Ġ@.@": 856,
      "ure": 857,
      "ĠbÃ¼yÃ¼k": 858,
      "Ġcont": 859,
      "ilir": 860,
      "ely": 861,
      "imiz": 862,
      "iyet": 863,
      "Ġwho": 864,
      "eÅŁ": 865,
      "ĠThe": 866,
      "Ġpar": 867,
      "ted": 868,
      "Ġdedi": 869,
      "Ġbec": 870,
      "Ġdis": 871,
      "gan": 872,
      "Ġplay": 873,
      "ob": 874,
      "cu": 875,
      "Ġolm": 876,
      "Ġins": 877,
      "Ġthis": 878,
      "ding": 879,
      "Ġbas": 880,
      "fer": 881,
      "ite": 882,
      "Ä±mÄ±z": 883,
      "age": 884,
      "ence": 885,
      "Ġort": 886,
      "ĠkonuÅŁ": 887,
      "Ġyak": 888,
      "Ã¼t": 889,
      "ian": 890,
      "Ġbin": 891,
      "ĠÃ¼": 892,
      "ĠdÃ¶n": 893,
      "ents": 894,
      "ition": 895,
      "Ġilg": 896,
      "ĠdoÄŁ": 897,
      "ĠdÃ¼ÅŁ": 898,
      "Ġag": 899,
      "Ġbo": 900,
      "ĠÃ¼l": 901,
      "Ġthey": 902,
      "Ġilk": 903,
      "cr": 904,
      "ĠÃ¶nem": 905,
      "eli": 906,
      "mek": 907,
      "ach": 908,
      "lerini": 909,
      "Ġdes": 910,
      "ram": 911,
      "Ġyear": 912,
      "Ġam": 913,
      "Ġgibi": 914,
      "ep": 915,
      "Ġbiz": 916,
      "Ä±ldÄ±": 917,
      "ĠnÄ±n": 918,
      "Ġetti": 919,
      "ank": 920,
      "urn": 921,
      "Ġget": 922,
      "ial": 923,
      "Ġkat": 924,
      "Ġsah": 925,
      "ĠgÃ¼": 926,
      "ory": 927,
      "ern": 928,
      "lab": 929,
      "arÄ±": 930,
      "eye": 931,
      "Ġafter": 932,
      "Ä±sÄ±": 933,
      "ĠyÃ¼zde": 934,
      "daki": 935,
      "ations": 936,
      "lara": 937,
      "Ġes": 938,
      "Ġsa": 939,
      "inden": 940,
      "ice": 941,
      "ayÄ±": 942,
      "ĠÃ¶zel": 943,
      "tu": 944,
      "etim": 945,
      "cak": 946,
      "ric": 947,
      "Ġ/": 948,
      ",@": 949,
      "Ġ@,@": 950,
      "sel": 951,
      "men": 952,
      "Ġcan": 953,
      "Ġmu": 954,
      "ĠkiÅŁ": 955,
      "ster": 956,
      "Ġuz": 957,
      "Ġkadar": 958,
      "Th": 959,
      "ts": 960,
      "Ġover": 961,
      "Ġem": 962,
      "Ġinclu": 963,
      "ree": 964,
      "Ġyeni": 965,
      "Ġout": 966,
      "Ġtaraf": 967,
      "Ġav": 968,
      "He": 969,
      "ĠdÃ¼z": 970,
      "baÅŁ": 971,
      "ĠÃ¼zer": 972,
      "ede": 973,
      "sa": 974,
      "malar": 975,
      "wn": 976,
      "uy": 977,
      "ĠbÃ¶": 978,
      "ĠIn": 979,
      "Ġter": 980,
      "Ġsur": 981,
      "bakan": 982,
      "lacak": 983,
      "met": 984,
      "ca": 985,
      "ĠÃ¼lk": 986,
      "ember": 987,
      "Ġkap": 988,
      "aman": 989,
      "ance": 990,
      "Ġneden": 991,
      "ood": 992,
      "dir": 993,
      "ry": 994,
      "Ġup": 995,
      "Ġfin": 996,
      "mÄ±ÅŁ": 997,
      "Ġother": 998,
      "iyi": 999,
      "Ġinto": 1000,
      "ough": 1001,
      "Ġtime": 1002,
      "ces": 1003,
      "tan": 1004,
      "Ġsc": 1005,
      "Ġgetir": 1006,
      "port": 1007,
      "Ġhak": 1008,
      "Ġben": 1009,
      "Ġyan": 1010,
      "Ġhay": 1011,
      "Ġoff": 1012,
      "ĠkarÅŁÄ±": 1013,
      "ĠÃ¼r": 1014,
      "one": 1015,
      "erek": 1016,
      "eh": 1017,
      "aj": 1018,
      "Ġdi": 1019,
      "we": 1020,
      "Ġmilyon": 1021,
      "Ġdr": 1022,
      "Ġshe": 1023,
      "ason": 1024,
      "ĠmÃ¼": 1025,
      "Ġ00": 1026,
      "ced": 1027,
      "les": 1028,
      "Ġ0": 1029,
      "Ġwould": 1030,
      "larÄ±nÄ±n": 1031,
      "Ġmore": 1032,
      "Ġsat": 1033,
      "lÄ±ÄŁÄ±": 1034,
      "ited": 1035,
      "ĠsÃ¶yledi": 1036,
      "ud": 1037,
      "una": 1038,
      "ors": 1039,
      "ward": 1040,
      "Ġla": 1041,
      "Ġ12": 1042,
      "larda": 1043,
      "Ġalan": 1044,
      "Ġhim": 1045,
      "elik": 1046,
      "arak": 1047,
      "Ġsonra": 1048,
      "It": 1049,
      "ĠyaptÄ±": 1050,
      "Ġpo": 1051,
      "ĠÃ§ek": 1052,
      "Ġbilg": 1053,
      "acaÄŁ": 1054,
      "Ã§ek": 1055,
      "alÄ±k": 1056,
      "Ġgir": 1057,
      "Ġcent": 1058,
      "Ġtem": 1059,
      "ose": 1060,
      "Ġsan": 1061,
      "ĠÅŁek": 1062,
      "Ġatt": 1063,
      "anÄ±n": 1064,
      "ket": 1065,
      "Ġnew": 1066,
      "ĠY": 1067,
      "ef": 1068,
      "Ġpol": 1069,
      "ded": 1070,
      "Ġco": 1071,
      "act": 1072,
      "igh": 1073,
      "Ġall": 1074,
      "ĠbÃ¶l": 1075,
      "ĠyÃ¼k": 1076,
      "ivers": 1077,
      "Ġalt": 1078,
      "Ġcl": 1079,
      "bul": 1080,
      "ĠbaÄŁ": 1081,
      "raf": 1082,
      "ix": 1083,
      "Ġwork": 1084,
      "miÅŁ": 1085,
      "Ġya": 1086,
      "ĠUn": 1087,
      "Ġbet": 1088,
      "ction": 1089,
      "ĠÃ¶nemli": 1090,
      "Ġgenel": 1091,
      "ered": 1092,
      "Ġmer": 1093,
      "Ġ199": 1094,
      "ens": 1095,
      "Ġwe": 1096,
      "Ã¶yle": 1097,
      "Ġilgili": 1098,
      "ne": 1099,
      "ĠÃ¼n": 1100,
      "Ġ15": 1101,
      "Ġzaman": 1102,
      "mes": 1103,
      "Ġmet": 1104,
      "als": 1105,
      "ons": 1106,
      "Ġsec": 1107,
      "iss": 1108,
      "ock": 1109,
      "Ġrem": 1110,
      "Ġwhen": 1111,
      "ates": 1112,
      "Ġdest": 1113,
      "Ġfe": 1114,
      "ki": 1115,
      "Ġyet": 1116,
      "asyon": 1117,
      "Ġoyun": 1118,
      "kin": 1119,
      "Ġsong": 1120,
      "ĠgÃ¶ster": 1121,
      "duÄŁ": 1122,
      "gÃ¼n": 1123,
      "ĠgerÃ§ek": 1124,
      "ubl": 1125,
      "Ġear": 1126,
      "Ġsav": 1127,
      "Ġnum": 1128,
      "ath": 1129,
      "bir": 1130,
      "dÄ±m": 1131,
      "able": 1132,
      "Ġbur": 1133,
      "Ġsev": 1134,
      "mesi": 1135,
      "ĠsÄ±r": 1136,
      "rol": 1137,
      "Ġbelirt": 1138,
      "Ġplan": 1139,
      "Ġexp": 1140,
      "Ġmost": 1141,
      "iyat": 1142,
      "Ġso": 1143,
      "Ġdem": 1144,
      "oÄŁlu": 1145,
      "Ġkn": 1146,
      "Ġiz": 1147,
      "Ġduring": 1148,
      "ĠmaÃ§": 1149,
      "Ġama": 1150,
      "endir": 1151,
      "uyor": 1152,
      "Ġthro": 1153,
      "Ġyaz": 1154,
      "Ġonly": 1155,
      "Ġdurum": 1156,
      "ail": 1157,
      "Ġid": 1158,
      "ĠaÄŁ": 1159,
      "Ġgame": 1160,
      "Ã¼nÃ¼": 1161,
      "ss": 1162,
      "Ġcons": 1163,
      "Ġ11": 1164,
      "Ġyol": 1165,
      "oth": 1166,
      "ĠsÃ¶z": 1167,
      "ĠdÃ¼zen": 1168,
      "Ġdir": 1169,
      "are": 1170,
      "anbul": 1171,
      "ron": 1172,
      "ran": 1173,
      "aus": 1174,
      "ara": 1175,
      "Ġsal": 1176,
      "att": 1177,
      "Ġday": 1178,
      "Ġkaz": 1179,
      "Ġaz": 1180,
      "rup": 1181,
      "Ġpre": 1182,
      "aret": 1183,
      "Ġdevam": 1184,
      "Ġsin": 1185,
      "Ġac": 1186,
      "orth": 1187,
      "ollow": 1188,
      "ween": 1189,
      "Ġkend": 1190,
      "ings": 1191,
      "Ġgro": 1192,
      "reat": 1193,
      "Ġdef": 1194,
      "Ġhar": 1195,
      "por": 1196,
      "Ġ16": 1197,
      "way": 1198,
      "Ġme": 1199,
      "Ġmak": 1200,
      "Ġdiye": 1201,
      "Ġalb": 1202,
      "ĠdÃ¼ny": 1203,
      "dÃ¼": 1204,
      "res": 1205,
      "Ġdec": 1206,
      "ult": 1207,
      "ĠÃ§oc": 1208,
      "outh": 1209,
      "ĠtarafÄ±ndan": 1210,
      "Ġcol": 1211,
      "und": 1212,
      "Ġabout": 1213,
      "diÄŁi": 1214,
      "hn": 1215,
      "Ġifade": 1216,
      "led": 1217,
      "Ġagain": 1218,
      "red": 1219,
      "ĠdÄ±ÅŁ": 1220,
      "Ġiyi": 1221,
      "Ġeden": 1222,
      "ĠdeÄŁil": 1223,
      "ĠAn": 1224,
      "Ġthree": 1225,
      "ters": 1226,
      "ÄŁer": 1227,
      "ĠolduÄŁu": 1228,
      "baÅŁk": 1229,
      "ĠgeliÅŁ": 1230,
      "Ġseason": 1231,
      "ale": 1232,
      "Ġform": 1233,
      "Ġinsan": 1234,
      "Ġbetween": 1235,
      "Ġchar": 1236,
      "istem": 1237,
      "Ġthan": 1238,
      "iliyor": 1239,
      "Ġthem": 1240,
      "Ġistanbul": 1241,
      "Ġdik": 1242,
      "ĠgÃ¶z": 1243,
      "ious": 1244,
      "eleri": 1245,
      "ational": 1246,
      "ph": 1247,
      "dÃ¼r": 1248,
      "usu": 1249,
      "ĠoluÅŁ": 1250,
      "ĠEn": 1251,
      "iÃ§": 1252,
      "uc": 1253,
      "ision": 1254,
      "Ġunder": 1255,
      "maya": 1256,
      "any": 1257,
      "Ġro": 1258,
      "ames": 1259,
      "ĠAr": 1260,
      "Ġrecord": 1261,
      "Ġye": 1262,
      "Ġkan": 1263,
      "Ġancak": 1264,
      "enin": 1265,
      "Ġthrough": 1266,
      "ĠyapÄ±lan": 1267,
      "esinde": 1268,
      "Ġgr": 1269,
      "ileri": 1270,
      "olo": 1271,
      "Ġdan": 1272,
      "ama": 1273,
      "Ġlater": 1274,
      "int": 1275,
      "Ä±ndaki": 1276,
      "Ġpos": 1277,
      "ĠdÃ¶nem": 1278,
      "hip": 1279,
      "Ġperf": 1280,
      "Ġlar": 1281,
      "ick": 1282,
      "ĠaÃ§Ä±klam": 1283,
      "Ġayr": 1284,
      "eyi": 1285,
      "Ġsistem": 1286,
      "Ã¼s": 1287,
      "adan": 1288,
      "iew": 1289,
      "ase": 1290,
      "ĠÃ¶ÄŁ": 1291,
      "Ġwhile": 1292,
      "Ġact": 1293,
      "doÄŁ": 1294,
      "Ġprodu": 1295,
      "tar": 1296,
      "Ġwrit": 1297,
      "Ġgo": 1298,
      "Ġ2012": 1299,
      "ulu": 1300,
      "Ġstr": 1301,
      "Ġder": 1302,
      "ĠdeÄŁer": 1303,
      "Ġseri": 1304,
      "Ġcomm": 1305,
      "ĠalÄ±n": 1306,
      "ven": 1307,
      "Ġmus": 1308,
      "ount": 1309,
      "Ġyay": 1310,
      "ished": 1311,
      "ĠMar": 1312,
      "Ġiki": 1313,
      "Ġmade": 1314,
      "ĠaÅŁ": 1315,
      "Ġgaz": 1316,
      "ily": 1317,
      "ilecek": 1318,
      "ĠAl": 1319,
      "Ġbek": 1320,
      "ected": 1321,
      "Ġrele": 1322,
      "Ġtam": 1323,
      "Ġ17": 1324,
      "ou": 1325,
      "Ġpe": 1326,
      "orn": 1327,
      "orld": 1328,
      "Ġbak": 1329,
      "atÄ±r": 1330,
      "ustr": 1331,
      "Ġwhere": 1332,
      "ĠkonuÅŁtu": 1333,
      "ayan": 1334,
      "ĠtÃ¼m": 1335,
      "Ġret": 1336,
      "Ġ000": 1337,
      "meric": 1338,
      "lerinin": 1339,
      "Ġhaz": 1340,
      "etti": 1341,
      "Ġdikk": 1342,
      "fore": 1343,
      "Ġmov": 1344,
      "Ġted": 1345,
      "dÄ±ÄŁÄ±": 1346,
      "Ġob": 1347,
      "Ġqu": 1348,
      "Ġproj": 1349,
      "Ġspec": 1350,
      "Ġtekn": 1351,
      "yar": 1352,
      "Ġrel": 1353,
      "ĠÃ¶nce": 1354,
      "Ġkas": 1355,
      "Ġinter": 1356,
      "ict": 1357,
      "Ġfark": 1358,
      "dem": 1359,
      "Ġacc": 1360,
      "ury": 1361,
      "lere": 1362,
      "Ġabd": 1363,
      "tÃ¼": 1364,
      "ace": 1365,
      "layan": 1366,
      "Ġintern": 1367,
      "azÄ±": 1368,
      "ĠAmeric": 1369,
      "Ġset": 1370,
      "leÅŁtir": 1371,
      "Ġsome": 1372,
      "Ġlik": 1373,
      "Ġsub": 1374,
      "ased": 1375,
      "On": 1376,
      "Ġoper": 1377,
      "Ġfollow": 1378,
      "olog": 1379,
      "ĠbaÅŁbakan": 1380,
      "ĠarasÄ±nda": 1381,
      "old": 1382,
      "lendir": 1383,
      "Ġmon": 1384,
      "Ġfaz": 1385,
      "liÄŁi": 1386,
      "Ġsuch": 1387,
      "ekt": 1388,
      "Ġsecond": 1389,
      "Ġhaf": 1390,
      "acÄ±": 1391,
      "Ġhayat": 1392,
      "ived": 1393,
      "Ġfour": 1394,
      "iyas": 1395,
      "Ġass": 1396,
      "ĠseÃ§": 1397,
      "oloj": 1398,
      "Ġrev": 1399,
      "Ġused": 1400,
      "deki": 1401,
      "ĠNew": 1402,
      "Ġtut": 1403,
      "Ġtrans": 1404,
      "Ġvur": 1405,
      "ilece": 1406,
      "Ġno": 1407,
      "ied": 1408,
      "Ġyok": 1409,
      "larÄ±na": 1410,
      "Ġdep": 1411,
      "ĠÃ§ocuk": 1412,
      "Ġdikkat": 1413,
      "ĠgÃ¶rÃ¼ÅŁ": 1414,
      "Ġend": 1415,
      "Ġcall": 1416,
      "Ġep": 1417,
      "ĠCom": 1418,
      "lerde": 1419,
      "Ġmar": 1420,
      "Ä±cÄ±": 1421,
      "ular": 1422,
      "Ġ13": 1423,
      "ali": 1424,
      "ild": 1425,
      "Ġpubl": 1426,
      "ins": 1427,
      "Ġok": 1428,
      "ement": 1429,
      "kez": 1430,
      "Ġbro": 1431,
      "iyon": 1432,
      "Ġ14": 1433,
      "Ġent": 1434,
      "ve": 1435,
      "iel": 1436,
      "ved": 1437,
      "ook": 1438,
      "aber": 1439,
      "Ġalbum": 1440,
      "ĠdeÄŁiÅŁ": 1441,
      "ĠtaÅŁ": 1442,
      "pen": 1443,
      "Ġsad": 1444,
      "Ġbefore": 1445,
      "iver": 1446,
      "imi": 1447,
      "Ġko": 1448,
      "hes": 1449,
      "doÄŁan": 1450,
      "lama": 1451,
      "Ġsonu": 1452,
      "ton": 1453,
      "Ġbeing": 1454,
      "Ġetk": 1455,
      "Ġduy": 1456,
      "Ġorgan": 1457,
      "ire": 1458,
      "Ġ25": 1459,
      "Ġinf": 1460,
      "ici": 1461,
      "iniz": 1462,
      "Ġtarih": 1463,
      "Ġthere": 1464,
      "Ġ30": 1465,
      "Ġbun": 1466,
      "Ġsupp": 1467,
      "Ġdam": 1468,
      "Ġprog": 1469,
      "atur": 1470,
      "owever": 1471,
      "Ġmem": 1472,
      "ane": 1473,
      "This": 1474,
      "par": 1475,
      "Ġkarar": 1476,
      "Ġ198": 1477,
      "Ã§e": 1478,
      "Ġbar": 1479,
      "son": 1480,
      "Ġyears": 1481,
      "sek": 1482,
      "Ġhigh": 1483,
      "Ġgal": 1484,
      "Ġsy": 1485,
      "ating": 1486,
      "ĠyapÄ±": 1487,
      "ie": 1488,
      "Ġuygu": 1489,
      "Ġtedav": 1490,
      "ise": 1491,
      "Ġpop": 1492,
      "Ġdiy": 1493,
      "eral": 1494,
      "ilde": 1495,
      "lerine": 1496,
      "tÃ¼r": 1497,
      "ĠiliÅŁ": 1498,
      "Ġhem": 1499,
      "Ġoyn": 1500,
      "Ġmes": 1501,
      "ual": 1502,
      "Ġeng": 1503,
      "Ä±lmasÄ±": 1504,
      "ĠtakÄ±m": 1505,
      "Ġreg": 1506,
      "Ġfazla": 1507,
      "ught": 1508,
      "Ġkonu": 1509,
      "min": 1510,
      "ics": 1511,
      "ĠsaÄŁlÄ±k": 1512,
      "Ġayn": 1513,
      "ĠbÃ¶lg": 1514,
      "ĠmÃ¼z": 1515,
      "aÅŁtÄ±r": 1516,
      "Ġard": 1517,
      "Ġfound": 1518,
      "Ġir": 1519,
      "ret": 1520,
      "Ġnumber": 1521,
      "ĠalÄ±": 1522,
      "ĠyaptÄ±ÄŁÄ±": 1523,
      "Ġseries": 1524,
      "ilerin": 1525,
      "ning": 1526,
      "Ġdav": 1527,
      "ĠbugÃ¼n": 1528,
      "igin": 1529,
      "ĠEng": 1530,
      "Ġanlat": 1531,
      "ĠeÄŁ": 1532,
      "eg": 1533,
      "Ġloc": 1534,
      "ines": 1535,
      "Ġmay": 1536,
      "alan": 1537,
      "alarÄ±": 1538,
      "Ġmod": 1539,
      "other": 1540,
      "sÄ±z": 1541,
      "ife": 1542,
      "elop": 1543,
      "han": 1544,
      "bak": 1545,
      "Ġest": 1546,
      "ĠiÃ§inde": 1547,
      "Ġboth": 1548,
      "Ġzor": 1549,
      "Ġbirlik": 1550,
      "ĠardÄ±ndan": 1551,
      "ĠSe": 1552,
      "ause": 1553,
      "everal": 1554,
      "Ġpres": 1555,
      "Ġcar": 1556,
      "Ġappear": 1557,
      "Ġcap": 1558,
      "Ġtal": 1559,
      "endi": 1560,
      "onom": 1561,
      "Ġmat": 1562,
      "Ġrece": 1563,
      "ĠaraÅŁtÄ±r": 1564,
      "lÄ±ÄŁ": 1565,
      "Ġthen": 1566,
      "bol": 1567,
      "Ġincluding": 1568,
      "Ġsahip": 1569,
      "Ġsadece": 1570,
      "Ġepis": 1571,
      "Ġwell": 1572,
      "Ġmin": 1573,
      "ĠhazÄ±r": 1574,
      "Ġhakk": 1575,
      "Ġul": 1576,
      "iyoruz": 1577,
      "ities": 1578,
      "ĠbaÅŁkan": 1579,
      "ohn": 1580,
      "ode": 1581,
      "Ġkayd": 1582,
      "Ġagainst": 1583,
      "likle": 1584,
      "ific": 1585,
      "ilmesi": 1586,
      "Ġbecame": 1587,
      "Ġtan": 1588,
      "Ġknown": 1589,
      "ised": 1590,
      "Ġsing": 1591,
      "Ġgelen": 1592,
      "Ġ!": 1593,
      "ĠÅŁir": 1594,
      "ĠâĢĶ": 1595,
      "oman": 1596,
      "mam": 1597,
      "Ġprof": 1598,
      "Ġmany": 1599,
      "its": 1600,
      "Ġ100": 1601,
      "ris": 1602,
      "ĠaynÄ±": 1603,
      "Ġnde": 1604,
      "ĠulaÅŁ": 1605,
      "larÄ±nda": 1606,
      "Ġbey": 1607,
      "ave": 1608,
      "Ġcharac": 1609,
      "ĠÅŁirket": 1610,
      "els": 1611,
      "Ġback": 1612,
      "Ġbuil": 1613,
      "ĠBrit": 1614,
      "iden": 1615,
      "Ġmerkez": 1616,
      "Ġmark": 1617,
      "rop": 1618,
      "Ġbakan": 1619,
      "ral": 1620,
      "Ġnun": 1621,
      "Ġinv": 1622,
      "baÅŁkanÄ±": 1623,
      "Ġbunun": 1624,
      "Ġsanat": 1625,
      "ĠsÄ±k": 1626,
      "ĠbazÄ±": 1627,
      "urch": 1628,
      "Ġmain": 1629,
      "ĠgÃ¶rev": 1630,
      "tain": 1631,
      "though": 1632,
      "ĠCar": 1633,
      "Ġlong": 1634,
      "rail": 1635,
      "dÄ±ÄŁÄ±nÄ±": 1636,
      "Ġsen": 1637,
      "lack": 1638,
      "Ã¼yor": 1639,
      "Ã¼nde": 1640,
      "yp": 1641,
      "masÄ±nÄ±": 1642,
      "Ġ197": 1643,
      "Ġtab": 1644,
      "asar": 1645,
      "Ġsm": 1646,
      "Ġtur": 1647,
      "iet": 1648,
      "crib": 1649,
      "ft": 1650,
      "ĠhiÃ§": 1651,
      "ektÃ¶r": 1652,
      "Ġta": 1653,
      "cÃ¼": 1654,
      "hur": 1655,
      "eks": 1656,
      "ĠbÃ¼t": 1657,
      "ize": 1658,
      "ilik": 1659,
      "Ġinternet": 1660,
      "ool": 1661,
      "Ġ194": 1662,
      "aÄŁÄ±": 1663,
      "Ġ196": 1664,
      "ĠUnited": 1665,
      "Ġshow": 1666,
      "Ġteam": 1667,
      "ĠkÃ¶": 1668,
      "Ġkurul": 1669,
      "Ġkazan": 1670,
      "Ġprogram": 1671,
      "Ġcre": 1672,
      "ĠÅŁekilde": 1673,
      "lenen": 1674,
      "til": 1675,
      "ĠdiÄŁer": 1676,
      "Ġortaya": 1677,
      "Ġih": 1678,
      "tal": 1679,
      "kan": 1680,
      "Ġmill": 1681,
      "Ġ2013": 1682,
      "Ġey": 1683,
      "ather": 1684,
      "rupa": 1685,
      "Ġcentury": 1686,
      "istan": 1687,
      "usunda": 1688,
      "udi": 1689,
      "ober": 1690,
      "ower": 1691,
      "Ġverdi": 1692,
      "ined": 1693,
      "Ġkam": 1694,
      "Ġbr": 1695,
      "ĠyÃ¼ksek": 1696,
      "Ġkit": 1697,
      "Ġrep": 1698,
      "indeki": 1699,
      "Ġkom": 1700,
      "Ġdevelop": 1701,
      "tÄ±k": 1702,
      "ection": 1703,
      "Ġtel": 1704,
      "Ġmal": 1705,
      "ĠÃ¶l": 1706,
      "Ġorigin": 1707,
      "ĠBr": 1708,
      "adÄ±ÄŁÄ±nÄ±": 1709,
      "Ġlir": 1710,
      "ĠgÃ¼ven": 1711,
      "Ġyas": 1712,
      "liÄŁ": 1713,
      "ĠÅŁÃ¶yle": 1714,
      "ĠgÃ¼Ã§": 1715,
      "ĠgeÃ§en": 1716,
      "Ġspor": 1717,
      "Ġseveral": 1718,
      "ider": 1719,
      "Ġstar": 1720,
      "Ġdevlet": 1721,
      "Ġlead": 1722,
      "Ġask": 1723,
      "dÄ±k": 1724,
      "Ġmillet": 1725,
      "ĠkÄ±s": 1726,
      "Ä±p": 1727,
      "overn": 1728,
      "maz": 1729,
      "Ġolab": 1730,
      "ĠbaÅŁkanÄ±": 1731,
      "Ġbegan": 1732,
      "Ġdif": 1733,
      "Ġnear": 1734,
      "Ġpat": 1735,
      "Ġcontin": 1736,
      "Ġair": 1737,
      "Ġuyg": 1738,
      "ĠÃ¼st": 1739,
      "air": 1740,
      "su": 1741,
      "be": 1742,
      "Ġkab": 1743,
      "urt": 1744,
      "Ġsign": 1745,
      "ĠyÃ¶net": 1746,
      "Ġinst": 1747,
      "Ġtoplan": 1748,
      "itt": 1749,
      "Ġsaat": 1750,
      "After": 1751,
      "inci": 1752,
      "Ġmilyar": 1753,
      "ĠÃ¶r": 1754,
      "lardan": 1755,
      "may": 1756,
      "Ġremain": 1757,
      "Ġkr": 1758,
      "io": 1759,
      "Ġdid": 1760,
      "une": 1761,
      "Ġsim": 1762,
      "Ġprov": 1763,
      "ser": 1764,
      "ĠiÃ§er": 1765,
      "Ġann": 1766,
      "ĠhÃ¼k": 1767,
      "orman": 1768,
      "esini": 1769,
      "Ġboy": 1770,
      "anda": 1771,
      "ĠkasÄ±m": 1772,
      "eyen": 1773,
      "Ġbildir": 1774,
      "luk": 1775,
      "Ġbirlikte": 1776,
      "ĠLe": 1777,
      "Ġship": 1778,
      "Ġwar": 1779,
      "ÄŁÃ¼": 1780,
      "ĠyÃ¶netim": 1781,
      "Ġdestek": 1782,
      "Ġkil": 1783,
      "ĠyanÄ±": 1784,
      "Ġcould": 1785,
      "Ġolacak": 1786,
      "Ġpay": 1787,
      "Ġcalled": 1788,
      "larla": 1789,
      "eng": 1790,
      "ĠayrÄ±": 1791,
      "Ġepisode": 1792,
      "Ġcrit": 1793,
      "Ġkes": 1794,
      "Ġearly": 1795,
      "Ġhalk": 1796,
      "okt": 1797,
      "Ġveya": 1798,
      "ĠkadÄ±n": 1799,
      "erson": 1800,
      "ield": 1801,
      "Ġdescrib": 1802,
      "ĠÃ§Ä±kar": 1803,
      "ĠÅŁu": 1804,
      "Ġsit": 1805,
      "Ġcum": 1806,
      "dÃ¼l": 1807,
      "cad": 1808,
      "inc": 1809,
      "ĠdeÄŁerlendir": 1810,
      "ehir": 1811,
      "Ġtamam": 1812,
      "ative": 1813,
      "Ġdown": 1814,
      "ople": 1815,
      "ĠyaklaÅŁ": 1816,
      "Ġkim": 1817,
      "Ġalong": 1818,
      "ĠÃ§alÄ±ÅŁmalar": 1819,
      "Ġsaid": 1820,
      "Ġkayb": 1821,
      "ĠTh": 1822,
      "ps": 1823,
      "Ġavrupa": 1824,
      "As": 1825,
      "Ġsun": 1826,
      "ope": 1827,
      "Ġfl": 1828,
      "Ġrun": 1829,
      "Ġulus": 1830,
      "Ġ2011": 1831,
      "ession": 1832,
      "ĠÅŁey": 1833,
      "Ġcoun": 1834,
      "hel": 1835,
      "Ġind": 1836,
      "kur": 1837,
      "Ġhiz": 1838,
      "duÄŁu": 1839,
      "Ġstart": 1840,
      "Ġlist": 1841,
      "ĠfarklÄ±": 1842,
      "Ġkm": 1843,
      "Ġconc": 1844,
      "Ġkor": 1845,
      "ĠÃ¼y": 1846,
      "ually": 1847,
      "Al": 1848,
      "Ġthese": 1849,
      "Ġediyor": 1850,
      "ird": 1851,
      "Ġ%": 1852,
      "ann": 1853,
      "ĠJohn": 1854,
      "ĠÃ¼Ã§": 1855,
      "isinde": 1856,
      "elerin": 1857,
      "ĠyÄ±lÄ±nda": 1858,
      "eme": 1859,
      "Ġolmak": 1860,
      "ĠAmerican": 1861,
      "Ġisrail": 1862,
      "Ġcity": 1863,
      "Ġkendi": 1864,
      "Ġpolit": 1865,
      "ross": 1866,
      "Ġcih": 1867,
      "tiÄŁini": 1868,
      "lanan": 1869,
      "Ġhat": 1870,
      "ĠhÃ¼kÃ¼m": 1871,
      "gest": 1872,
      "lerinde": 1873,
      "ĠbÃ¶yle": 1874,
      "esinin": 1875,
      "ink": 1876,
      "esine": 1877,
      "itim": 1878,
      "ulan": 1879,
      "Ġtes": 1880,
      "Ġris": 1881,
      "Ġref": 1882,
      "Ġuntil": 1883,
      "ina": 1884,
      "ĠÃ¶ÄŁren": 1885,
      "ital": 1886,
      "ove": 1887,
      "ĠdÃ¼nya": 1888,
      "Ġhaber": 1889,
      "Ġiddi": 1890,
      "Ġkez": 1891,
      "ccess": 1892,
      "Ġark": 1893,
      "Ġmuh": 1894,
      "med": 1895,
      "Ġhist": 1896,
      "uv": 1897,
      "Ġprev": 1898,
      "Ġserv": 1899,
      "def": 1900,
      "ĠdoÄŁru": 1901,
      "sun": 1902,
      "Ġsame": 1903,
      "Ġbelirten": 1904,
      "oot": 1905,
      "ĠsatÄ±ÅŁ": 1906,
      "Ġsil": 1907,
      "Ġdist": 1908,
      "br": 1909,
      "adÄ±ÄŁÄ±": 1910,
      "ĠÃ¼zerine": 1911,
      "ĠkÄ±r": 1912,
      "Ġ50": 1913,
      "ĠyatÄ±r": 1914,
      "fon": 1915,
      "bakanÄ±": 1916,
      "ided": 1917,
      "ÄŁimiz": 1918,
      "ized": 1919,
      "Ġreleased": 1920,
      "Ġdisc": 1921,
      "Ġgeldi": 1922,
      "Ġbulunan": 1923,
      "Ġ21": 1924,
      "Ġresp": 1925,
      "Ġland": 1926,
      "Ġown": 1927,
      "erman": 1928,
      "ĠbaÅŁar": 1929,
      "Ġhizmet": 1930,
      "Ġfut": 1931,
      "Ġprot": 1932,
      "Ġ195": 1933,
      "Ġreturn": 1934,
      "my": 1935,
      "Ġfac": 1936,
      "ful": 1937,
      "Ġsch": 1938,
      "iversit": 1939,
      "ana": 1940,
      "Ġsol": 1941,
      "Ġsuriye": 1942,
      "ĠBritish": 1943,
      "ĠWar": 1944,
      "Ġred": 1945,
      "Ġhedef": 1946,
      "Ġcer": 1947,
      "idir": 1948,
      "Ġdesign": 1949,
      "Ġopen": 1950,
      "tÄ±ÄŁÄ±": 1951,
      "Ġmillion": 1952,
      "Ġpass": 1953,
      "masÄ±na": 1954,
      "Ġfam": 1955,
      "enn": 1956,
      "Ġnedeniyle": 1957,
      "Ġdolar": 1958,
      "Ġot": 1959,
      "ets": 1960,
      "ĠeÅŁ": 1961,
      "Ġarea": 1962,
      "Ġ24": 1963,
      "ony": 1964,
      "ĠgerÃ§ekleÅŁtir": 1965,
      "ruct": 1966,
      "Ġbecause": 1967,
      "ince": 1968,
      "Ġiht": 1969,
      "tif": 1970,
      "ĠÃ¶nc": 1971,
      "Ġ2010": 1972,
      "Ä±mÄ±": 1973,
      "Ġfinal": 1974,
      "Ġph": 1975,
      "ĠhastalÄ±k": 1976,
      "Ġchp": 1977,
      "over": 1978,
      "Ġdin": 1979,
      "ete": 1980,
      "Ġtele": 1981,
      "Ġlike": 1982,
      "Ġdet": 1983,
      "manÄ±n": 1984,
      "ĠMay": 1985,
      "ĠIs": 1986,
      "amed": 1987,
      "Ġmut": 1988,
      "Ġnda": 1989,
      "osed": 1990,
      "ĠdÃ¼ÅŁÃ¼n": 1991,
      "ĠÃ¶dÃ¼l": 1992,
      "Ġfr": 1993,
      "ika": 1994,
      "Ġmah": 1995,
      "Ġocc": 1996,
      "uring": 1997,
      "eti": 1998,
      "Ġfa": 1999,
      "Ġolay": 2000,
      "ĠyÃ¼r": 2001,
      "Ġvurgu": 2002,
      "ugust": 2003,
      "Ġconst": 2004,
      "Ġpeople": 2005,
      "Ġekonom": 2006,
      "ty": 2007,
      "mayÄ±": 2008,
      "stem": 2009,
      "Ã¼ne": 2010,
      "ange": 2011,
      "ajor": 2012,
      "Ġbat": 2013,
      "osy": 2014,
      "ĠÃ¼zerinde": 2015,
      "Ġadv": 2016,
      "ently": 2017,
      "Ġany": 2018,
      "Ġport": 2019,
      "iklerini": 2020,
      "isyon": 2021,
      "Ġsel": 2022,
      "Ġbelirtti": 2023,
      "cept": 2024,
      "Ġgroup": 2025,
      "Ġrah": 2026,
      "Ġmen": 2027,
      "Ġsiyas": 2028,
      "Ġki": 2029,
      "ĠAustr": 2030,
      "Ġimp": 2031,
      "iÅŁim": 2032,
      "eci": 2033,
      "medi": 2034,
      "ĠgÃ¶rÃ¼l": 2035,
      "ĠbÄ±r": 2036,
      "ĠgenÃ§": 2037,
      "Ġdile": 2038,
      "They": 2039,
      "ible": 2040,
      "Ġmad": 2041,
      "ady": 2042,
      "Ġsorun": 2043,
      "Ġsupport": 2044,
      "gen": 2045,
      "Ġwin": 2046,
      "Ġsix": 2047,
      "Ġkonusunda": 2048,
      "ress": 2049,
      "Ġeff": 2050,
      "vek": 2051,
      "ĠAugust": 2052,
      "Ġaround": 2053,
      "Ġmusic": 2054,
      "ĠZ": 2055,
      "asÄ±nÄ±n": 2056,
      "Ġturn": 2057,
      "Ġperforman": 2058,
      "Ġbunu": 2059,
      "Ġvide": 2060,
      "idd": 2061,
      "liam": 2062,
      "iev": 2063,
      "meye": 2064,
      "Ġnorth": 2065,
      "Ġ193": 2066,
      "uth": 2067,
      "Ġ22": 2068,
      "Ġsuccess": 2069,
      "At": 2070,
      "ĠyardÄ±m": 2071,
      "ole": 2072,
      "Ġvat": 2073,
      "bu": 2074,
      "Ġrus": 2075,
      "lish": 2076,
      "Ġkaydetti": 2077,
      "ĠSept": 2078,
      "Ġuse": 2079,
      "dur": 2080,
      "asÄ±nÄ±": 2081,
      "Ġeach": 2082,
      "kÃ¼": 2083,
      "Ġ191": 2084,
      "Ġtit": 2085,
      "mi": 2086,
      "ĠJul": 2087,
      "lace": 2088,
      "Ä±y": 2089,
      "Ġcomplet": 2090,
      "ĠÃ¼rÃ¼n": 2091,
      "ĠÃ¶zellikle": 2092,
      "Ġfollowing": 2093,
      "ĠSeptember": 2094,
      "ebilir": 2095,
      "ĠSh": 2096,
      "ĠyakÄ±n": 2097,
      "ĠyayÄ±n": 2098,
      "ĠolmasÄ±": 2099,
      "ĠgÃ¶n": 2100,
      "asÄ±na": 2101,
      "xt": 2102,
      "Ġgu": 2103,
      "Ġtelefon": 2104,
      "leyen": 2105,
      "Ġcharacter": 2106,
      "imes": 2107,
      "kes": 2108,
      "aw": 2109,
      "ĠbaÅŁladÄ±": 2110,
      "oss": 2111,
      "Ġprob": 2112,
      "Ġuygulam": 2113,
      "lub": 2114,
      "Ġhead": 2115,
      "Ġrest": 2116,
      "Ġgovern": 2117,
      "Ġmas": 2118,
      "However": 2119,
      "lum": 2120,
      "ake": 2121,
      "ident": 2122,
      "She": 2123,
      "lo": 2124,
      "ĠbÄ±rak": 2125,
      "ĠaÃ§Ä±klamada": 2126,
      "Ġuzun": 2127,
      "Ġfive": 2128,
      "bo": 2129,
      "Ġteknoloj": 2130,
      "Ġever": 2131,
      "Ġwill": 2132,
      "Ġ28": 2133,
      "Ġcontinu": 2134,
      "Ġ2009": 2135,
      "Ġattack": 2136,
      "larÄ±mÄ±z": 2137,
      "dition": 2138,
      "ĠÃ§Ã¶z": 2139,
      "Ġsonr": 2140,
      "eal": 2141,
      "Ġcumhur": 2142,
      "ari": 2143,
      "gin": 2144,
      "wards": 2145,
      "ĠoluÅŁtur": 2146,
      "Ġham": 2147,
      "Ġlarge": 2148,
      "ival": 2149,
      "ĠyatÄ±rÄ±m": 2150,
      "ĠtÃ¼k": 2151,
      "Ġcez": 2152,
      "terek": 2153,
      "An": 2154,
      "ended": 2155,
      "ĠGerman": 2156,
      "aph": 2157,
      "Ġank": 2158,
      "ording": 2159,
      "ĠsaldÄ±r": 2160,
      "eceÄŁ": 2161,
      "elt": 2162,
      "Ġten": 2163,
      "Ġ23": 2164,
      "ĠÂĳ": 2165,
      "Ġsavun": 2166,
      "Ġwhat": 2167,
      "ĠsonuÃ§": 2168,
      "masÄ±nÄ±n": 2169,
      "Ġreport": 2170,
      "Ġyapan": 2171,
      "Ġkaps": 2172,
      "kÄ±": 2173,
      "Ġbook": 2174,
      "arasÄ±": 2175,
      "ĠmÃ¼cad": 2176,
      "ĠÃ§ev": 2177,
      "Ġlast": 2178,
      "Ġstand": 2179,
      "ĠtoplantÄ±": 2180,
      "Ġrap": 2181,
      "Ġvers": 2182,
      "Ã¼p": 2183,
      "Ä±t": 2184,
      "Ġbizim": 2185,
      "ute": 2186,
      "lerle": 2187,
      "ired": 2188,
      "bers": 2189,
      "larÄ±ndan": 2190,
      "gil": 2191,
      "Ġgre": 2192,
      "ĠCan": 2193,
      "erdoÄŁan": 2194,
      "Ġ2008": 2195,
      "isini": 2196,
      "ists": 2197,
      "ĠII": 2198,
      "ĠJune": 2199,
      "ĠiliÅŁkin": 2200,
      "ĠWorld": 2201,
      "Ġbelirterek": 2202,
      "illa": 2203,
      "ague": 2204,
      "ĠbÃ¼tÃ¼n": 2205,
      "Ġdeki": 2206,
      "Ġnas": 2207,
      "ution": 2208,
      "Ġna": 2209,
      "Ġolur": 2210,
      "ouse": 2211,
      "ling": 2212,
      "Ġcontr": 2213,
      "uan": 2214,
      "ĠgeÃ§ir": 2215,
      "Ġsince": 2216,
      "alarÄ±n": 2217,
      "Ġ$": 2218,
      "las": 2219,
      "Ġline": 2220,
      "Ġtelev": 2221,
      "ĠyaÅŁan": 2222,
      "ature": 2223,
      "Ġarr": 2224,
      "Ġdirect": 2225,
      "Ġharek": 2226,
      "Ġsouth": 2227,
      "ĠStates": 2228,
      "angi": 2229,
      "ody": 2230,
      "Ġname": 2231,
      "abilir": 2232,
      "Ġener": 2233,
      "anu": 2234,
      "Ġmajor": 2235,
      "lak": 2236,
      "Ġreceived": 2237,
      "Ġfeatur": 2238,
      "Ġnet": 2239,
      "ĠÃ§aÄŁ": 2240,
      "ĠUS": 2241,
      "Ã¼mÃ¼z": 2242,
      "eder": 2243,
      "rote": 2244,
      "ects": 2245,
      "Ġgru": 2246,
      "ĠgÃ¶rÃ¼n": 2247,
      "Ġbest": 2248,
      "ivision": 2249,
      "ner": 2250,
      "Ġgit": 2251,
      "Ġber": 2252,
      "Ġmed": 2253,
      "Ã¼nÃ¼n": 2254,
      "ately": 2255,
      "dom": 2256,
      "Ġvideo": 2257,
      "ĠÃ¼zere": 2258,
      "ĠkÃ¼r": 2259,
      "Ġboz": 2260,
      "Ġsystem": 2261,
      "adÄ±r": 2262,
      "Ġwon": 2263,
      "Ã§Ä±": 2264,
      "ier": 2265,
      "Ġgazet": 2266,
      "ĠÃ¼ret": 2267,
      "Ġisim": 2268,
      "Ġbre": 2269,
      "ism": 2270,
      "Ġpartic": 2271,
      "ĠyaÅŁam": 2272,
      "cÄ±sÄ±": 2273,
      "ĠkÃ¼l": 2274,
      "meler": 2275,
      "Ġpaz": 2276,
      "ĠÄ±": 2277,
      "ull": 2278,
      "rar": 2279,
      "Ġworld": 2280,
      "Ġlife": 2281,
      "Ġedildi": 2282,
      "ped": 2283,
      "lerinden": 2284,
      "ĠsektÃ¶r": 2285,
      "Ġpublic": 2286,
      "Ġoffic": 2287,
      "ĠhÄ±z": 2288,
      "yle": 2289,
      "ives": 2290,
      "ĠNorth": 2291,
      "Ã©": 2292,
      "Ġrisk": 2293,
      "Ġdescribed": 2294,
      "ements": 2295,
      "Ġoran": 2296,
      "ĠOct": 2297,
      "ored": 2298,
      "Ġperson": 2299,
      "alt": 2300,
      "hil": 2301,
      "Ġbilim": 2302,
      "Ġtra": 2303,
      "ham": 2304,
      "Ġhel": 2305,
      "Ġec": 2306,
      "mem": 2307,
      "lah": 2308,
      "Ġhol": 2309,
      "Ġziy": 2310,
      "ĠkÃ¼": 2311,
      "Ġstate": 2312,
      "Ġtest": 2313,
      "ĠkaÃ§": 2314,
      "andaÅŁ": 2315,
      "Ġplayed": 2316,
      "ĠOctober": 2317,
      "ĠvatandaÅŁ": 2318,
      "Ġnow": 2319,
      "Ä±nÄ±z": 2320,
      "Ġ40": 2321,
      "Ġkans": 2322,
      "line": 2323,
      "ĠAustral": 2324,
      "Ġbit": 2325,
      "Ġbatt": 2326,
      "Ġbah": 2327,
      "Ġtook": 2328,
      "ĠuÃ§": 2329,
      "Ġuluslar": 2330,
      "Ġclass": 2331,
      "Ġoyuncu": 2332,
      "Ġitib": 2333,
      "ĠCol": 2334,
      "ks": 2335,
      "Ġmi": 2336,
      "ĠEur": 2337,
      "Ġincre": 2338,
      "ĠtÃ¼r": 2339,
      "Ġ26": 2340,
      "oÄŁraf": 2341,
      "empt": 2342,
      "ĠkiÅŁi": 2343,
      "Ġappro": 2344,
      "ĠhakkÄ±nda": 2345,
      "iversitesi": 2346,
      "iving": 2347,
      "ĠtanÄ±": 2348,
      "ĠNov": 2349,
      "uÅŁtur": 2350,
      "Ġwrote": 2351,
      "ont": 2352,
      "ĠJuly": 2353,
      "Ġlate": 2354,
      "ĠiÅŁlem": 2355,
      "Ġsoru": 2356,
      "gÄ±": 2357,
      "ĠsuÃ§": 2358,
      "ĠeÄŁitim": 2359,
      "lin": 2360,
      "ji": 2361,
      "Ġsosy": 2362,
      "Ġsak": 2363,
      "Ġorder": 2364,
      "ĠSouth": 2365,
      "Ġrak": 2366,
      "lacaÄŁ": 2367,
      "ĠsÄ±": 2368,
      "tÃ¼rk": 2369,
      "ĠyaklaÅŁÄ±k": 2370,
      "Ġmuch": 2371,
      "taÅŁ": 2372,
      "ĠteÅŁ": 2373,
      "Ġconf": 2374,
      "ĠkÃ¼ltÃ¼r": 2375,
      "zon": 2376,
      "ĠKing": 2377,
      "Ġbank": 2378,
      "Ġchild": 2379,
      "Ġdolay": 2380,
      "ĠsayÄ±": 2381,
      "ektr": 2382,
      "ĠartÄ±r": 2383,
      "bakanlÄ±ÄŁÄ±": 2384,
      "Ġmilletvek": 2385,
      "ĠartÄ±k": 2386,
      "Ã§i": 2387,
      "ĠsÄ±n": 2388,
      "unlarÄ±": 2389,
      "oz": 2390,
      "Ġfot": 2391,
      "tÄ±ÄŁÄ±nÄ±": 2392,
      "Ġsingle": 2393,
      "ting": 2394,
      "Ġdue": 2395,
      "olu": 2396,
      "ĠTr": 2397,
      "ĠgerektiÄŁini": 2398,
      "Ġkoy": 2399,
      "lerden": 2400,
      "pril": 2401,
      "Ġshort": 2402,
      "Ġdiffer": 2403,
      "urr": 2404,
      "nak": 2405,
      "Ġallow": 2406,
      "Ġspecies": 2407,
      "During": 2408,
      "ĠayrÄ±ca": 2409,
      "ĠgeliÅŁtir": 2410,
      "ĠÅŁim": 2411,
      "Ġfiyat": 2412,
      "ropical": 2413,
      "Ġvis": 2414,
      "ikleri": 2415,
      "Ġcamp": 2416,
      "by": 2417,
      "iti": 2418,
      "ĠApril": 2419,
      "Ġbiri": 2420,
      "Ġkurum": 2421,
      "Ġgol": 2422,
      "Ġanother": 2423,
      "ĠuluslararasÄ±": 2424,
      "sal": 2425,
      "ĠPr": 2426,
      "Ġbor": 2427,
      "get": 2428,
      "ĠkÄ±z": 2429,
      "lor": 2430,
      "Ġfutbol": 2431,
      "Ġ192": 2432,
      "Ġincluded": 2433,
      "Ġ2007": 2434,
      "Ġdeath": 2435,
      "pres": 2436,
      "Ġposs": 2437,
      "acaÄŁÄ±nÄ±": 2438,
      "Ġ]": 2439,
      "Ġgun": 2440,
      "Ġbl": 2441,
      "ene": 2442,
      "aged": 2443,
      "ively": 2444,
      "leme": 2445,
      "Ġlira": 2446,
      "Ġkabul": 2447,
      "Ġeven": 2448,
      "Ġsosyal": 2449,
      "Ġgames": 2450,
      "ileceÄŁini": 2451,
      "ĠSc": 2452,
      "anuary": 2453,
      "ales": 2454,
      "Ġstorm": 2455,
      "ology": 2456,
      "ĠDec": 2457,
      "Ġperi": 2458,
      "omb": 2459,
      "na": 2460,
      "Ġifad": 2461,
      "ĠJanuary": 2462,
      "can": 2463,
      "duÄŁunu": 2464,
      "Ġwithin": 2465,
      "ead": 2466,
      "Ġleft": 2467,
      "ĠYork": 2468,
      "Ġ[": 2469,
      "ÄŁin": 2470,
      "ĠhÃ¼kÃ¼met": 2471,
      "Ã§ok": 2472,
      "ission": 2473,
      "ilar": 2474,
      "landÄ±r": 2475,
      "Ġtah": 2476,
      "ĠaldÄ±": 2477,
      "ĠhastalÄ±": 2478,
      "Ġrahat": 2479,
      "Ġdaki": 2480,
      "Ġcontrol": 2481,
      "laim": 2482,
      "Ġbased": 2483,
      "Ġstud": 2484,
      "abet": 2485,
      "lÃ¼k": 2486,
      "Ã¼b": 2487,
      "Ġestab": 2488,
      "Ġnamed": 2489,
      "ĠyÃ¶nelik": 2490,
      "Ġsk": 2491,
      "Ġedilen": 2492,
      "Ġmec": 2493,
      "Ġattempt": 2494,
      "Ġjust": 2495,
      "rat": 2496,
      "Ġlev": 2497,
      "Ġalthough": 2498,
      "ĠSp": 2499,
      "omin": 2500,
      "erv": 2501,
      "ges": 2502,
      "Ġkont": 2503,
      "aly": 2504,
      "ĠgÃ¶nder": 2505,
      "ĠkullanÄ±cÄ±": 2506,
      "Ġsmall": 2507,
      "Ġvery": 2508,
      "ĠkarÅŁÄ±laÅŁ": 2509,
      "ĠÃ¶lÃ¼m": 2510,
      "Ġgener": 2511,
      "Ġziyaret": 2512,
      "ras": 2513,
      "Ġtec": 2514,
      "Ġleg": 2515,
      "Ġthird": 2516,
      "ger": 2517,
      "Ġkamu": 2518,
      "ÄŁu": 2519,
      "ility": 2520,
      "Ġ27": 2521,
      "Ġankara": 2522,
      "Ġtrack": 2523,
      "ĠIr": 2524,
      "Ġuzman": 2525,
      "ĠkÃ¼Ã§": 2526,
      "Ġkapsam": 2527,
      "Ġedilm": 2528,
      "Ġwind": 2529,
      "ĠbeÅŁ": 2530,
      "Ġfil": 2531,
      "Ġgovernment": 2532,
      "Ġelektr": 2533,
      "..": 2534,
      "Ġprevious": 2535,
      "ention": 2536,
      "Ġhome": 2537,
      "ĠbirÃ§ok": 2538,
      "ĠyarÄ±ÅŁ": 2539,
      "ĠilaÃ§": 2540,
      "Ġrek": 2541,
      "Ġbile": 2542,
      "ilere": 2543,
      "Ġikinci": 2544,
      "ĠGr": 2545,
      "Ġhastan": 2546,
      "omet": 2547,
      "Ġhum": 2548,
      "Ġpower": 2549,
      "van": 2550,
      "Ġway": 2551,
      "isinin": 2552,
      "ages": 2553,
      "ĠNovember": 2554,
      "Ġwater": 2555,
      "Ġfamily": 2556,
      "Ġevent": 2557,
      "isine": 2558,
      "Ġhafta": 2559,
      "Ġmey": 2560,
      "unuz": 2561,
      "Ġperform": 2562,
      "Ġreview": 2563,
      "Ġsent": 2564,
      "Ġdel": 2565,
      "suz": 2566,
      "gi": 2567,
      "Ġschool": 2568,
      "erb": 2569,
      "ented": 2570,
      "ĠMarch": 2571,
      "ĠPar": 2572,
      "Ġbay": 2573,
      "Ġfar": 2574,
      "ĠpaylaÅŁ": 2575,
      "ĠaÄŁr": 2576,
      "Ġ...": 2577,
      "row": 2578,
      "Ġperiod": 2579,
      "hing": 2580,
      "raft": 2581,
      "Ġtedavi": 2582,
      "landÄ±": 2583,
      "Ġmy": 2584,
      "Ġihtiy": 2585,
      "Ġ500": 2586,
      "ĠfotoÄŁraf": 2587,
      "Ġfur": 2588,
      "itions": 2589,
      "ards": 2590,
      "ĠWil": 2591,
      "ĠterÃ¶r": 2592,
      "ĠDecember": 2593,
      "Ġkalp": 2594,
      "acaÄŁÄ±": 2595,
      "kem": 2596,
      "ĠbaÅŁka": 2597,
      "Ġthose": 2598,
      "ĠCon": 2599,
      "ĠÃ¶ner": 2600,
      "Ġplace": 2601,
      "ĠEurope": 2602,
      "Ä±lmÄ±ÅŁ": 2603,
      "Ġbab": 2604,
      "Ġcolle": 2605,
      "ayet": 2606,
      "ex": 2607,
      "Ġ&": 2608,
      "Ġolduk": 2609,
      "lÄ±yor": 2610,
      "ched": 2611,
      "iven": 2612,
      "Ġmilli": 2613,
      "Ġgreat": 2614,
      "Ġbuilt": 2615,
      "Ġtyp": 2616,
      "Ġeur": 2617,
      "oci": 2618,
      "Ġbulundu": 2619,
      "ms": 2620,
      "ĠyapÄ±ldÄ±": 2621,
      "ides": 2622,
      "Ġrol": 2623,
      "Ġconsid": 2624,
      "malÄ±": 2625,
      "ĠEngland": 2626,
      "Ġstory": 2627,
      "ĠyÃ¼ksel": 2628,
      "izi": 2629,
      "Ä±lÄ±yor": 2630,
      "ĠbÃ¶lÃ¼m": 2631,
      "ures": 2632,
      "ulation": 2633,
      "Ġprom": 2634,
      "ached": 2635,
      "ĠdÃ¶nÃ¼ÅŁ": 2636,
      "dar": 2637,
      "Ġyi": 2638,
      "avy": 2639,
      "Ġmonth": 2640,
      "Ġtasar": 2641,
      "Ġbilgis": 2642,
      "ze": 2643,
      "Ġhap": 2644,
      "tic": 2645,
      "Ġhand": 2646,
      "Ġreal": 2647,
      "Ġfun": 2648,
      "atÄ±": 2649,
      "Ġsilah": 2650,
      "Ġrefer": 2651,
      "Ġold": 2652,
      "Ġgeri": 2653,
      "ĠaralÄ±k": 2654,
      "Ġzar": 2655,
      "ior": 2656,
      "Ġsey": 2657,
      "iversity": 2658,
      "Ġoriginal": 2659,
      "Ġkill": 2660,
      "Ġ2006": 2661,
      "ĠÅŁunlarÄ±": 2662,
      "Ġbilgisay": 2663,
      "Ġcomman": 2664,
      "Ġyetk": 2665,
      "ax": 2666,
      "ese": 2667,
      "umuz": 2668,
      "Ġcare": 2669,
      "ett": 2670,
      "eor": 2671,
      "uss": 2672,
      "ĠsavaÅŁ": 2673,
      "Ġopp": 2674,
      "Ġitibar": 2675,
      "Ġgid": 2676,
      "Ġmake": 2677,
      "Ġclub": 2678,
      "Ġcountr": 2679,
      "ĠMan": 2680,
      "itary": 2681,
      "Ġtl": 2682,
      "ĠsÄ±nÄ±r": 2683,
      "ÄŁine": 2684,
      "emi": 2685,
      "Ġbilin": 2686,
      "Ġauth": 2687,
      "Ġrequ": 2688,
      "aban": 2689,
      "ned": 2690,
      "Ġod": 2691,
      "parti": 2692,
      "ĠnasÄ±l": 2693,
      "ĠÃ¶ld": 2694,
      "Ġsug": 2695,
      "Ġgrup": 2696,
      "Ġled": 2697,
      "riend": 2698,
      "aur": 2699,
      "oÄŁun": 2700,
      "Ġ29": 2701,
      "Ġbes": 2702,
      "lis": 2703,
      "ĠgÃ¼nÃ¼": 2704,
      "lig": 2705,
      "ars": 2706,
      "vur": 2707,
      "Ġseb": 2708,
      "Ġkitap": 2709,
      "ĠanlaÅŁ": 2710,
      "Ġlim": 2711,
      "Ġbilgi": 2712,
      "ĠQ": 2713,
      "Ġpazar": 2714,
      "umu": 2715,
      "ike": 2716,
      "gr": 2717,
      "ĠhiÃ§bir": 2718,
      "izyon": 2719,
      "urric": 2720,
      "eled": 2721,
      "ture": 2722,
      "Ġortak": 2723,
      "mey": 2724,
      "Ġteknik": 2725,
      "Ġview": 2726,
      "ÄŁÃ¼nÃ¼": 2727,
      "iyorum": 2728,
      "ĠartÄ±ÅŁ": 2729,
      "ought": 2730,
      "diÄŁini": 2731,
      "Ã§a": 2732,
      "ÄŁÄ±mÄ±z": 2733,
      "Ġhey": 2734,
      "mÃ¼": 2735,
      "ops": 2736,
      "Ġkol": 2737,
      "Ġconv": 2738,
      "ert": 2739,
      "Ġmoved": 2740,
      "Ġcour": 2741,
      "ĠdiÅŁ": 2742,
      "Ġtoplam": 2743,
      "ats": 2744,
      "ĠGu": 2745,
      "Ġistedi": 2746,
      "Ġtoplum": 2747,
      "ĠRo": 2748,
      "Ġcihaz": 2749,
      "Ġstill": 2750,
      "ĠÃ§Ä±kan": 2751,
      "ĠNational": 2752,
      "Ġrole": 2753,
      "Ġjo": 2754,
      "Ġpost": 2755,
      "ĠCity": 2756,
      "Ġcame": 2757,
      "ĠhatÄ±r": 2758,
      "Ġsezon": 2759,
      "ogr": 2760,
      "Ġlocal": 2761,
      "ĠRiver": 2762,
      "cient": 2763,
      "ĠaÄŁÄ±r": 2764,
      "Ġmag": 2765,
      "muÅŁ": 2766,
      "Ġfak": 2767,
      "ically": 2768,
      "umlu": 2769,
      "hile": 2770,
      "Ġkonusu": 2771,
      "Ġcommon": 2772,
      "Ġadam": 2773,
      "tedir": 2774,
      "Ġaddition": 2775,
      "Ġoften": 2776,
      "unuyor": 2777,
      "Ġuygun": 2778,
      "Ġcaus": 2779,
      "ĠÃ¼lke": 2780,
      "eceÄŁini": 2781,
      "day": 2782,
      "ruction": 2783,
      "Ġyerine": 2784,
      "Ä±ntÄ±": 2785,
      "Ġhaft": 2786,
      "mir": 2787,
      "ences": 2788,
      "ĠAt": 2789,
      "eter": 2790,
      "Ġfew": 2791,
      "Ġherkes": 2792,
      "elere": 2793,
      "Ġtart": 2794,
      "sh": 2795,
      "alarda": 2796,
      "Ã¼nkÃ¼": 2797,
      "There": 2798,
      "Ġdil": 2799,
      "Ġ35": 2800,
      "ĠÃ§Ã¼nkÃ¼": 2801,
      "Ġconsidered": 2802,
      "Ġnext": 2803,
      "Ġplayer": 2804,
      "When": 2805,
      "elerini": 2806,
      "ĠIndi": 2807,
      "ĠFr": 2808,
      "idge": 2809,
      "Ġmot": 2810,
      "ampiyon": 2811,
      "side": 2812,
      "Ġpiyas": 2813,
      "Ġproblem": 2814,
      "ĠsÃ¼rdÃ¼r": 2815,
      "Ġsuggest": 2816,
      "ĠdÃ¼nyanÄ±n": 2817,
      "Ġmik": 2818,
      "ged": 2819,
      "His": 2820,
      "Ġmev": 2821,
      "Ä±sÄ±nda": 2822,
      "Ġtrad": 2823,
      "Ġimz": 2824,
      "ĠkaldÄ±r": 2825,
      "astern": 2826,
      "Ġcompany": 2827,
      "Ġ31": 2828,
      "Ġdeb": 2829,
      "ĠadlÄ±": 2830,
      "rench": 2831,
      "Ġsimilar": 2832,
      "laced": 2833,
      "ories": 2834,
      "Ġbuilding": 2835,
      "Ġgelecek": 2836,
      "Ġresult": 2837,
      "lear": 2838,
      "Ġright": 2839,
      "ĠyÃ¶nt": 2840,
      "Ġside": 2841,
      "Ġrecorded": 2842,
      "Ġcontain": 2843,
      "iÅŁleri": 2844,
      "adÄ±k": 2845,
      "ĠseÃ§im": 2846,
      "Ġtic": 2847,
      "Ã¼zel": 2848,
      "ants": 2849,
      "Ġolabilir": 2850,
      "Ġaa": 2851,
      "ĠbaÅŁvur": 2852,
      "Ġclaim": 2853,
      "ĠbasÄ±n": 2854,
      "siz": 2855,
      "Ġgelir": 2856,
      "Ġdra": 2857,
      "By": 2858,
      "Ġyeniden": 2859,
      "adaÅŁ": 2860,
      "Ġarch": 2861,
      "rodu": 2862,
      "mp": 2863,
      "ĠbaÄŁlÄ±": 2864,
      "Ġetmek": 2865,
      "Ġah": 2866,
      "ĠgÃ¼l": 2867,
      "ĠAd": 2868,
      "Ġfest": 2869,
      "Ġimport": 2870,
      "Ġbeliev": 2871,
      "ĠÃ§alÄ±ÅŁan": 2872,
      "crip": 2873,
      "ple": 2874,
      "sil": 2875,
      "ĠolmadÄ±ÄŁÄ±nÄ±": 2876,
      "ney": 2877,
      "Ġext": 2878,
      "Ġpublished": 2879,
      "Ġcontinued": 2880,
      "Ġveren": 2881,
      "Ġtake": 2882,
      "Ġyou": 2883,
      "ĠarkadaÅŁ": 2884,
      "Ä±yoruz": 2885,
      "Ġbilgisayar": 2886,
      "Ġeser": 2887,
      "Ġstat": 2888,
      "ĠkÃ¼Ã§Ã¼k": 2889,
      "Ġwithout": 2890,
      "rist": 2891,
      "oyal": 2892,
      "eland": 2893,
      "Ġdifferent": 2894,
      "Ġren": 2895,
      "Ġroad": 2896,
      "ĠFrench": 2897,
      "ds": 2898,
      "ai": 2899,
      "bek": 2900,
      "Ġteh": 2901,
      "Ġsinem": 2902,
      "rov": 2903,
      "Ġthough": 2904,
      "Ġkontrol": 2905,
      "Ġsongs": 2906,
      "Ġmust": 2907,
      "Ġtown": 2908,
      "Ġincel": 2909,
      "ĠHer": 2910,
      "Ġrusya": 2911,
      "Ġlaz": 2912,
      "Ġait": 2913,
      "ĠMus": 2914,
      "ĠkiÅŁinin": 2915,
      "Ġheld": 2916,
      "Ġnorm": 2917,
      "ĠEnglish": 2918,
      "Ġtimes": 2919,
      "Ġru": 2920,
      "lif": 2921,
      "ĠÅŁekl": 2922,
      "yc": 2923,
      "ĠaraÃ§": 2924,
      "Ġingil": 2925,
      "Ġformer": 2926,
      "Ġhareket": 2927,
      "Ġamong": 2928,
      "baÅŁkan": 2929,
      "ĠfÄ±r": 2930,
      "Ġdak": 2931,
      "bar": 2932,
      "Ä±lÄ±m": 2933,
      "Ġrad": 2934,
      "Ä±lÄ±Ã§": 2935,
      "roy": 2936,
      "mez": 2937,
      "ĠgÃ¼ndem": 2938,
      "ampions": 2939,
      "Ġcr": 2940,
      "Ġprote": 2941,
      "ĠyanÄ±t": 2942,
      "ĠdÃ¼zenlenen": 2943,
      "Ġbenim": 2944,
      "ball": 2945,
      "Ġeski": 2946,
      "ĠBatt": 2947,
      "ĠÃ§in": 2948,
      "Ġengel": 2949,
      "ĠtartÄ±ÅŁ": 2950,
      "Ġwritten": 2951,
      "Ä±yla": 2952,
      "Ġsig": 2953,
      "atasar": 2954,
      "atasaray": 2955,
      "Ġpuan": 2956,
      "ĠÃ§Ä±ktÄ±": 2957,
      "Ġamel": 2958,
      "Ġbeh": 2959,
      "uted": 2960,
      "Ġband": 2961,
      "Ġkent": 2962,
      "Ġmodern": 2963,
      "Ġayak": 2964,
      "ivil": 2965,
      "mar": 2966,
      "iter": 2967,
      "Ġdepr": 2968,
      "san": 2969,
      "sp": 2970,
      "Ġanlam": 2971,
      "ĠraÄŁ": 2972,
      "estern": 2973,
      "Ġhalf": 2974,
      "Ġsar": 2975,
      "ĠÃ¼retim": 2976,
      "loy": 2977,
      "eÅŁtir": 2978,
      "mÃ¼dÃ¼r": 2979,
      "Ġoluyor": 2980,
      "ĠÃ¼lkeler": 2981,
      "Ġwest": 2982,
      "ried": 2983,
      "cut": 2984,
      "ĠeleÅŁtir": 2985,
      "Ġ60": 2986,
      "urricane": 2987,
      "itch": 2988,
      "Ġeast": 2989,
      "Ġtotal": 2990,
      "ĠyÄ±": 2991,
      "ift": 2992,
      "Ġdemok": 2993,
      "Ġcid": 2994,
      "alif": 2995,
      "Ġerk": 2996,
      "Ġfurther": 2997,
      "Ġameliyat": 2998,
      "Ġdok": 2999,
      "ounty": 3000,
      "ileceÄŁi": 3001,
      "Ġtakip": 3002,
      "Ġbecome": 3003,
      "Ġrepres": 3004,
      "Ġnak": 3005,
      "ĠDivision": 3006,
      "Ġkanser": 3007,
      "meyi": 3008,
      "ĠerdoÄŁan": 3009,
      "ister": 3010,
      "ccording": 3011,
      "Ġfre": 3012,
      "eceÄŁi": 3013,
      "Ġcommun": 3014,
      "Ġfield": 3015,
      "ĠateÅŁ": 3016,
      "Ġos": 3017,
      "Ġdisp": 3018,
      "Ġail": 3019,
      "ĠsaldÄ±rÄ±": 3020,
      "Ġlan": 3021,
      "Ġhowever": 3022,
      "Ġali": 3023,
      "Ġciddi": 3024,
      "pit": 3025,
      "Ġchurch": 3026,
      "Ġkaynak": 3027,
      "ness": 3028,
      "Ġvict": 3029,
      "Ġstudi": 3030,
      "ĠyÄ±lÄ±n": 3031,
      "Ġelde": 3032,
      "itar": 3033,
      "Ġrapor": 3034,
      "Ġdays": 3035,
      "Ã¼sÃ¼": 3036,
      "Ġalman": 3037,
      "Ġtro": 3038,
      "Ġum": 3039,
      "Ġli": 3040,
      "Ġexc": 3041,
      "Ġnokt": 3042,
      "ĠÃ¶ÄŁrenc": 3043,
      "Ġlow": 3044,
      "Ġstrong": 3045,
      "Ġide": 3046,
      "ĠiliÅŁk": 3047,
      "Ġdar": 3048,
      "ÄŁÄ±nda": 3049,
      "Ġetkin": 3050,
      "Ġfind": 3051,
      "Ġzarar": 3052,
      "Ġhes": 3053,
      "ĠadÄ±m": 3054,
      "mesini": 3055,
      "Ġamer": 3056,
      "Ġcev": 3057,
      "Ġprop": 3058,
      "ott": 3059,
      "ĠyaptÄ±k": 3060,
      "ata": 3061,
      "ĠgÃ¼zel": 3062,
      "ĠChris": 3063,
      "ech": 3064,
      "Ġkav": 3065,
      "si": 3066,
      "Ġyor": 3067,
      "ĠmaÄŁ": 3068,
      "ĠkuruluÅŁ": 3069,
      "thers": 3070,
      "apan": 3071,
      "ilmek": 3072,
      "ĠyaÄŁ": 3073,
      "Ġmeh": 3074,
      "Ġbeled": 3075,
      "Ġspe": 3076,
      "kurulu": 3077,
      "Ġsab": 3078,
      "ildiÄŁini": 3079,
      "Ġposition": 3080,
      "larÄ±yla": 3081,
      "cy": 3082,
      "asÄ±ndaki": 3083,
      "ĠsÃ¼re": 3084,
      "ĠraÄŁmen": 3085,
      "Ġocak": 3086,
      "Ġparticular": 3087,
      "Ġtitle": 3088,
      "Ġrelease": 3089,
      "ches": 3090,
      "Although": 3091,
      "pite": 3092,
      "ĠÃ§eÅŁ": 3093,
      "Ġnov": 3094,
      "Ġburada": 3095,
      "tian": 3096,
      "Ġseven": 3097,
      "omen": 3098,
      "pany": 3099,
      "rac": 3100,
      "Ġblack": 3101,
      "ĠÅŁampiyon": 3102,
      "Ġpoint": 3103,
      "Ġhistory": 3104,
      "ĠgeÃ§ti": 3105,
      "oktor": 3106,
      "kÃ¼n": 3107,
      "ateg": 3108,
      "Ġsiz": 3109,
      "ĠgerÃ§ekleÅŁ": 3110,
      "emb": 3111,
      "ekli": 3112,
      "ittle": 3113,
      "abancÄ±": 3114,
      "Ġgerekiyor": 3115,
      "que": 3116,
      "ĠettiÄŁi": 3117,
      "Ġauthor": 3118,
      "ĠPort": 3119,
      "Ġdoktor": 3120,
      "ĠWh": 3121,
      "Ġgalatasaray": 3122,
      "Ġversion": 3123,
      "oung": 3124,
      "Ġtour": 3125,
      "oute": 3126,
      "Ġadet": 3127,
      "ĠComm": 3128,
      "Ġyurt": 3129,
      "Ġweek": 3130,
      "ÄŁinde": 3131,
      "leriyle": 3132,
      "ĠaltÄ±nda": 3133,
      "ĠdeÄŁiÅŁik": 3134,
      "andÄ±r": 3135,
      "ĠayÄ±nda": 3136,
      "Ġmehmet": 3137,
      "layacak": 3138,
      "ĠkÄ±sa": 3139,
      "Ġ2005": 3140,
      "ĠtÃ¼ket": 3141,
      "ĠBro": 3142,
      "Ġsite": 3143,
      "Ġmilitary": 3144,
      "Ġfail": 3145,
      "hern": 3146,
      "tens": 3147,
      "ĠÃ¼cr": 3148,
      "Ġfoot": 3149,
      "ladÄ±ÄŁÄ±": 3150,
      "Ġless": 3151,
      "tadÄ±r": 3152,
      "Ġbenz": 3153,
      "Ġyine": 3154,
      "madan": 3155,
      "undan": 3156,
      "outhern": 3157,
      "ĠmÃ¼m": 3158,
      "Ġgave": 3159,
      "Ġederek": 3160,
      "ĠMc": 3161,
      "Ġdefe": 3162,
      "lex": 3163,
      "Ä±sÄ±ndan": 3164,
      "ĠsÄ±ra": 3165,
      "ylan": 3166,
      "ject": 3167,
      "Ġval": 3168,
      "ĠsÃ¼rec": 3169,
      "fric": 3170,
      "Ġbuna": 3171,
      "Ġbody": 3172,
      "ĠFeb": 3173,
      "ruary": 3174,
      "ĠFebruary": 3175,
      "ĠbaÅŁarÄ±": 3176,
      "Ġreported": 3177,
      "ayas": 3178,
      "ĠRoman": 3179,
      "Ġchang": 3180,
      "Ġmembers": 3181,
      "According": 3182,
      "Ġsiyasi": 3183,
      "ĠÃ¼zerinden": 3184,
      "ĠyÄ±ldÄ±": 3185,
      "Ġproduced": 3186,
      "Ġfrans": 3187,
      "ĠyÄ±lda": 3188,
      "unca": 3189,
      "ĠyÄ±ldÄ±z": 3190,
      "ĠState": 3191,
      "ĠChurch": 3192,
      "ties": 3193,
      "ĠiÃ§erisinde": 3194,
      "For": 3195,
      "gÃ¼t": 3196,
      "ĠmÃ¼zik": 3197,
      "ĠverdiÄŁi": 3198,
      "Ġgetiren": 3199,
      "Ġ45": 3200,
      "ilerinin": 3201,
      "cer": 3202,
      "ĠLeague": 3203,
      "ĠinÅŁ": 3204,
      "Ġmesaj": 3205,
      "Ġ2004": 3206,
      "Ġses": 3207,
      "self": 3208,
      "ĠHe": 3209,
      "ĠiÅŁaret": 3210,
      "lÃ¼ÄŁÃ¼": 3211,
      "sÄ±": 3212,
      "ining": 3213,
      "overed": 3214,
      "lished": 3215,
      "Ġaff": 3216,
      "ograph": 3217,
      "Ġyem": 3218,
      "iment": 3219,
      "Ġsl": 3220,
      "Ġanti": 3221,
      "ots": 3222,
      "ices": 3223,
      "pan": 3224,
      "of": 3225,
      "Ġherh": 3226,
      "ilmiÅŁ": 3227,
      "ĠÃ§eÅŁit": 3228,
      "arn": 3229,
      "Ġekim": 3230,
      "ĠGen": 3231,
      "Ġtropical": 3232,
      "ae": 3233,
      "ĠFor": 3234,
      "iety": 3235,
      "ael": 3236,
      "ÄŁÄ±na": 3237,
      "orther": 3238,
      "Ġevery": 3239,
      "sik": 3240,
      "rah": 3241,
      "ĠmÃ¼mkÃ¼n": 3242,
      "Ã¶ren": 3243,
      "uÄŁ": 3244,
      "Ġistem": 3245,
      "Ġkah": 3246,
      "Ã¢": 3247,
      "Ġ190": 3248,
      "ĠgÃ¼venlik": 3249,
      "Ġaktar": 3250,
      "Ġedecek": 3251,
      "Ġett": 3252,
      "ĠyanlÄ±": 3253,
      "Ġenerji": 3254,
      "Ġhistor": 3255,
      "Ġchildren": 3256,
      "gular": 3257,
      "Ġaf": 3258,
      "With": 3259,
      "dana": 3260,
      "Ġcareer": 3261,
      "Ġinclude": 3262,
      "Ġokul": 3263,
      "lacaÄŁÄ±nÄ±": 3264,
      "ĠhatÄ±rlat": 3265,
      "emiz": 3266,
      "orthern": 3267,
      "Ġproduction": 3268,
      "Ġsam": 3269,
      "ĠhÃ¼": 3270,
      "alet": 3271,
      "Ġhaving": 3272,
      "yÄ±l": 3273,
      "ky": 3274,
      "Ġpopular": 3275,
      "aat": 3276,
      "obil": 3277,
      "Ġlost": 3278,
      "ĠdoÄŁum": 3279,
      "Ġkem": 3280,
      "ĠÃ§Ã¶zÃ¼m": 3281,
      "Ġtep": 3282,
      "ments": 3283,
      "Ġpet": 3284,
      "press": 3285,
      "Ġsurv": 3286,
      "Ġgiven": 3287,
      "ĠÅŁidd": 3288,
      "Ġcritic": 3289,
      "Ġrom": 3290,
      "Ġwant": 3291,
      "Ġkolay": 3292,
      "Ġbomb": 3293,
      "ĠaldÄ±ÄŁÄ±": 3294,
      "Ġcul": 3295,
      "Ġinvol": 3296,
      "ĠyÃ¶ntem": 3297,
      "ke": 3298,
      "ox": 3299,
      "ium": 3300,
      "ĠAnd": 3301,
      "ĠÅŁimdi": 3302,
      "Ġanayas": 3303,
      "alion": 3304,
      "reet": 3305,
      "Ġlig": 3306,
      "ogle": 3307,
      "Ġinflu": 3308,
      "ĠÃ§eken": 3309,
      "ĠSong": 3310,
      "Ġmanag": 3311,
      "Ġdiv": 3312,
      "Ġcountry": 3313,
      "Ġmur": 3314,
      "lic": 3315,
      "ebook": 3316,
      "Ġtrav": 3317,
      "ĠyapÄ±l": 3318,
      "Ġpl": 3319,
      "Ġthought": 3320,
      "Ġnever": 3321,
      "birliÄŁi": 3322,
      "Ä±ldÄ±ÄŁÄ±": 3323,
      "ĠdÃ¶nemde": 3324,
      "ĠJapan": 3325,
      "Ġkonuda": 3326,
      "Ġft": 3327,
      "Ã¼nÃ¼yor": 3328,
      "Ġsom": 3329,
      "ĠaÃ§Ä±kladÄ±": 3330,
      "Ġforces": 3331,
      "Ġsignific": 3332,
      "ĠÃ§iz": 3333,
      "irc": 3334,
      "Ġ75": 3335,
      "ĠWest": 3336,
      "lim": 3337,
      "rey": 3338,
      "elf": 3339,
      "acaÄŁÄ±z": 3340,
      "Ġuyar": 3341,
      "mada": 3342,
      "ĠkullandÄ±": 3343,
      "Ġseen": 3344,
      "anÄ±yor": 3345,
      "Ġfem": 3346,
      "ĠalÄ±yor": 3347,
      "Ġgetirdi": 3348,
      "ĠmÃ¼cadele": 3349,
      "imin": 3350,
      "Ġra": 3351,
      "Ġyani": 3352,
      "Ġcas": 3353,
      "Ġhen": 3354,
      "ĠvÃ¼": 3355,
      "Ġmerkezi": 3356,
      "ĠÅŁeklinde": 3357,
      "des": 3358,
      "duk": 3359,
      "alara": 3360,
      "aster": 3361,
      "Ġseviy": 3362,
      "Ġpress": 3363,
      "Ġstated": 3364,
      "Ġvo": 3365,
      "Ġmaking": 3366,
      "dik": 3367,
      "Ġhow": 3368,
      "ÄŁe": 3369,
      "Ġput": 3370,
      "Ġpek": 3371,
      "Ġbekl": 3372,
      "Ġeight": 3373,
      "ĠPark": 3374,
      "Ġcompet": 3375,
      "Ġche": 3376,
      "ampionship": 3377,
      "Ġyarat": 3378,
      "ĠyoÄŁun": 3379,
      "Ġtemsil": 3380,
      "tÄ±m": 3381,
      "Ġtransfer": 3382,
      "Ġmatch": 3383,
      "Ġsound": 3384,
      "Ġerkek": 3385,
      "Ġgereken": 3386,
      "Ġmilletvekili": 3387,
      "yn": 3388,
      "co": 3389,
      "rak": 3390,
      "work": 3391,
      "Ġreturned": 3392,
      "Ġcomb": 3393,
      "Ġplat": 3394,
      "Ġdon": 3395,
      "sen": 3396,
      "Ġprim": 3397,
      "Ġoperasyon": 3398,
      "round": 3399,
      "Ġx": 3400,
      "mÄ±ÅŁtÄ±": 3401,
      "Ġkomisyon": 3402,
      "Ã¼niversitesi": 3403,
      "Ġfat": 3404,
      "ĠkapsamÄ±nda": 3405,
      "Ġnormal": 3406,
      "ves": 3407,
      "ĠChar": 3408,
      "Ġfire": 3409,
      "iber": 3410,
      "Ġgod": 3411,
      "ĠÃ¶zg": 3412,
      "ĠAfric": 3413,
      "ape": 3414,
      "Ġana": 3415,
      "elerinin": 3416,
      "Ġfriend": 3417,
      "oon": 3418,
      "lÃ¼l": 3419,
      "rew": 3420,
      "ĠyapÄ±lacak": 3421,
      "Ġserg": 3422,
      "ĠdÃ¼nyada": 3423,
      "ified": 3424,
      "Ġdeniz": 3425,
      "ĠBe": 3426,
      "ĠakÄ±l": 3427,
      "ional": 3428,
      "Ġord": 3429,
      "ys": 3430,
      "tiÄŁi": 3431,
      "uluk": 3432,
      "uch": 3433,
      "ĠOr": 3434,
      "Ġisland": 3435,
      "cript": 3436,
      "Ġanlatan": 3437,
      "Ġtekrar": 3438,
      "Ġcor": 3439,
      "Ġequ": 3440,
      "Ġestablished": 3441,
      "ÅŁam": 3442,
      "ither": 3443,
      "Ġlight": 3444,
      "cial": 3445,
      "ĠyÄ±lÄ±": 3446,
      "ilerine": 3447,
      "Ġships": 3448,
      "ĠMiss": 3449,
      "ova": 3450,
      "Ġekonomik": 3451,
      "eÄŁi": 3452,
      "Ġkalk": 3453,
      "Ġreached": 3454,
      "ĠMin": 3455,
      "ĠGeor": 3456,
      "Ġannoun": 3457,
      "Ġpopulation": 3458,
      "ĠUniversity": 3459,
      "Ġhour": 3460,
      "Ġearli": 3461,
      "sat": 3462,
      "ĠbaÅŁlat": 3463,
      "Ġfu": 3464,
      "ladÄ±k": 3465,
      "iyeti": 3466,
      "sequ": 3467,
      "While": 3468,
      "Ġsistemi": 3469,
      "ĠaraÅŁtÄ±rma": 3470,
      "Ġhava": 3471,
      "lerimiz": 3472,
      "Ġtarihi": 3473,
      "Ġhep": 3474,
      "ĠAmerica": 3475,
      "Ġuygulan": 3476,
      "Ġwat": 3477,
      "Ġherhangi": 3478,
      "Ġkut": 3479,
      "lendi": 3480,
      "Ġsoc": 3481,
      "ilerini": 3482,
      "ĠyanlÄ±ÅŁ": 3483,
      "dÄ±n": 3484,
      "ĠCent": 3485,
      "Ġmm": 3486,
      "Ġaway": 3487,
      "Ġtespit": 3488,
      "Ġstruct": 3489,
      "Ġdeveloped": 3490,
      "Ġpur": 3491,
      "Ġnoted": 3492,
      "Ġanda": 3493,
      "ably": 3494,
      "Ġzamanda": 3495,
      "tay": 3496,
      "Ġthroughout": 3497,
      "che": 3498,
      "ĠÃ¶rgÃ¼t": 3499,
      "miÅŁti": 3500,
      "Ġfaal": 3501,
      "igade": 3502,
      "bm": 3503,
      "Ġtalep": 3504,
      "inted": 3505,
      "Ġerken": 3506,
      "Ġchart": 3507,
      "Ġlider": 3508,
      "Ġgood": 3509,
      "ĠgÃ¼Ã§lÃ¼": 3510,
      "Ġacross": 3511,
      "ĠAss": 3512,
      "ÄŁÄ±n": 3513,
      "izm": 3514,
      "Ġemp": 3515,
      "ĠkÃ¶tÃ¼": 3516,
      "Ġpresent": 3517,
      "gÄ±n": 3518,
      "Ġintrodu": 3519,
      "Ġinan": 3520,
      "ĠBar": 3521,
      "Ġalm": 3522,
      "part": 3523,
      "ĠbaÄŁÄ±ÅŁ": 3524,
      "Ġvak": 3525,
      "Ġtemel": 3526,
      "Ġhimself": 3527,
      "ondon": 3528,
      "Ġusing": 3529,
      "Ġded": 3530,
      "Ġsavunma": 3531,
      "uma": 3532,
      "Ġfact": 3533,
      "These": 3534,
      "cil": 3535,
      "Ġcast": 3536,
      "Ġiy": 3537,
      "Ġbulunuyor": 3538,
      "Ġdemir": 3539,
      "Ġhig": 3540,
      "Ġyetkil": 3541,
      "Ġyal": 3542,
      "Ġ70": 3543,
      "ĠyabancÄ±": 3544,
      "ami": 3545,
      "daroÄŁlu": 3546,
      "ĠDylan": 3547,
      "ountain": 3548,
      "Ġindir": 3549,
      "Ġbildirdi": 3550,
      "Ġcat": 3551,
      "Ġberaber": 3552,
      "ĠiÅŁlet": 3553,
      "ained": 3554,
      "ĠÃ§ar": 3555,
      "yardÄ±m": 3556,
      "eceÄŁiz": 3557,
      "ico": 3558,
      "Ġorganiz": 3559,
      "ĠLondon": 3560,
      "aul": 3561,
      "Ġpra": 3562,
      "Ġ2003": 3563,
      "Ġsignificant": 3564,
      "ream": 3565,
      "Ġfelt": 3566,
      "ĠÃ§alÄ±ÅŁma": 3567,
      "istin": 3568,
      "Ġvol": 3569,
      "ront": 3570,
      "Ġgec": 3571,
      "ints": 3572,
      "ĠsÄ±rasÄ±nda": 3573,
      "ĠmÄ±": 3574,
      "ĠuÄŁ": 3575,
      "mesine": 3576,
      "Ġke": 3577,
      "Ġground": 3578,
      "ford": 3579,
      "Ġilet": 3580,
      "Ġteklif": 3581,
      "cih": 3582,
      "Ġsonucu": 3583,
      "ĠdÃ¶r": 3584,
      "Ġperformed": 3585,
      "Ġ80": 3586,
      "laÅŁtÄ±r": 3587,
      "Ġfig": 3588,
      "ĠGeneral": 3589,
      "ĠdÄ±ÅŁÄ±nda": 3590,
      "Ġvir": 3591,
      "siniz": 3592,
      "Ġotur": 3593,
      "Ġmodel": 3594,
      "Ġhalinde": 3595,
      "idence": 3596,
      "Ġduyur": 3597,
      "Ġoccur": 3598,
      "Ġimportant": 3599,
      "ray": 3600,
      "Ġnight": 3601,
      "Ġnit": 3602,
      "Ã¼ncÃ¼": 3603,
      "ĠÃ¼nlÃ¼": 3604,
      "ords": 3605,
      "ĠGre": 3606,
      "Ġsanay": 3607,
      "Ġ2015": 3608,
      "Ġmiles": 3609,
      "Ġfull": 3610,
      "Ġfen": 3611,
      "ĠaÃ§Ä±": 3612,
      "Ġmid": 3613,
      "ka": 3614,
      "Ġaskeri": 3615,
      "Ġvarious": 3616,
      "Ġlab": 3617,
      "cted": 3618,
      "alarÄ±nda": 3619,
      "Ġgrubu": 3620,
      "ĠIreland": 3621,
      "Ġbebek": 3622,
      "Ġgez": 3623,
      "Ġnden": 3624,
      "ĠÃ¶ldÃ¼r": 3625,
      "abilecek": 3626,
      "Ġdestroy": 3627,
      "Ġwhite": 3628,
      "app": 3629,
      "ck": 3630,
      "ĠOld": 3631,
      "malarÄ±": 3632,
      "Ġhuman": 3633,
      "used": 3634,
      "Ġyat": 3635,
      "fic": 3636,
      "afa": 3637,
      "Ä±lÄ±Ã§daroÄŁlu": 3638,
      "ĠlazÄ±m": 3639,
      "ĠbarÄ±ÅŁ": 3640,
      "ests": 3641,
      "Ġihrac": 3642,
      "Ġ36": 3643,
      "Ġdevelopment": 3644,
      "Ġrock": 3645,
      "lemek": 3646,
      "Ġlook": 3647,
      "Ġbal": 3648,
      "ĠdeÄŁiÅŁtir": 3649,
      "Ġproc": 3650,
      "Ġyeter": 3651,
      "Ġareas": 3652,
      "Ġlo": 3653,
      "Ġiddia": 3654,
      "tih": 3655,
      "Ġ90": 3656,
      "sunuz": 3657,
      "ean": 3658,
      "Ġfaaliyet": 3659,
      "Ġdied": 3660,
      "ĠÅŁub": 3661,
      "Ġlaw": 3662,
      "aff": 3663,
      "lamak": 3664,
      "Ġtelevision": 3665,
      "Ġobser": 3666,
      "Ġpeak": 3667,
      "Ġwriting": 3668,
      "yl": 3669,
      "Ġwent": 3670,
      "lediÄŁi": 3671,
      "Ġ189": 3672,
      "Ġaday": 3673,
      "ĠaÃ§Ä±sÄ±ndan": 3674,
      "Ġshould": 3675,
      "stit": 3676,
      "ĠkatkÄ±": 3677,
      "ĠtÃ¶ren": 3678,
      "yardÄ±mcÄ±sÄ±": 3679,
      "Ġgoogle": 3680,
      "Ġsuccessful": 3681,
      "ash": 3682,
      "leniyor": 3683,
      "Ġcin": 3684,
      "ĠyÄ±ldÄ±r": 3685,
      "imately": 3686,
      "ida": 3687,
      "Ġdoes": 3688,
      "Ġmedi": 3689,
      "ota": 3690,
      "elerde": 3691,
      "Ġneed": 3692,
      "ba": 3693,
      "cel": 3694,
      "abÄ±": 3695,
      "demir": 3696,
      "ĠmÃ¼dÃ¼r": 3697,
      "ĠPer": 3698,
      "ĠAir": 3699,
      "Ġpain": 3700,
      "ĠNo": 3701,
      "Ġazal": 3702,
      "Ġbelirtildi": 3703,
      "Ġfav": 3704,
      "20": 3705,
      "Ġforce": 3706,
      "asyonu": 3707,
      "Ġstarted": 3708,
      "ĠbaÅŁarÄ±lÄ±": 3709,
      "ĠWe": 3710,
      "Ġpara": 3711,
      "ĠadÄ±": 3712,
      "Ġmix": 3713,
      "Ġevents": 3714,
      "ĠAustralia": 3715,
      "tesi": 3716,
      "ĠyÃ¶netmen": 3717,
      "Ġfeet": 3718,
      "Ġformed": 3719,
      "Ġrange": 3720,
      "Ġsee": 3721,
      "Ġtechn": 3722,
      "urg": 3723,
      "Ġplayers": 3724,
      "madÄ±": 3725,
      "Ġtas": 3726,
      "Ġgeliyor": 3727,
      "Ġlive": 3728,
      "ising": 3729,
      "Ġelect": 3730,
      "ĠdoÄŁal": 3731,
      "Ġkriz": 3732,
      "Ä±sÄ±yla": 3733,
      "Ġactiv": 3734,
      "ĠkullanÄ±": 3735,
      "Ġbus": 3736,
      "Ġgl": 3737,
      "ĠyaÅŁanan": 3738,
      "Ġexamp": 3739,
      "Ġonun": 3740,
      "Ġceza": 3741,
      "Ġfather": 3742,
      "bank": 3743,
      "rum": 3744,
      "ĠJack": 3745,
      "Ġpoem": 3746,
      "Ġvilla": 3747,
      "itive": 3748,
      "Ġsem": 3749,
      "ensive": 3750,
      "Ä±sÄ±nÄ±n": 3751,
      "Ġcaused": 3752,
      "ÄŁinin": 3753,
      "ones": 3754,
      "Ġelektrik": 3755,
      "earch": 3756,
      "Ġiniti": 3757,
      "iness": 3758,
      "ĠDav": 3759,
      "go": 3760,
      "Ġ2014": 3761,
      "Ġread": 3762,
      "ĠWilliam": 3763,
      "bi": 3764,
      "form": 3765,
      "Ġrelations": 3766,
      "ĠÃ¼yesi": 3767,
      "gy": 3768,
      "ĠÅŁeh": 3769,
      "Ġsett": 3770,
      "ĠbulunduÄŁu": 3771,
      "Ġenf": 3772,
      "nd": 3773,
      "Ġtoo": 3774,
      "Ġbundan": 3775,
      "ĠaltÄ±n": 3776,
      "Ġtercih": 3777,
      "Ġizmir": 3778,
      "sin": 3779,
      "Ġverilen": 3780,
      "iting": 3781,
      "ĠsÃ¼reÃ§": 3782,
      "Ġnovel": 3783,
      "fall": 3784,
      "Ġfilistin": 3785,
      "ĠsoruÅŁtur": 3786,
      "ĠMon": 3787,
      "ĠsÃ¶yleyen": 3788,
      "eksiyon": 3789,
      "Ġmadd": 3790,
      "rik": 3791,
      "ĠsoÄŁ": 3792,
      "Ġhiss": 3793,
      "Ġanim": 3794,
      "aign": 3795,
      "ato": 3796,
      "ological": 3797,
      "Ġgar": 3798,
      "ichael": 3799,
      "Ġsahn": 3800,
      "au": 3801,
      "Ġtor": 3802,
      "Ġedil": 3803,
      "Ġcreated": 3804,
      "Ġofficial": 3805,
      "Ġage": 3806,
      "ĠRoad": 3807,
      "Ġtabi": 3808,
      "kim": 3809,
      "gel": 3810,
      "ison": 3811,
      "Ġikt": 3812,
      "ĠbÃ¼yÃ¼m": 3813,
      "Ġmeclis": 3814,
      "ened": 3815,
      "Ġstyle": 3816,
      "Ġlevel": 3817,
      "ĠarasÄ±ndaki": 3818,
      "ĠeÄŁer": 3819,
      "Ġsuff": 3820,
      "ending": 3821,
      "Ġpot": 3822,
      "Ġortam": 3823,
      "ĠdÃ¼ÅŁÃ¼nÃ¼yor": 3824,
      "deÅŁ": 3825,
      "ĠAll": 3826,
      "omm": 3827,
      "Ġable": 3828,
      "ĠCounty": 3829,
      "ago": 3830,
      "Ġothers": 3831,
      "Ġnedenle": 3832,
      "Ġpolitical": 3833,
      "ĠX": 3834,
      "Ġcel": 3835,
      "Ġnational": 3836,
      "kenin": 3837,
      "Ä±rÄ±": 3838,
      "str": 3839,
      "Ġpil": 3840,
      "erial": 3841,
      "ances": 3842,
      "Ġalmanya": 3843,
      "Ġsize": 3844,
      "ĠgÃ¼ney": 3845,
      "dÃ¼k": 3846,
      "Ġexperi": 3847,
      "cing": 3848,
      "Ġitibaren": 3849,
      "Ġburn": 3850,
      "Ġkuz": 3851,
      "Ġhous": 3852,
      "Ġcoast": 3853,
      "esel": 3854,
      "alarÄ±nÄ±n": 3855,
      "Ġdikkati": 3856,
      "ĠPro": 3857,
      "Ġuzak": 3858,
      "edir": 3859,
      "Ġanne": 3860,
      "Ġpak": 3861,
      "ĠyÃ¼rÃ¼t": 3862,
      "Ġdol": 3863,
      "ĠEl": 3864,
      "ĠsÃ¼": 3865,
      "Ġsum": 3866,
      "cent": 3867,
      "ĠÅŁehir": 3868,
      "Ġele": 3869,
      "menin": 3870,
      "Ġtelevizyon": 3871,
      "iktaÅŁ": 3872,
      "Ġcharacters": 3873,
      "Ġenc": 3874,
      "ĠHa": 3875,
      "ĠÃ¼lkenin": 3876,
      "lacaÄŁÄ±": 3877,
      "ÅŁehir": 3878,
      "Ġfacebook": 3879,
      "Ġsalon": 3880,
      "Ġrelig": 3881,
      "Ġbegin": 3882,
      "ÄŁa": 3883,
      "Ġant": 3884,
      "Ġeffect": 3885,
      "Ġtav": 3886,
      "ĠSu": 3887,
      "ĠyÄ±llÄ±k": 3888,
      "ying": 3889,
      "Ġedeb": 3890,
      "ĠrahatsÄ±z": 3891,
      "ĠkararÄ±": 3892,
      "Ġgazze": 3893,
      "ĠvurguladÄ±": 3894,
      "ĠettiÄŁini": 3895,
      "ĠÅŁart": 3896,
      "ĠdÄ±ÅŁiÅŁleri": 3897,
      "Ġhale": 3898,
      "Ġkilomet": 3899,
      "meden": 3900,
      "Ġrej": 3901,
      "Ġtbm": 3902,
      "Ġlet": 3903,
      "Ġtbmm": 3904,
      "Ġapple": 3905,
      "Ġileri": 3906,
      "ĠamaÃ§": 3907,
      "ĠReg": 3908,
      "ĠmÃ¼cadel": 3909,
      "Ġkamp": 3910,
      "ĠÃ§at": 3911,
      "Ġonce": 3912,
      "Ġhemen": 3913,
      "ĠgeÃ§miÅŁ": 3914,
      "beled": 3915,
      "Ġkonser": 3916,
      "Ġremained": 3917,
      "Ġparti": 3918,
      "Ġ400": 3919,
      "oming": 3920,
      "ogn": 3921,
      "ĠamacÄ±": 3922,
      "ĠÅŁah": 3923,
      "isted": 3924,
      "Ġlittle": 3925,
      "Ġconn": 3926,
      "Ġeuro": 3927,
      "Ġfif": 3928,
      "wing": 3929,
      "asÄ±yla": 3930,
      "Ġsayesinde": 3931,
      "aten": 3932,
      "ĠÅŁik": 3933,
      "ĠalÄ±ÅŁ": 3934,
      "Ġlocated": 3935,
      "Ġahmet": 3936,
      "Ġcross": 3937,
      "ĠSch": 3938,
      "Ġiran": 3939,
      "craft": 3940,
      "Ġ300": 3941,
      "bor": 3942,
      "ayacak": 3943,
      "daÄŁ": 3944,
      "ĠÅŁark": 3945,
      "ering": 3946,
      "Ġscored": 3947,
      "Ġkredi": 3948,
      "Ġboyunca": 3949,
      "Ġpolitik": 3950,
      "ĠeylÃ¼l": 3951,
      "asing": 3952,
      "Ġdiffic": 3953,
      "ica": 3954,
      "ĠRich": 3955,
      "ĠhayatÄ±nÄ±": 3956,
      "Ġbaz": 3957,
      "ator": 3958,
      "Ġbed": 3959,
      "ĠkoÅŁ": 3960,
      "Ġconstruction": 3961,
      "Ġ185": 3962,
      "Ġperformance": 3963,
      "Ġrank": 3964,
      "Ġmeet": 3965,
      "Ġetkil": 3966,
      "ĠPal": 3967,
      "Ġ33": 3968,
      "lus": 3969,
      "ĠÃ¶dem": 3970,
      "Ġcompleted": 3971,
      "vet": 3972,
      "ĠgiriÅŁim": 3973,
      "Ġpromot": 3974,
      "arken": 3975,
      "Ġcumhuriyet": 3976,
      "Ġhangi": 3977,
      "Ġisteyen": 3978,
      "iller": 3979,
      "itted": 3980,
      "atter": 3981,
      "Ġannounced": 3982,
      "Ġmass": 3983,
      "ĠparÃ§": 3984,
      "ĠbeÅŁiktaÅŁ": 3985,
      "ĠAustralian": 3986,
      "ĠâĢĻ": 3987,
      "Ä±ldÄ±ÄŁÄ±nÄ±": 3988,
      "Ġcerrah": 3989,
      "Ġregion": 3990,
      "Ġhelp": 3991,
      "Ġdoc": 3992,
      "nek": 3993,
      "Ġtradition": 3994,
      "Ġyoung": 3995,
      "ĠsanatÃ§Ä±": 3996,
      "Ġassoci": 3997,
      "ĠdolayÄ±": 3998,
      "ĠsayÄ±sÄ±": 3999,
      "ls": 4000,
      "Ġgazetec": 4001,
      "ula": 4002,
      "ĠCor": 4003,
      "ĠÅŁiddet": 4004,
      "tt": 4005,
      "adaki": 4006,
      "masÄ±nda": 4007,
      "ĠChrist": 4008,
      "Ġoffer": 4009,
      "Ġdiz": 4010,
      "aller": 4011,
      "ĠEd": 4012,
      "alam": 4013,
      "ĠyapÄ±yor": 4014,
      "Ġpred": 4015,
      "Ġyana": 4016,
      "Ä±lÄ±r": 4017,
      "Ġguns": 4018,
      "Ġfight": 4019,
      "Ġinstead": 4020,
      "Ġknow": 4021,
      "Ġadded": 4022,
      "Ġbirbir": 4023,
      "Ġbeslen": 4024,
      "Ġbattle": 4025,
      "Ġhaline": 4026,
      "Ä±lÄ±ÄŁÄ±": 4027,
      "Ġbd": 4028,
      "Ġirak": 4029,
      "ĠCompany": 4030,
      "Ġball": 4031,
      "ĠdÃ¼ÅŁÃ¼k": 4032,
      "ully": 4033,
      "Ġissu": 4034,
      "ĠbaÅŁÄ±nda": 4035,
      "Ġpen": 4036,
      "Ġstars": 4037,
      "Ġfollowed": 4038,
      "ality": 4039,
      "tere": 4040,
      "Ġ2002": 4041,
      "itter": 4042,
      "wood": 4043,
      "Ġleast": 4044,
      "alk": 4045,
      "Ġkayded": 4046,
      "Ġkir": 4047,
      "ĠÃ¶zgÃ¼r": 4048,
      "off": 4049,
      "Ã¼len": 4050,
      "ĠÅŁans": 4051,
      "ĠKingdom": 4052,
      "ĠolduÄŁuna": 4053,
      "Ġmor": 4054,
      "ĠIsland": 4055,
      "Ġappeared": 4056,
      "Ã¼le": 4057,
      "Ġworks": 4058,
      "ĠgeniÅŁ": 4059,
      "Ġcampaign": 4060,
      "Ġteknoloji": 4061,
      "Ġquar": 4062,
      "ways": 4063,
      "ĠÃ¶nceki": 4064,
      "Ġcevap": 4065,
      "aba": 4066,
      "Ġkilled": 4067,
      "Ã¶k": 4068,
      "Ġinde": 4069,
      "ĠgÄ±": 4070,
      "esiyle": 4071,
      "ĠkÃ¼rt": 4072,
      "ivid": 4073,
      "Ġmonths": 4074,
      "ĠCup": 4075,
      "Ġnar": 4076,
      "ublic": 4077,
      "alarÄ±nÄ±": 4078,
      "eyin": 4079,
      "Ġbize": 4080,
      "Ġsouthern": 4081,
      "Ġinterest": 4082,
      "Ġoriginally": 4083,
      "ĠsaÄŁlÄ±klÄ±": 4084,
      "uyu": 4085,
      "Ġloss": 4086,
      "phone": 4087,
      "Ġwife": 4088,
      "Ġalacak": 4089,
      "Ġkey": 4090,
      "Ġyapmak": 4091,
      "leet": 4092,
      "Ġzir": 4093,
      "meleri": 4094,
      "ĠPhil": 4095,
      "Ġolsun": 4096,
      "rek": 4097,
      "elling": 4098,
      "emy": 4099,
      "Ġekip": 4100,
      "Ġamerik": 4101,
      "ured": 4102,
      "ĠÃ§eÅŁitli": 4103,
      "ĠAtlan": 4104,
      "ĠoÄŁ": 4105,
      "ald": 4106,
      "yip": 4107,
      "ĠsarÄ±": 4108,
      "Ġvurgulayan": 4109,
      "Ġresmi": 4110,
      "ĠoluÅŁan": 4111,
      "ĠBlack": 4112,
      "Ġtip": 4113,
      "Ġeastern": 4114,
      "ĠhenÃ¼z": 4115,
      "Ġnuc": 4116,
      "ĠanlattÄ±": 4117,
      "Ġcomment": 4118,
      "Ġcompar": 4119,
      "Ġgalib": 4120,
      "ĠakÄ±llÄ±": 4121,
      "Ġagre": 4122,
      "ĠaÄŁrÄ±": 4123,
      "osp": 4124,
      "Ġnec": 4125,
      "Ġticaret": 4126,
      "Ġistiyor": 4127,
      "ĠHar": 4128,
      "ief": 4129,
      "iyesi": 4130,
      "Ġiktid": 4131,
      "Ġste": 4132,
      "Ġprocess": 4133,
      "Ġeder": 4134,
      "Ġident": 4135,
      "enth": 4136,
      "Ä±ÅŁtÄ±r": 4137,
      "abiliyor": 4138,
      "ĠbaÅŁlayan": 4139,
      "Ġorta": 4140,
      "etik": 4141,
      "Ġgoal": 4142,
      "Ġlay": 4143,
      "Ġpark": 4144,
      "ĠRober": 4145,
      "Ġcritics": 4146,
      "ĠJames": 4147,
      "Ġborn": 4148,
      "quad": 4149,
      "Ġwomen": 4150,
      "Ġaver": 4151,
      "Ġfransa": 4152,
      "ĠSte": 4153,
      "Ġhurricane": 4154,
      "ÃŃ": 4155,
      "Ġrelationship": 4156,
      "lanÄ±yor": 4157,
      "Ġweb": 4158,
      "alth": 4159,
      "Ġaward": 4160,
      "Ġeventually": 4161,
      "Ġattr": 4162,
      "Ġkesin": 4163,
      "ĠIntern": 4164,
      "Ġolmayan": 4165,
      "ĠyapÄ±lmasÄ±": 4166,
      "bay": 4167,
      "Ġgeneral": 4168,
      "ĠakÅŁam": 4169,
      "liÄŁini": 4170,
      "maktadÄ±r": 4171,
      "ung": 4172,
      "Ġotom": 4173,
      "Ġsonunda": 4174,
      "Ġbroad": 4175,
      "Ġni": 4176,
      "Ġtaken": 4177,
      "ĠkÄ±": 4178,
      "ĠCro": 4179,
      "Ġiler": 4180,
      "Ã¡": 4181,
      "ĠalÄ±nan": 4182,
      "Ġproject": 4183,
      "sak": 4184,
      "Ġ2000": 4185,
      "ĠMag": 4186,
      "Ġcep": 4187,
      "arch": 4188,
      "Ġgiy": 4189,
      "bet": 4190,
      "Ġdal": 4191,
      "ĠsonrasÄ±": 4192,
      "wo": 4193,
      "ĠbaÄŁÄ±m": 4194,
      "mÄ±z": 4195,
      "ense": 4196,
      "Ġappo": 4197,
      "Ġroute": 4198,
      "orse": 4199,
      "ĠHigh": 4200,
      "ender": 4201,
      "Ġfourth": 4202,
      "ligi": 4203,
      "Ġfeatures": 4204,
      "Ġsahibi": 4205,
      "ĠbugÃ¼ne": 4206,
      "ĠihtiyaÃ§": 4207,
      "Ġeg": 4208,
      "Ġheavy": 4209,
      "ĠsayÄ±n": 4210,
      "Ġast": 4211,
      "Ġsand": 4212,
      "ĠÃ¶nÃ¼mÃ¼z": 4213,
      "ĠaydÄ±n": 4214,
      "dÃ¼ÄŁÃ¼nÃ¼": 4215,
      "Ġserved": 4216,
      "ration": 4217,
      "ukuk": 4218,
      "ĠAs": 4219,
      "Ġarm": 4220,
      "Ġwall": 4221,
      "Ġdamage": 4222,
      "Ä±sÄ±nÄ±": 4223,
      "gun": 4224,
      "ĠSom": 4225,
      "Ġrady": 4226,
      "St": 4227,
      "ordan": 4228,
      "Ġdahil": 4229,
      "Ġsok": 4230,
      "ĠuÃ§ak": 4231,
      "ĠcumhurbaÅŁkanÄ±": 4232,
      "amÄ±z": 4233,
      "Ġlack": 4234,
      "Ġhesap": 4235,
      "Ġ2001": 4236,
      "Ġpk": 4237,
      "Ġkalan": 4238,
      "Ġestim": 4239,
      "Ġtrib": 4240,
      "ĠBo": 4241,
      "azine": 4242,
      "mel": 4243,
      "Ġking": 4244,
      "Ġeither": 4245,
      "Ġbreak": 4246,
      "Ġmother": 4247,
      "ĠMor": 4248,
      "ĠÃ§ekti": 4249,
      "Ġdecided": 4250,
      "Ġkork": 4251,
      "Ġsold": 4252,
      "ĠÃ§ift": 4253,
      "ita": 4254,
      "Ġkaydeden": 4255,
      "ĠArmy": 4256,
      "Ġvoc": 4257,
      "ĠPol": 4258,
      "to": 4259,
      "ĠsÄ±kÄ±ntÄ±": 4260,
      "ĠFrance": 4261,
      "Ġrecogn": 4262,
      "Äģ": 4263,
      "Ġmo": 4264,
      "era": 4265,
      "Ġbehind": 4266,
      "Ġrepresent": 4267,
      "yen": 4268,
      "ĠsÄ±rada": 4269,
      "ĠBattalion": 4270,
      "osaur": 4271,
      "ahÃ§e": 4272,
      "Ġbelieved": 4273,
      "elen": 4274,
      "Ġsigara": 4275,
      "Ġmiss": 4276,
      "liv": 4277,
      "Ġtoget": 4278,
      "Ġtogether": 4279,
      "ĠyaptÄ±r": 4280,
      "Ġbeyaz": 4281,
      "ste": 4282,
      "Ġcommer": 4283,
      "Ġdair": 4284,
      "olar": 4285,
      "Ġtemsilc": 4286,
      "Ġihracat": 4287,
      "Ġcondom": 4288,
      "Ġ38": 4289,
      "antry": 4290,
      "alya": 4291,
      "Ġsepar": 4292,
      "Ġinsp": 4293,
      "Ġbdp": 4294,
      "Ġsex": 4295,
      "Ġasl": 4296,
      "car": 4297,
      "uble": 4298,
      "Ġcreat": 4299,
      "Ġneg": 4300,
      "Ġ32": 4301,
      "gre": 4302,
      "Ġ188": 4303,
      "alarÄ±na": 4304,
      "Ġbunlar": 4305,
      "Ã¼nden": 4306,
      "layarak": 4307,
      "Ġplaying": 4308,
      "kaÃ§": 4309,
      "kom": 4310,
      "Ġop": 4311,
      "Ġkons": 4312,
      "Ġindivid": 4313,
      "Ġclear": 4314,
      "Ġcover": 4315,
      "Ä±rken": 4316,
      "mayan": 4317,
      "Ġip": 4318,
      "ĠyaÅŁayan": 4319,
      "ban": 4320,
      "ĠgÃ¶rÃ¼ntÃ¼": 4321,
      "ination": 4322,
      "ĠkullanÄ±m": 4323,
      "Ġsw": 4324,
      "ĠBill": 4325,
      "mah": 4326,
      "igned": 4327,
      "ĠÃ¼Ã§Ã¼ncÃ¼": 4328,
      "Ġkarak": 4329,
      "spor": 4330,
      "Ġspecial": 4331,
      "ĠiÅŁte": 4332,
      "Ġhik": 4333,
      "olution": 4334,
      "ĠEar": 4335,
      "Ġsorum": 4336,
      "Ġservice": 4337,
      "Ġexample": 4338,
      "ullah": 4339,
      "Ġhukuk": 4340,
      "mektedir": 4341,
      "Ġfestival": 4342,
      "Ġcell": 4343,
      "Ġpolis": 4344,
      "ades": 4345,
      "gs": 4346,
      "Ġalmost": 4347,
      "dÃ¼ÄŁÃ¼": 4348,
      "ni": 4349,
      "Ġcyc": 4350,
      "amaz": 4351,
      "Ġclose": 4352,
      "mÃ¼ÅŁ": 4353,
      "ildiÄŁi": 4354,
      "Ġgider": 4355,
      "Ġpast": 4356,
      "ĠEv": 4357,
      "meyen": 4358,
      "Ġbi": 4359,
      "Ġyapacak": 4360,
      "ĠYou": 4361,
      "Ġclos": 4362,
      "Ġsaf": 4363,
      "ee": 4364,
      "aching": 4365,
      "aving": 4366,
      "ĠtÄ±p": 4367,
      "Ġaccept": 4368,
      "liament": 4369,
      "ĠaÃ§Ä±klama": 4370,
      "Ġmove": 4371,
      "ĠSec": 4372,
      "ĠÃ¶lÃ§": 4373,
      "uklu": 4374,
      "Ġhouse": 4375,
      "Ġleading": 4376,
      "Ġfall": 4377,
      "Ġpetrol": 4378,
      "Ġrakam": 4379,
      "ĠalbÃ¼m": 4380,
      "Ġcentral": 4381,
      "Ġkilo": 4382,
      "ecut": 4383,
      "ederer": 4384,
      "ids": 4385,
      "osu": 4386,
      "utes": 4387,
      "Ġ65": 4388,
      "ĠkatÄ±ldÄ±": 4389,
      "Ġhost": 4390,
      "inal": 4391,
      "Ġopened": 4392,
      "Ġanayasa": 4393,
      "ĠTown": 4394,
      "omas": 4395,
      "lue": 4396,
      "Ġcurr": 4397,
      "Ġgenerally": 4398,
      "anan": 4399,
      "Ġhab": 4400,
      "Ġtowards": 4401,
      "Ġpkk": 4402,
      "lev": 4403,
      "ĠHol": 4404,
      "ko": 4405,
      "Ġobama": 4406,
      "ĠbuluÅŁ": 4407,
      "ulmasÄ±": 4408,
      "esinden": 4409,
      "Ġton": 4410,
      "aper": 4411,
      "Ġasker": 4412,
      "Ġfutbolcu": 4413,
      "Ġweeks": 4414,
      "lÄ±ÄŁÄ±nÄ±": 4415,
      "Ġgerekir": 4416,
      "Ġosman": 4417,
      "Ġ186": 4418,
      "lied": 4419,
      "ceed": 4420,
      "Ġmuht": 4421,
      "Ġbrought": 4422,
      "ĠRoyal": 4423,
      "Ġdamar": 4424,
      "Ġnon": 4425,
      "Ġsour": 4426,
      "ĠGrand": 4427,
      "Ġlaun": 4428,
      "Ġfinished": 4429,
      "ĠCre": 4430,
      "Ġgerekli": 4431,
      "Ġinterv": 4432,
      "chiev": 4433,
      "Ġelements": 4434,
      "ĠSw": 4435,
      "ĠamacÄ±yla": 4436,
      "ĠLove": 4437,
      "Ġhan": 4438,
      "Ġmutlak": 4439,
      "Ġcost": 4440,
      "Ġalmak": 4441,
      "Ġlangu": 4442,
      "rict": 4443,
      "Ġtre": 4444,
      "Ġmahk": 4445,
      "onya": 4446,
      "Ġtat": 4447,
      "lÄ±kla": 4448,
      "labilir": 4449,
      "omes": 4450,
      "Ġsaw": 4451,
      "ĠkardeÅŁ": 4452,
      "atic": 4453,
      "ĠÃ§ocuÄŁ": 4454,
      "sas": 4455,
      "Ġfeatured": 4456,
      "Ġciv": 4457,
      "ĠyaÅŁÄ±ndaki": 4458,
      "Ġpan": 4459,
      "ho": 4460,
      "Ġsayf": 4461,
      "orts": 4462,
      "iction": 4463,
      "Ġyun": 4464,
      "ĠMex": 4465,
      "Ġaircraft": 4466,
      "ows": 4467,
      "Ġbildirildi": 4468,
      "read": 4469,
      "lies": 4470,
      "Ġregular": 4471,
      "iyatro": 4472,
      "ems": 4473,
      "ĠSim": 4474,
      "erbahÃ§e": 4475,
      "ĠÃ¶rnek": 4476,
      "elerinde": 4477,
      "ĠsaÄŁlan": 4478,
      "ĠBrigade": 4479,
      "ental": 4480,
      "Ġuygulama": 4481,
      "tayyip": 4482,
      "Ġgalibiyet": 4483,
      "Ġcommand": 4484,
      "ĠEuropean": 4485,
      "Ġdiyor": 4486,
      "Ġperformans": 4487,
      "Ġdirected": 4488,
      "ĠdÃ¼zey": 4489,
      "gal": 4490,
      "Ġkuzey": 4491,
      "Ã§ev": 4492,
      "ws": 4493,
      "Ġstudy": 4494,
      "Ġbelediye": 4495,
      "atik": 4496,
      "Ġpoints": 4497,
      "ĠkÄ±ÅŁ": 4498,
      "Ä±nÃ§": 4499,
      "kÃ¼r": 4500,
      "Ġ48": 4501,
      "Ġfront": 4502,
      "Ġprovided": 4503,
      "tÃ¶r": 4504,
      "One": 4505,
      "aker": 4506,
      "Ġaction": 4507,
      "Ġmustafa": 4508,
      "Ġkurulu": 4509,
      "ĠdÃ¶rt": 4510,
      "Ġkurt": 4511,
      "Ġmahkem": 4512,
      "ĠÃ§er": 4513,
      "Ġaraya": 4514,
      "Ġdirector": 4515,
      "ĠtoplantÄ±s": 4516,
      "Ġupon": 4517,
      "Ġindustr": 4518,
      "ĠdaÄŁÄ±": 4519,
      "Ġyorum": 4520,
      "Ġhit": 4521,
      "ĠDavid": 4522,
      "ĠViet": 4523,
      "Ġhighway": 4524,
      "Ġmeas": 4525,
      "madÄ±ÄŁÄ±nÄ±": 4526,
      "kel": 4527,
      "ĠgÃ¶k": 4528,
      "Ġround": 4529,
      "Ġdiyen": 4530,
      "ĠÃ¶ne": 4531,
      "ĠkatÄ±lÄ±m": 4532,
      "Ġappearance": 4533,
      "ĠÃ¼niversitesi": 4534,
      "Ġmean": 4535,
      "iding": 4536,
      "icro": 4537,
      "Ġearlier": 4538,
      "Des": 4539,
      "ku": 4540,
      "Ġdakik": 4541,
      "ĠmÄ±s": 4542,
      "ĠbaÄŁlan": 4543,
      "Ġindic": 4544,
      "eum": 4545,
      "Ġmh": 4546,
      "Ġriver": 4547,
      "ĠRock": 4548,
      "ĠbirkaÃ§": 4549,
      "Ġredu": 4550,
      "Ġdifficult": 4551,
      "ĠÃ¼cret": 4552,
      "Ġsend": 4553,
      "ĠtaÅŁÄ±y": 4554,
      "Ġflood": 4555,
      "Ġrather": 4556,
      "ĠkÄ±sm": 4557,
      "ĠChampionship": 4558,
      "enced": 4559,
      "ground": 4560,
      "ĠyetiÅŁ": 4561,
      "Ġfemale": 4562,
      "Ġyard": 4563,
      "ector": 4564,
      "ĠÅŁeker": 4565,
      "landa": 4566,
      "lad": 4567,
      "Ġcam": 4568,
      "ring": 4569,
      "Ġrespect": 4570,
      "ĠsatÄ±n": 4571,
      "ues": 4572,
      "asÄ±ndan": 4573,
      "ĠkullanÄ±lan": 4574,
      "ĠHero": 4575,
      "enti": 4576,
      "Ġcem": 4577,
      "gar": 4578,
      "Ġma": 4579,
      "Ġkanun": 4580,
      "Ġvi": 4581,
      "Ġyazar": 4582,
      "ĠaslÄ±nda": 4583,
      "hest": 4584,
      "nal": 4585,
      "ollowing": 4586,
      "Ġlargest": 4587,
      "Ġkapat": 4588,
      "Some": 4589,
      "Ġtun": 4590,
      "omp": 4591,
      "Ġmek": 4592,
      "Ġsubsequ": 4593,
      "ĠadÄ±na": 4594,
      "Ġhon": 4595,
      "kar": 4596,
      "Ġinform": 4597,
      "Ġsequ": 4598,
      "Ġparticularly": 4599,
      "umb": 4600,
      "Ġmiktar": 4601,
      "Ġvictory": 4602,
      "ĠHam": 4603,
      "ĠsayÄ±da": 4604,
      "ential": 4605,
      "ĠhÄ±zlÄ±": 4606,
      "Ġmutlaka": 4607,
      "Ġedilmesi": 4608,
      "ĠÃ¶zellik": 4609,
      "ĠyanÄ±nda": 4610,
      "Ġsoruml": 4611,
      "for": 4612,
      "ĠdÄ±ÅŁÄ±": 4613,
      "sue": 4614,
      "Ġachiev": 4615,
      "Ġresul": 4616,
      "Ġemploy": 4617,
      "Ġada": 4618,
      "nam": 4619,
      "ĠsoÄŁuk": 4620,
      "ÄŁÄ±nÄ±n": 4621,
      "fak": 4622,
      "Ġopening": 4623,
      "ĠÃ¶nÃ¼mÃ¼zdeki": 4624,
      "ĠgÃ¼neÅŁ": 4625,
      "ĠAct": 4626,
      "Ġextr": 4627,
      "Ġresearch": 4628,
      "Ġkadro": 4629,
      "eth": 4630,
      "Ġtroops": 4631,
      "ĠÅŁikayet": 4632,
      "Ġyans": 4633,
      "ĠCr": 4634,
      "Ġcondu": 4635,
      "asi": 4636,
      "za": 4637,
      "ĠfenerbahÃ§e": 4638,
      "ĠVal": 4639,
      "ĠGod": 4640,
      "Ġwanted": 4641,
      "umsuz": 4642,
      "Ġolup": 4643,
      "ĠdolayÄ±sÄ±yla": 4644,
      "ĠAtlantic": 4645,
      "Ġreli": 4646,
      "ĠPres": 4647,
      "Ġ1970": 4648,
      "Ġengine": 4649,
      "Ġcut": 4650,
      "ĠreÃ§": 4651,
      "Ġtaraftar": 4652,
      "thlet": 4653,
      "Ġyards": 4654,
      "Ġdern": 4655,
      "Ġlove": 4656,
      "ĠoranÄ±": 4657,
      "Ġpossible": 4658,
      "ĠIt": 4659,
      "ption": 4660,
      "bilir": 4661,
      "Ġmember": 4662,
      "Ġpoor": 4663,
      "Following": 4664,
      "Ġnorthern": 4665,
      "Ġgiz": 4666,
      "imizi": 4667,
      "Ġ1990": 4668,
      "Ġmeydana": 4669,
      "ĠyarÄ±n": 4670,
      "hal": 4671,
      "Ġpi": 4672,
      "ĠmaÃ§Ä±": 4673,
      "Ġingiltere": 4674,
      "ounted": 4675,
      "Ġevidence": 4676,
      "ĠdirektÃ¶r": 4677,
      "Ġterm": 4678,
      "Ġfoc": 4679,
      "west": 4680,
      "board": 4681,
      "Ġleng": 4682,
      "Ġfilmi": 4683,
      "Ġyemek": 4684,
      "Ġdiyabet": 4685,
      "Ġallowed": 4686,
      "ĠCoun": 4687,
      "ĠmaÃ§Ä±nda": 4688,
      "gÃ¼l": 4689,
      "Ġoperations": 4690,
      "atÃ¶r": 4691,
      "Ġarz": 4692,
      "imizin": 4693,
      "Ġmanager": 4694,
      "Ġoutside": 4695,
      "Ġbiraz": 4696,
      "Ġinsanlar": 4697,
      "Ġbana": 4698,
      "Ġstren": 4699,
      "lorida": 4700,
      "ĠRec": 4701,
      "Ġsaying": 4702,
      "ĠyayÄ±m": 4703,
      "Ġroman": 4704,
      "Ġgeb": 4705,
      "Ġreason": 4706,
      "ĠÃ§erÃ§ev": 4707,
      "ouri": 4708,
      "ĠJew": 4709,
      "ĠStreet": 4710,
      "lenmesi": 4711,
      "Ġhours": 4712,
      "Ġderece": 4713,
      "olojik": 4714,
      "Ġcihan": 4715,
      "Ġwhom": 4716,
      "aves": 4717,
      "nes": 4718,
      "adolu": 4719,
      "Ä±nca": 4720,
      "Ġur": 4721,
      "Ġsus": 4722,
      "ĠdoÃ§": 4723,
      "yan": 4724,
      "ĠbunlarÄ±n": 4725,
      "ĠInternational": 4726,
      "Ġ*": 4727,
      "ĠkonuÅŁan": 4728,
      "iddle": 4729,
      "erous": 4730,
      "arbak": 4731,
      "ellow": 4732,
      "ĠGal": 4733,
      "oca": 4734,
      "atural": 4735,
      "Ġstage": 4736,
      "Ä±ÅŁÄ±": 4737,
      "ena": 4738,
      "Ġcop": 4739,
      "Ġexist": 4740,
      "Ġworking": 4741,
      "lerce": 4742,
      "Ġworked": 4743,
      "oÄŁu": 4744,
      "Ã¼yle": 4745,
      "Ġ34": 4746,
      "Ġ187": 4747,
      "Ġkaybetti": 4748,
      "hi": 4749,
      "Ġsiyaset": 4750,
      "tak": 4751,
      "Ġregard": 4752,
      "Ġtopr": 4753,
      "Ġfakat": 4754,
      "Ġaudi": 4755,
      "Ġstreng": 4756,
      "porary": 4757,
      "Ġcase": 4758,
      "Ġyolu": 4759,
      "ÄŁÄ±m": 4760,
      "bit": 4761,
      "ĠWhite": 4762,
      "Ġshar": 4763,
      "Ġolumsuz": 4764,
      "ĠMissouri": 4765,
      "Ġfon": 4766,
      "Ġmilletvekil": 4767,
      "Ġlength": 4768,
      "ardÄ±r": 4769,
      "rece": 4770,
      "ĠbaÅŁta": 4771,
      "tuÄŁ": 4772,
      "Ġ150": 4773,
      "mesinin": 4774,
      "ille": 4775,
      "deniz": 4776,
      "Ġsakat": 4777,
      "ĠSan": 4778,
      "Ġstop": 4779,
      "Ġmhp": 4780,
      "Ġterrit": 4781,
      "Ġsanayi": 4782,
      "Ġbusiness": 4783,
      "gaz": 4784,
      "Ġpract": 4785,
      "Ġrul": 4786,
      "ĠkeÅŁ": 4787,
      "Ġtehlik": 4788,
      "cum": 4789,
      "Ġpers": 4790,
      "Ġarac": 4791,
      "Ġmach": 4792,
      "Ġumut": 4793,
      "Ġndan": 4794,
      "Ġtrab": 4795,
      "Ã¼ltesi": 4796,
      "Ġfer": 4797,
      "Ġrespons": 4798,
      "ĠÅŁubat": 4799,
      "arbakÄ±r": 4800,
      "Ġinvest": 4801,
      "emey": 4802,
      "miyor": 4803,
      "oloji": 4804,
      "Ġdesigned": 4805,
      "Ġsurf": 4806,
      "iliÄŁi": 4807,
      "anlÄ±": 4808,
      "kul": 4809,
      "Ġthink": 4810,
      "ĠÃ§ab": 4811,
      "Ġiphone": 4812,
      "Ġbeyin": 4813,
      "ÄŁiniz": 4814,
      "ming": 4815,
      "zan": 4816,
      "dies": 4817,
      "ersiz": 4818,
      "Ġoyunc": 4819,
      "Ġintens": 4820,
      "ĠyÄ±llar": 4821,
      "Ġweak": 4822,
      "Ġdurumda": 4823,
      "ĠCarey": 4824,
      "ishing": 4825,
      "hy": 4826,
      "ĠkiÅŁiler": 4827,
      "recep": 4828,
      "Ä±sÄ±na": 4829,
      "Ġtamamen": 4830,
      "Ġpraised": 4831,
      "To": 4832,
      "evi": 4833,
      "Ġ47": 4834,
      "Ġsuper": 4835,
      "Ġcm": 4836,
      "pro": 4837,
      "rd": 4838,
      "anding": 4839,
      "ĠhastalÄ±ÄŁÄ±": 4840,
      "ĠyapÄ±m": 4841,
      "ultan": 4842,
      "Ġstay": 4843,
      "Ġyarar": 4844,
      "Ġavail": 4845,
      "ĠÃ§aÄŁr": 4846,
      "Ġforced": 4847,
      "aÄŁa": 4848,
      "Ġquick": 4849,
      "ights": 4850,
      "Ġzam": 4851,
      "ĠChristian": 4852,
      "ĠmÃ¼da": 4853,
      "ĠkarÅŁÄ±lÄ±k": 4854,
      "ĠaltÄ±na": 4855,
      "Ġconstruct": 4856,
      "Ġvarsa": 4857,
      "Ġremains": 4858,
      "Ġwinds": 4859,
      "Ġ+": 4860,
      "Ġkuru": 4861,
      "Ġ37": 4862,
      "ĠComman": 4863,
      "Ġ39": 4864,
      "Ġkendisine": 4865,
      "tured": 4866,
      "Ġhekim": 4867,
      "Ġeylem": 4868,
      "elerine": 4869,
      "Ġstation": 4870,
      "Ġhus": 4871,
      "itu": 4872,
      "ĠaÅŁk": 4873,
      "akes": 4874,
      "eyle": 4875,
      "action": 4876,
      "Ġdurumunda": 4877,
      "Ġaltern": 4878,
      "ĠAm": 4879,
      "Ġyeterli": 4880,
      "Ġinternational": 4881,
      "ĠÂ£": 4882,
      "ĠÃ¼lkemiz": 4883,
      "Ġrain": 4884,
      "ĠiletiÅŁim": 4885,
      "irst": 4886,
      "Ġsonuc": 4887,
      "ĠRobert": 4888,
      "Ġnomin": 4889,
      "ediÄŁini": 4890,
      "Ġincreased": 4891,
      "Ġplatform": 4892,
      "ĠÃ¼lkede": 4893,
      "Ġbelli": 4894,
      "har": 4895,
      "diÅŁ": 4896,
      "ffic": 4897,
      "Ġprotest": 4898,
      "istic": 4899,
      "Ġzaten": 4900,
      "Ġmevcut": 4901,
      "Ġpreviously": 4902,
      "ĠboÅŁ": 4903,
      "Ġkart": 4904,
      "ĠfÃ¼z": 4905,
      "Ġgoals": 4906,
      "Ġdemokras": 4907,
      "ĠRed": 4908,
      "ĠCo": 4909,
      "ilerek": 4910,
      "dam": 4911,
      "ĠEast": 4912,
      "Ġreplaced": 4913,
      "heast": 4914,
      "ĠdÃ¶neminde": 4915,
      "ĠdiyarbakÄ±r": 4916,
      "Ġabove": 4917,
      "Ġmobil": 4918,
      "Ġmutlu": 4919,
      "Ġhasta": 4920,
      "gÃ¶r": 4921,
      "Ġsoon": 4922,
      "Ġhayata": 4923,
      "Ġtreat": 4924,
      "ĠyÄ±llarda": 4925,
      "lÃ¼yor": 4926,
      "ĠDay": 4927,
      "mamasÄ±": 4928,
      "adem": 4929,
      "Ġtiyatro": 4930,
      "ĠRep": 4931,
      "leÅŁme": 4932,
      "hod": 4933,
      "ural": 4934,
      "oms": 4935,
      "Ġifadelerini": 4936,
      "ĠSy": 4937,
      "ĠHen": 4938,
      "ĠkÄ±rmÄ±z": 4939,
      "cast": 4940,
      "field": 4941,
      "ĠItal": 4942,
      "Ä±lÄ±ÅŁ": 4943,
      "ĠgÃ¶rÃ¼len": 4944,
      "ĠBay": 4945,
      "ĠHouse": 4946,
      "lÄ±ÄŁÄ±n": 4947,
      "ga": 4948,
      "Ġsi": 4949,
      "ĠWales": 4950,
      "ĠbulunduÄŁunu": 4951,
      "Ġmaintain": 4952,
      "Ġvit": 4953,
      "Ġsabah": 4954,
      "Ġkalit": 4955,
      "quar": 4956,
      "Ġyasak": 4957,
      "meli": 4958,
      "ĠbakÄ±m": 4959,
      "Ġsamsun": 4960,
      "Ã¼f": 4961,
      "Ġly": 4962,
      "Ġaile": 4963,
      "Ġhard": 4964,
      "Ġ1980": 4965,
      "ll": 4966,
      "ument": 4967,
      "Ġ42": 4968,
      "vest": 4969,
      "ĠinsanlarÄ±n": 4970,
      "gesi": 4971,
      "ĠWal": 4972,
      "ĠkayÄ±t": 4973,
      "luÄŁ": 4974,
      "asion": 4975,
      "Ġtwitter": 4976,
      "ediÄŁi": 4977,
      "amasÄ±": 4978,
      "hat": 4979,
      "Ġ44": 4980,
      "ibuted": 4981,
      "Ġinterview": 4982,
      "aint": 4983,
      "ĠolmadÄ±ÄŁÄ±": 4984,
      "Ġwriter": 4985,
      "onc": 4986,
      "Ġelektron": 4987,
      "hens": 4988,
      "Ġthreat": 4989,
      "ĠgÃ¶tÃ¼r": 4990,
      "lav": 4991,
      "mÄ±ÅŁtÄ±r": 4992,
      "Ġmph": 4993,
      "Ġfatih": 4994,
      "ĠCanada": 4995,
      "ĠmÄ±sÄ±r": 4996,
      "ĠOne": 4997,
      "ayla": 4998,
      "ĠÂ°": 4999,
      "ĠsÃ¼ren": 5000,
      "etimes": 5001,
      "Ġ183": 5002,
      "atin": 5003,
      "Ġesp": 5004,
      "Ġestimated": 5005,
      "isyonu": 5006,
      "aval": 5007,
      "ĠBest": 5008,
      "bert": 5009,
      "ĠAfrica": 5010,
      "Ġnetwork": 5011,
      "Ġunits": 5012,
      "Ġpriv": 5013,
      "Ġjoined": 5014,
      "ĠdeÄŁildir": 5015,
      "ĠÃ¶ÄŁret": 5016,
      "ĠMad": 5017,
      "Ġcompos": 5018,
      "Ġclaimed": 5019,
      "ĠolacaÄŁÄ±nÄ±": 5020,
      "Ġhighest": 5021,
      "ĠMary": 5022,
      "lement": 5023,
      "Ġgiren": 5024,
      "Ġcapital": 5025,
      "oid": 5026,
      "alama": 5027,
      "Ġsinema": 5028,
      "ĠoranÄ±nda": 5029,
      "ĠgÃ¶rÃ¼ÅŁmeler": 5030,
      "play": 5031,
      "ulti": 5032,
      "Ġtouch": 5033,
      "Ġedin": 5034,
      "lect": 5035,
      "ĠEx": 5036,
      "Ġhatta": 5037,
      "Ġinvolved": 5038,
      "Ġesc": 5039,
      "Ġsebep": 5040,
      "Ġmicro": 5041,
      "Ġcourt": 5042,
      "uck": 5043,
      "ĠmÃ¼ÅŁ": 5044,
      "Ġwestern": 5045,
      "ĠdÃ¼ÅŁÃ¼r": 5046,
      "Ġplaced": 5047,
      "Ġsigned": 5048,
      "Ġleague": 5049,
      "Ġulusal": 5050,
      "Ġcenter": 5051,
      "ĠtanÄ±m": 5052,
      "ĠbaÅŁlan": 5053,
      "Ġcho": 5054,
      "ping": 5055,
      "Ġcen": 5056,
      "Ġran": 5057,
      "Ġsitu": 5058,
      "Ġsuggested": 5059,
      "ecutive": 5060,
      "lasman": 5061,
      "elim": 5062,
      "ĠÃ¶nÃ¼nde": 5063,
      "Ġ1960": 5064,
      "net": 5065,
      "ators": 5066,
      "abil": 5067,
      "Ġfood": 5068,
      "inÃ§": 5069,
      "Ġcal": 5070,
      "Ġdiscuss": 5071,
      "Ġetkinlik": 5072,
      "Ġolsa": 5073,
      "Ġonu": 5074,
      "vert": 5075,
      "Ġparts": 5076,
      "Ġboyut": 5077,
      "oo": 5078,
      "Ġruh": 5079,
      "Other": 5080,
      "Ġfik": 5081,
      "Ġyaralan": 5082,
      "Ġderec": 5083,
      "bs": 5084,
      "Ġmez": 5085,
      "Ġdro": 5086,
      "Ġingiliz": 5087,
      "eff": 5088,
      "Ġfed": 5089,
      "Ġ55": 5090,
      "ĠsÃ¶ylem": 5091,
      "diye": 5092,
      "BC": 5093,
      "Ġdemokrat": 5094,
      "Ġfay": 5095,
      "ĠyazÄ±lÄ±": 5096,
      "livier": 5097,
      "retim": 5098,
      "Ġkamuoy": 5099,
      "Ġwhe": 5100,
      "Ġitself": 5101,
      "ĠGeorge": 5102,
      "Ġsaray": 5103,
      "Un": 5104,
      "Ġspecific": 5105,
      "ĠvardÄ±r": 5106,
      "eÄŁ": 5107,
      "uvvet": 5108,
      "Ġyum": 5109,
      "Ġsert": 5110,
      "genel": 5111,
      "From": 5112,
      "ĠTimes": 5113,
      "ranch": 5114,
      "Ġhold": 5115,
      "Ġchange": 5116,
      "mÃ¼dÃ¼rÃ¼": 5117,
      "Ġaverage": 5118,
      "amak": 5119,
      "Despite": 5120,
      "Ġunut": 5121,
      "Ġimza": 5122,
      "ĠbÃ¶ylece": 5123,
      "Ġverildi": 5124,
      "endent": 5125,
      "Ġtaleb": 5126,
      "Ġviol": 5127,
      "ĠPo": 5128,
      "Ġavailable": 5129,
      "tural": 5130,
      "Ġ51": 5131,
      "Ġcirc": 5132,
      "cience": 5133,
      "Ġprofession": 5134,
      "Ġshot": 5135,
      "Ġders": 5136,
      "Ġscene": 5137,
      "Ġintroduced": 5138,
      "Ġexcept": 5139,
      "Ġscor": 5140,
      "Ġce": 5141,
      "ĠGame": 5142,
      "los": 5143,
      "Ġveriyor": 5144,
      "Ġsona": 5145,
      "Ġtaking": 5146,
      "ĠMusic": 5147,
      "Ġsivil": 5148,
      "Ġzorunda": 5149,
      "Ġic": 5150,
      "Ġisted": 5151,
      "ĠÃ§ocuklarÄ±n": 5152,
      "Ġscre": 5153,
      "ĠdÃ¼zenlem": 5154,
      "ĠgÃ¶rÃ¼yor": 5155,
      "etsiz": 5156,
      "ĠkÄ±lÄ±Ã§daroÄŁlu": 5157,
      "baÅŁÄ±": 5158,
      "Ġdeclar": 5159,
      "Ġvillage": 5160,
      "less": 5161,
      "ĠgeÃ§tiÄŁimiz": 5162,
      "Ġwhose": 5163,
      "Ġ2016": 5164,
      "Ġ184": 5165,
      "gÃ¼": 5166,
      "ĠFlorida": 5167,
      "Ġargu": 5168,
      "Ġturizm": 5169,
      "Ã¶l": 5170,
      "Ġdead": 5171,
      "Ġtransport": 5172,
      "ois": 5173,
      "orial": 5174,
      "Ġilgi": 5175,
      "ĠJapanese": 5176,
      "Ġfree": 5177,
      "Ġnato": 5178,
      "masÄ±yla": 5179,
      "now": 5180,
      "Ġnur": 5181,
      "undaki": 5182,
      "Ġcoup": 5183,
      "Ġheav": 5184,
      "Ġill": 5185,
      "Ġexpress": 5186,
      "lÃ¼ÄŁ": 5187,
      "Ġdeter": 5188,
      "ĠyÃ¶netic": 5189,
      "eries": 5190,
      "Ġquarter": 5191,
      "ĠilÃ§": 5192,
      "ĠhÃ¼cr": 5193,
      "irken": 5194,
      "pted": 5195,
      "ĠyardÄ±mcÄ±": 5196,
      "Ġfly": 5197,
      "Ġmesel": 5198,
      "ximately": 5199,
      "ĠCanad": 5200,
      "rian": 5201,
      "ĠArab": 5202,
      "ĠsÃ¼t": 5203,
      "Ġanal": 5204,
      "ĠÃ§elik": 5205,
      "ĠaldÄ±k": 5206,
      "lamasÄ±": 5207,
      "Ġfeel": 5208,
      "ronic": 5209,
      "tÃ¼rkiye": 5210,
      "dy": 5211,
      "inese": 5212,
      "ĠPart": 5213,
      "ĠRe": 5214,
      "uel": 5215,
      "Ġproper": 5216,
      "ĠBer": 5217,
      "ready": 5218,
      "atÃ¼rk": 5219,
      "Ġinj": 5220,
      "Ġantal": 5221,
      "Ġexpla": 5222,
      "Ġistiyoruz": 5223,
      "Ġonur": 5224,
      "ĠIndian": 5225,
      "Ġdolara": 5226,
      "Ġreligious": 5227,
      "Ġtold": 5228,
      "Ġbill": 5229,
      "Ġ1999": 5230,
      "Ġslow": 5231,
      "atif": 5232,
      "Ġdamaged": 5233,
      "head": 5234,
      "ĠMexico": 5235,
      "Ġgold": 5236,
      "Ġediliyor": 5237,
      "ĠkatÄ±": 5238,
      "ĠCarol": 5239,
      "Ġstudio": 5240,
      "ography": 5241,
      "Ġdom": 5242,
      "Ġsorumlu": 5243,
      "ivali": 5244,
      "Ġeconom": 5245,
      "Ġbilm": 5246,
      "Ġfiz": 5247,
      "Ġihal": 5248,
      "achel": 5249,
      "ĠyargÄ±": 5250,
      "Ġsorunu": 5251,
      "ĠsatÄ±ÅŁa": 5252,
      "ebilecek": 5253,
      "elled": 5254,
      "Ġturned": 5255,
      "emez": 5256,
      "Ġyerli": 5257,
      "Ġremov": 5258,
      "ery": 5259,
      "Ġentire": 5260,
      "ĠHill": 5261,
      "Ġeksik": 5262,
      "Ġetkili": 5263,
      "Ġgive": 5264,
      "Ġgrad": 5265,
      "ĠSun": 5266,
      "Ġizin": 5267,
      "Ġharc": 5268,
      "Ġlines": 5269,
      "Ġshows": 5270,
      "Ġincreasing": 5271,
      "ĠtÄ±k": 5272,
      "tel": 5273,
      "Ġmarket": 5274,
      "Ġsene": 5275,
      "Ã¼st": 5276,
      "lek": 5277,
      "Ġnine": 5278,
      "Ġnearly": 5279,
      "edeki": 5280,
      "ona": 5281,
      "anna": 5282,
      "Ġpossib": 5283,
      "ĠIndia": 5284,
      "sis": 5285,
      "ospital": 5286,
      "Ġappointed": 5287,
      "Ġaut": 5288,
      "artment": 5289,
      "Ġprepar": 5290,
      "Ġ49": 5291,
      "macÄ±": 5292,
      "ĠgÃ¼r": 5293,
      "wh": 5294,
      "alay": 5295,
      "uf": 5296,
      "brah": 5297,
      "ĠkarÅŁÄ±sÄ±nda": 5298,
      "ĠmaÃ§ta": 5299,
      "pe": 5300,
      "Ġrail": 5301,
      "Ġcommunity": 5302,
      "oke": 5303,
      "ĠtÃ¼ketim": 5304,
      "niyet": 5305,
      "Ġdespite": 5306,
      "acific": 5307,
      "Ġberi": 5308,
      "sÄ±n": 5309,
      "ĠZeal": 5310,
      "ĠZealand": 5311,
      "Ġrecording": 5312,
      "AF": 5313,
      "itz": 5314,
      "Ġpassed": 5315,
      "Ġdate": 5316,
      "Ġtru": 5317,
      "Ġ1995": 5318,
      "ĠSchool": 5319,
      "rim": 5320,
      "ileÅŁ": 5321,
      "Ġmulti": 5322,
      "ĠAb": 5323,
      "Ġnames": 5324,
      "Ġalanda": 5325,
      "Ġchap": 5326,
      "ĠdeÄŁiÅŁiklik": 5327,
      "uldu": 5328,
      "Ġbase": 5329,
      "ecially": 5330,
      "Ġfootball": 5331,
      "erse": 5332,
      "ĠcanlÄ±": 5333,
      "Ġcontem": 5334,
      "Ġestablish": 5335,
      "Ġner": 5336,
      "Ġdavet": 5337,
      "ston": 5338,
      "ĠRichard": 5339,
      "Ġinitially": 5340,
      "Ġjap": 5341,
      "Ġimmedi": 5342,
      "Ä±ÅŁÄ±k": 5343,
      "Ġimk": 5344,
      "Ġdeney": 5345,
      "Ġdistr": 5346,
      "ĠCap": 5347,
      "Ġwithd": 5348,
      "Ġgoing": 5349,
      "liyor": 5350,
      "Ġalready": 5351,
      "Ġolumlu": 5352,
      "Ġbasket": 5353,
      "Ġconsider": 5354,
      "Ġrace": 5355,
      "Ġcertain": 5356,
      "Ġdram": 5357,
      "ĠÃ§atÄ±ÅŁ": 5358,
      "Ġcommercial": 5359,
      "Ġfab": 5360,
      "ĠDe": 5361,
      "ĠInd": 5362,
      "ĠsonrasÄ±nda": 5363,
      "Ġsocial": 5364,
      "ersin": 5365,
      "ĠkÄ±y": 5366,
      "Ġreklam": 5367,
      "Ġlid": 5368,
      "Ġbekleniyor": 5369,
      "Ġgece": 5370,
      "Ġdeal": 5371,
      "Ġmis": 5372,
      "Ġlimited": 5373,
      "ĠtaÅŁÄ±m": 5374,
      "Ã¼seyin": 5375,
      "ique": 5376,
      "Ġassist": 5377,
      "sav": 5378,
      "ĠPlay": 5379,
      "ĠOn": 5380,
      "Ġwinning": 5381,
      "Ġdisplay": 5382,
      "Ġfailed": 5383,
      "Ġtow": 5384,
      "Ġsym": 5385,
      "lÄ±ÄŁÄ±nÄ±n": 5386,
      "rul": 5387,
      "edy": 5388,
      "ĠRepublic": 5389,
      "ĠÃ¶dÃ¼lÃ¼": 5390,
      "Ġstructure": 5391,
      "Ġaccording": 5392,
      "Ġjour": 5393,
      "Ġtraining": 5394,
      "Ġespecially": 5395,
      "Ġprobably": 5396,
      "Ġderg": 5397,
      "Ġmight": 5398,
      "Ġfavor": 5399,
      "ĠBritain": 5400,
      "ume": 5401,
      "Ġekran": 5402,
      "Ġlog": 5403,
      "Ġistih": 5404,
      "Ġnok": 5405,
      "istik": 5406,
      "Ġbeni": 5407,
      "Ġissue": 5408,
      "ugu": 5409,
      "Ġarada": 5410,
      "Ä±lmasÄ±nÄ±": 5411,
      "Ġminor": 5412,
      "Ġdebut": 5413,
      "Ġarchae": 5414,
      "nÄ±z": 5415,
      "arily": 5416,
      "ĠCong": 5417,
      "ategor": 5418,
      "Ġeduc": 5419,
      "yas": 5420,
      "Ġdurumu": 5421,
      "ĠsÃ¶zlerine": 5422,
      "Ġproje": 5423,
      "Ġaks": 5424,
      "Ġhollanda": 5425,
      "Ġonlar": 5426,
      "Ġdaugh": 5427,
      "hington": 5428,
      "ĠÃ¶nces": 5429,
      "Ġordered": 5430,
      "acy": 5431,
      "band": 5432,
      "Ġoccup": 5433,
      "Ġarrived": 5434,
      "ĠScient": 5435,
      "pper": 5436,
      "ĠIrish": 5437,
      "ĠaÃ§Ä±lÄ±ÅŁ": 5438,
      "ĠMichael": 5439,
      "ĠGreat": 5440,
      "Ġspent": 5441,
      "Ġgrub": 5442,
      "Ġlanguage": 5443,
      "Ġcrew": 5444,
      "Ä±ÅŁtÄ±": 5445,
      "mayacak": 5446,
      "Ġdetail": 5447,
      "Ġrob": 5448,
      "Ġcontract": 5449,
      "ĠdoÄŁan": 5450,
      "rin": 5451,
      "ote": 5452,
      "ĠPacific": 5453,
      "Ä±mÄ±zÄ±n": 5454,
      "hib": 5455,
      "ifa": 5456,
      "amin": 5457,
      "Ã¼ndeki": 5458,
      "Ġonay": 5459,
      "Ġabs": 5460,
      "merkez": 5461,
      "Ġtom": 5462,
      "ĠbaÅŁkanlÄ±k": 5463,
      "ĠvÃ¼cu": 5464,
      "Ġvisit": 5465,
      "heeler": 5466,
      "ÄŁim": 5467,
      "ush": 5468,
      "Ġarmy": 5469,
      "ĠkiÅŁilerin": 5470,
      "osing": 5471,
      "ĠPaul": 5472,
      "oru": 5473,
      "Ġremaining": 5474,
      "Ġhastalar": 5475,
      "Ġgay": 5476,
      "Ġstates": 5477,
      "Ġforward": 5478,
      "ĠhastalarÄ±n": 5479,
      "ĠUnion": 5480,
      "ĠgeldiÄŁini": 5481,
      "Ġparticip": 5482,
      "Ġhy": 5483,
      "athol": 5484,
      "ĠdolarlÄ±k": 5485,
      "Ġsometimes": 5486,
      "Ġmale": 5487,
      "Ġcomplete": 5488,
      "ĠPresident": 5489,
      "Ġenough": 5490,
      "Ġetmesi": 5491,
      "Ġ1950": 5492,
      "Ġphys": 5493,
      "Ġmixed": 5494,
      "aliforn": 5495,
      "aps": 5496,
      "Ġscen": 5497,
      "Ġfinans": 5498,
      "Ġyunan": 5499,
      "Ã¼bÃ¼": 5500,
      "alef": 5501,
      "Ġmuhalef": 5502,
      "ĠhastanÄ±n": 5503,
      "ĠbaÅŁÄ±na": 5504,
      "ship": 5505,
      "Ġwid": 5506,
      "Ġcome": 5507,
      "Ġapproximately": 5508,
      "Ġliter": 5509,
      "calan": 5510,
      "Ġrequired": 5511,
      "ĠaÅŁÄ±rÄ±": 5512,
      "hedral": 5513,
      "Ġizley": 5514,
      "Ġgi": 5515,
      "ĠyalnÄ±z": 5516,
      "Ġyandan": 5517,
      "Ġburun": 5518,
      "Ġcad": 5519,
      "usuna": 5520,
      "Ġlatter": 5521,
      "acÄ±lÄ±k": 5522,
      "nan": 5523,
      "Ġsurro": 5524,
      "ĠQue": 5525,
      "ĠsÃ¼reci": 5526,
      "ulated": 5527,
      "imum": 5528,
      "ĠyaygÄ±n": 5529,
      "ĠIII": 5530,
      "Ġincludes": 5531,
      "Ġuzay": 5532,
      "Ġdavran": 5533,
      "ĠÃ¶ncelik": 5534,
      "Many": 5535,
      "ĠChinese": 5536,
      "ble": 5537,
      "ĠyÄ±k": 5538,
      "Ġtepki": 5539,
      "odes": 5540,
      "ĠdeÄŁin": 5541,
      "ĠgÄ±da": 5542,
      "Ġ-": 5543,
      "Ġbeginning": 5544,
      "ĠFran": 5545,
      "Ġcycl": 5546,
      "iÅŁti": 5547,
      "ipl": 5548,
      "aran": 5549,
      "lilik": 5550,
      "Ġdu": 5551,
      "Ġsoldi": 5552,
      "sanÄ±z": 5553,
      "Ġavuk": 5554,
      "ĠduruÅŁ": 5555,
      "Ġlower": 5556,
      "Ġiktidar": 5557,
      "ĠyeÅŁ": 5558,
      "ĠsÄ±cak": 5559,
      "ĠyÄ±lmaz": 5560,
      "Ġblock": 5561,
      "ĠMark": 5562,
      "komisyonu": 5563,
      "ĠgÃ¶sterdi": 5564,
      "ners": 5565,
      "ĠHenry": 5566,
      "Ġreviews": 5567,
      "ati": 5568,
      "abir": 5569,
      "Ġreveal": 5570,
      "ĠRev": 5571,
      "ĠaylÄ±k": 5572,
      "dit": 5573,
      "Ġlink": 5574,
      "ĠCathol": 5575,
      "Ġatm": 5576,
      "reak": 5577,
      "Ä±mÄ±zÄ±": 5578,
      "Ġprotein": 5579,
      "ilt": 5580,
      "Ġ600": 5581,
      "ĠCanadian": 5582,
      "ĠÃ¶nlem": 5583,
      "Ġdecision": 5584,
      "ĠAssoci": 5585,
      "Ġmagazine": 5586,
      "aca": 5587,
      "Ġhayvan": 5588,
      "Ġspac": 5589,
      "ĠJin": 5590,
      "ĠteÅŁek": 5591,
      "Ġusually": 5592,
      "Ġadditional": 5593,
      "ĠhÃ¼r": 5594,
      "Ġprec": 5595,
      "Ġdiss": 5596,
      "ĠBrown": 5597,
      "anlar": 5598,
      "ĠUK": 5599,
      "emin": 5600,
      "Ġyarg": 5601,
      "ĠaÅŁam": 5602,
      "Ġettir": 5603,
      "Ġyav": 5604,
      "Ġvan": 5605,
      "Ġ?": 5606,
      "Ġbetter": 5607,
      "Two": 5608,
      "stein": 5609,
      "Ġorada": 5610,
      "imize": 5611,
      "Ġrunning": 5612,
      "nel": 5613,
      "ĠCam": 5614,
      "ĠCl": 5615,
      "ĠkaldÄ±": 5616,
      "ĠÅŁÃ¼p": 5617,
      "ĠEm": 5618,
      "dim": 5619,
      "Ġchanges": 5620,
      "lÄ±ÄŁÄ±na": 5621,
      "Ġps": 5622,
      "ĠRegiment": 5623,
      "ĠVir": 5624,
      "Ġended": 5625,
      "ends": 5626,
      "Ġ41": 5627,
      "ĠgÃ¼nlÃ¼k": 5628,
      "ĠÃ¶rne": 5629,
      "ĠCreek": 5630,
      "Ġenter": 5631,
      "iny": 5632,
      "ĠTech": 5633,
      "Ġdayan": 5634,
      "rison": 5635,
      "Ġstudents": 5636,
      "Ġsurroun": 5637,
      "atory": 5638,
      "masÄ±ndan": 5639,
      "Ġ85": 5640,
      "Ġlarger": 5641,
      "Ġcru": 5642,
      "Ġpositive": 5643,
      "Ġconcern": 5644,
      "ĠsÃ¼rekli": 5645,
      "Ġmac": 5646,
      "Ġcur": 5647,
      "Ġmerak": 5648,
      "Ġ76": 5649,
      "ĠayÄ±": 5650,
      "Ġ1998": 5651,
      "ĠKe": 5652,
      "ĠdÃ¼zenlediÄŁi": 5653,
      "Ġmention": 5654,
      "Ġwoman": 5655,
      "Ġsupported": 5656,
      "Ġmir": 5657,
      "ĠJo": 5658,
      "ĠGovern": 5659,
      "ference": 5660,
      "ulf": 5661,
      "Ġpsik": 5662,
      "malÄ±dÄ±r": 5663,
      "Ġalk": 5664,
      "icago": 5665,
      "ites": 5666,
      "Ġkategor": 5667,
      "Ã¼lent": 5668,
      "ĠdÃ¼ÅŁtÃ¼": 5669,
      "ĠteÅŁekkÃ¼r": 5670,
      "Ġtype": 5671,
      "dikleri": 5672,
      "eding": 5673,
      "ĠoldukÃ§a": 5674,
      "Ġdepression": 5675,
      "ola": 5676,
      "Ġpresident": 5677,
      "owler": 5678,
      "Ġsurface": 5679,
      "Ġmart": 5680,
      "ĠgÃ¼ndeme": 5681,
      "Ġvad": 5682,
      "Ġtank": 5683,
      "lendiÄŁi": 5684,
      "Ġpressure": 5685,
      "Ġdenetim": 5686,
      "ĠbaÄŁÄ±msÄ±z": 5687,
      "Ġge": 5688,
      "Ġquest": 5689,
      "Ġanlay": 5690,
      "ĠkazandÄ±": 5691,
      "ĠsÃ¼per": 5692,
      "Ġrum": 5693,
      "ĠvardÄ±": 5694,
      "Ġwide": 5695,
      "Ġbirds": 5696,
      "Ġface": 5697,
      "Ġfuture": 5698,
      "Ġisimli": 5699,
      "ĠvÃ¼cut": 5700,
      "alifornia": 5701,
      "itte": 5702,
      "ĠgÃ¼nde": 5703,
      "ĠbakanlÄ±k": 5704,
      "ebiliyor": 5705,
      "ĠThomas": 5706,
      "Ġverilm": 5707,
      "Ġazalt": 5708,
      "Ġfaiz": 5709,
      "Ġlideri": 5710,
      "Ġshown": 5711,
      "Ġpolice": 5712,
      "Ġdakika": 5713,
      "cÃ¼sÃ¼": 5714,
      "Ġpoet": 5715,
      "ĠOldham": 5716,
      "ĠVilla": 5717,
      "Ġscore": 5718,
      "ĠsÄ±rt": 5719,
      "ĠAward": 5720,
      "ĠtasarÄ±m": 5721,
      "ously": 5722,
      "Ġbig": 5723,
      "Ġhop": 5724,
      "Ġnotes": 5725,
      "Ġelektronik": 5726,
      "Ġdeplasman": 5727,
      "ilerinden": 5728,
      "quadron": 5729,
      "enty": 5730,
      "ĠkÃ¼resel": 5731,
      "Ġkorun": 5732,
      "sur": 5733,
      "ĠgiriÅŁ": 5734,
      "ala": 5735,
      "ĠkulÃ¼p": 5736,
      "Ġyakalan": 5737,
      "Ġistik": 5738,
      "Ġrelated": 5739,
      "Ġdomin": 5740,
      "Ġkarakter": 5741,
      "Ġprovide": 5742,
      "ĠÃ¶yle": 5743,
      "ĠJordan": 5744,
      "Ġ1993": 5745,
      "Ġbenzer": 5746,
      "lÄ±ÄŁa": 5747,
      "inct": 5748,
      "Ġmetal": 5749,
      "Ġsyn": 5750,
      "lymp": 5751,
      "ĠOlymp": 5752,
      "ĠHot": 5753,
      "Ġdefeated": 5754,
      "ĠÃ§arp": 5755,
      "selves": 5756,
      "Ġdiscovered": 5757,
      "Ġprojesi": 5758,
      "tik": 5759,
      "ĠMac": 5760,
      "Ġstrate": 5761,
      "ĠÃ§alÄ±ÅŁmalarÄ±": 5762,
      "Ġtemper": 5763,
      "Ġfeature": 5764,
      "Ġmaterial": 5765,
      "Ġtehdit": 5766,
      "Ġfifth": 5767,
      "ĠMy": 5768,
      "under": 5769,
      "ĠhazÄ±rlÄ±k": 5770,
      "Ġkorum": 5771,
      "Ġrac": 5772,
      "Ġpla": 5773,
      "ÄŁen": 5774,
      "ĠÃ": 5775,
      "Ġlib": 5776,
      "Ġantr": 5777,
      "gins": 5778,
      "ĠStar": 5779,
      "Ġfizik": 5780,
      "Ġisten": 5781,
      "mur": 5782,
      "eniz": 5783,
      "onym": 5784,
      "ordin": 5785,
      "Ġbecoming": 5786,
      "mamÄ±z": 5787,
      "ĠolmuÅŁ": 5788,
      "Ġgrev": 5789,
      "yap": 5790,
      "tek": 5791,
      "ĠsÃ¶ylÃ¼yor": 5792,
      "Ġmel": 5793,
      "ĠkatÄ±lan": 5794,
      "tv": 5795,
      "Ġtarihinde": 5796,
      "Ġsunu": 5797,
      "ĠmÃ¼ÅŁter": 5798,
      "Ġenv": 5799,
      "Ġyasal": 5800,
      "ĠaÃ§lÄ±k": 5801,
      "dev": 5802,
      "Ġister": 5803,
      "ĠolduklarÄ±nÄ±": 5804,
      "Ġstaff": 5805,
      "Ġprior": 5806,
      "ĠÃ§ey": 5807,
      "iÄŁi": 5808,
      "ĠbÃ¶lgede": 5809,
      "Ġenfeksiyon": 5810,
      "Ġkendini": 5811,
      "Ġ64": 5812,
      "artesi": 5813,
      "bon": 5814,
      "ener": 5815,
      "Ġfrequ": 5816,
      "Ġhikay": 5817,
      "ĠHall": 5818,
      "Ġsection": 5819,
      "ĠBillboard": 5820,
      "Ġoyunu": 5821,
      "Ġsmaller": 5822,
      "Ġkendisini": 5823,
      "ĠgerekÃ§": 5824,
      "Ġ56": 5825,
      "ĠtoplantÄ±sÄ±nda": 5826,
      "Ġnature": 5827,
      "ĠSov": 5828,
      "Ġolmaz": 5829,
      "ĠColle": 5830,
      "gely": 5831,
      "ĠgÃ¼c": 5832,
      "chester": 5833,
      "Ġidea": 5834,
      "Later": 5835,
      "Ġfol": 5836,
      "Ġsorunun": 5837,
      "oper": 5838,
      "ĠÃ¼niversit": 5839,
      "rid": 5840,
      "Ġsoy": 5841,
      "mitted": 5842,
      "Ġhot": 5843,
      "ĠgÃ¶steren": 5844,
      "imet": 5845,
      "Ġenj": 5846,
      "Ġintended": 5847,
      "onse": 5848,
      "Ġgroups": 5849,
      "Ġtoprak": 5850,
      "Ġmuhabir": 5851,
      "ĠkiÅŁilik": 5852,
      "pool": 5853,
      "Ġtaz": 5854,
      "Ġmostly": 5855,
      "Ġbirth": 5856,
      "Ġword": 5857,
      "Ġconclu": 5858,
      "Ġradio": 5859,
      "ĠJos": 5860,
      "Ġoffice": 5861,
      "Ġdurdur": 5862,
      "Ġlyric": 5863,
      "Ġmetres": 5864,
      "oto": 5865,
      "cean": 5866,
      "etin": 5867,
      "ĠkapalÄ±": 5868,
      "Ġverecek": 5869,
      "Ġthemselves": 5870,
      "Ġextens": 5871,
      "Ã¼yÃ¼k": 5872,
      "Ġcreate": 5873,
      "Ġgraph": 5874,
      "ĠsÃ¶yley": 5875,
      "dÃ¼n": 5876,
      "ĠtaÅŁÄ±": 5877,
      "Ġminutes": 5878,
      "Ġdouble": 5879,
      "usunun": 5880,
      "ĠhÃ¼rr": 5881,
      "ĠeÄŁit": 5882,
      "ĠaÄŁÄ±": 5883,
      "Ġanadolu": 5884,
      "ĠSing": 5885,
      "Ġsamsung": 5886,
      "Ġpercent": 5887,
      "light": 5888,
      "Ġlikely": 5889,
      "ĠyÃ¶netimi": 5890,
      "pped": 5891,
      "rief": 5892,
      "Ġcaptured": 5893,
      "merkezi": 5894,
      "isel": 5895,
      "ĠdÃ¼nyaya": 5896,
      "Ġdiren": 5897,
      "ĠÅŁarkÄ±": 5898,
      "iva": 5899,
      "Ġlargely": 5900,
      "hem": 5901,
      "Ġfleet": 5902,
      "Ġreferred": 5903,
      "Ġflow": 5904,
      "Ġdeep": 5905,
      "ĠMil": 5906,
      "antaj": 5907,
      "Ġadalet": 5908,
      "ĠAngel": 5909,
      "burg": 5910,
      "kÄ±r": 5911,
      "Ġvoice": 5912,
      "Ġesk": 5913,
      "ĠhastalÄ±klarÄ±": 5914,
      "down": 5915,
      "ebr": 5916,
      "ĠScientology": 5917,
      "Most": 5918,
      "oor": 5919,
      "ĠkoÃ§": 5920,
      "Ġ250": 5921,
      "ĠuÄŁr": 5922,
      "Ã¼mÃ¼": 5923,
      "enon": 5924,
      "alÄ±m": 5925,
      "Ġprofessional": 5926,
      "ĠSoc": 5927,
      "Ġkurtul": 5928,
      "Ġantalya": 5929,
      "Ġmusical": 5930,
      "ĠAssociation": 5931,
      "ĠuzmanÄ±": 5932,
      "Ġfort": 5933,
      "Ġmakes": 5934,
      "ĠÅŁiÅŁ": 5935,
      "Ġpair": 5936,
      "ĠWestern": 5937,
      "rain": 5938,
      "ĠTer": 5939,
      "Ġentered": 5940,
      "ĠuyarÄ±": 5941,
      "idents": 5942,
      "oks": 5943,
      "quare": 5944,
      "Ġbroadcast": 5945,
      "Ġolam": 5946,
      "Ġmoving": 5947,
      "baÅŁkanlÄ±ÄŁÄ±": 5948,
      "iation": 5949,
      "ilities": 5950,
      "ĠtÃ¼rkÃ§e": 5951,
      "Ġkeep": 5952,
      "Ġdemek": 5953,
      "Ġtablet": 5954,
      "Ġantren": 5955,
      "Ġmoney": 5956,
      "Ġcontains": 5957,
      "Ġsea": 5958,
      "aries": 5959,
      "Ġpian": 5960,
      "Ġconstructed": 5961,
      "york": 5962,
      "Ġgrant": 5963,
      "Ġkonum": 5964,
      "ĠaltÄ±nÄ±": 5965,
      "Ġbizi": 5966,
      "ĠJer": 5967,
      "ective": 5968,
      "ĠkuÅŁ": 5969,
      "ĠStr": 5970,
      "Ġresponse": 5971,
      "ĠatatÃ¼rk": 5972,
      "miÅŁtir": 5973,
      "quarters": 5974,
      "prof": 5975,
      "laÅŁma": 5976,
      "mesiyle": 5977,
      "Ġelev": 5978,
      "Ġguitar": 5979,
      "ands": 5980,
      "Ġabdullah": 5981,
      "teen": 5982,
      "Ġproblems": 5983,
      "Ġfinan": 5984,
      "Ġkims": 5985,
      "mon": 5986,
      "orning": 5987,
      "pi": 5988,
      "Ġpatri": 5989,
      "sc": 5990,
      "Ã³": 5991,
      "Ġgeril": 5992,
      "Ġpoz": 5993,
      "Ġbilinen": 5994,
      "ians": 5995,
      "Since": 5996,
      "ĠÃ¶nÃ¼ne": 5997,
      "Ġediyoruz": 5998,
      "ĠolmadÄ±": 5999,
      "ĠÃ¶ÄŁretim": 6000,
      "ror": 6001,
      "cÄ±lÄ±k": 6002,
      "Ġediyorum": 6003,
      "ĠyerleÅŁ": 6004,
      "Ġstandard": 6005,
      "Ġsummer": 6006,
      "gian": 6007,
      "ĠNavy": 6008,
      "fakÃ¼ltesi": 6009,
      "ĠsoruÅŁturma": 6010,
      "ĠsaÄŁlÄ±ÄŁÄ±": 6011,
      "mesinde": 6012,
      "Ġpilot": 6013,
      "Ġbm": 6014,
      "ĠgÃ¼m": 6015,
      "Ġspeak": 6016,
      "Ġker": 6017,
      "ĠAwards": 6018,
      "ĠMa": 6019,
      "Ġtakdir": 6020,
      "luÄŁu": 6021,
      "change": 6022,
      "agon": 6023,
      "ĠhÃ¼kÃ¼metin": 6024,
      "ĠbÃ¶lÃ¼mÃ¼": 6025,
      "Ġmajority": 6026,
      "Ġbirinci": 6027,
      "Ġlisted": 6028,
      "Ġ52": 6029,
      "Ġihtim": 6030,
      "Ġholding": 6031,
      "Ġpitch": 6032,
      "Ġheps": 6033,
      "ĠkÃ¶y": 6034,
      "ishop": 6035,
      "Ġranked": 6036,
      "dÄ±ÅŁ": 6037,
      "ament": 6038,
      "ĠNY": 6039,
      "ĠTor": 6040,
      "Ġself": 6041,
      "Ġarrang": 6042,
      "Ġkrit": 6043,
      "ĠFirst": 6044,
      "riage": 6045,
      "ĠalanÄ±nda": 6046,
      "din": 6047,
      "ĠhÃ¼seyin": 6048,
      "Ġ1940": 6049,
      "ĠmÃ¼dÃ¼rÃ¼": 6050,
      "Ġibrah": 6051,
      "ĠDo": 6052,
      "ĠkatÄ±l": 6053,
      "uter": 6054,
      "ĠÃ§ap": 6055,
      "mÃ¼dÃ¼rlÃ¼ÄŁÃ¼": 6056,
      "Ġstories": 6057,
      "Ġadop": 6058,
      "ĠÃ¶neml": 6059,
      "cumhur": 6060,
      "Ġtahmin": 6061,
      "sever": 6062,
      "ases": 6063,
      "Ġipt": 6064,
      "ĠbiÃ§": 6065,
      "best": 6066,
      "rest": 6067,
      "ĠCouncil": 6068,
      "Ġleaving": 6069,
      "Ġgrow": 6070,
      "Ġdemokratik": 6071,
      "ĠEarth": 6072,
      "ĠkayÄ±p": 6073,
      "ĠÄ±s": 6074,
      "lenecek": 6075,
      "ĠGuitar": 6076,
      "Ġrenk": 6077,
      "Ġkaf": 6078,
      "Ġminute": 6079,
      "aÅŁÄ±": 6080,
      "ĠPenn": 6081,
      "cis": 6082,
      "val": 6083,
      "Ġplac": 6084,
      "Ġkop": 6085,
      "iyot": 6086,
      "ĠJewish": 6087,
      "ny": 6088,
      "Ġexperience": 6089,
      "Ġfel": 6090,
      "emed": 6091,
      "Ġsonucunda": 6092,
      "ĠalÄ±ndÄ±": 6093,
      "larÄ±m": 6094,
      "ĠOlivier": 6095,
      "Ġkaybet": 6096,
      "Ġ43": 6097,
      "ĠRachel": 6098,
      "Ġcolon": 6099,
      "Ġnef": 6100,
      "ĠSuper": 6101,
      "Ġthus": 6102,
      "ĠsaÄŁlam": 6103,
      "Ġdiyerek": 6104,
      "ĠÃ¶ldÃ¼": 6105,
      "iyah": 6106,
      "ĠTV": 6107,
      "mad": 6108,
      "ĠalÄ±r": 6109,
      "iverpool": 6110,
      "pendent": 6111,
      "ricket": 6112,
      "Ġtabii": 6113,
      "ortun": 6114,
      "Ġef": 6115,
      "ĠBus": 6116,
      "ĠtÃ¼rlÃ¼": 6117,
      "Ġagreed": 6118,
      "Ġconsist": 6119,
      "Ġcompan": 6120,
      "ĠbÃ¼tÃ§": 6121,
      "Ġcritical": 6122,
      "veston": 6123,
      "Ġ1997": 6124,
      "Ġlived": 6125,
      "Ġfilms": 6126,
      "Ġyere": 6127,
      "Ġgem": 6128,
      "Ġbazen": 6129,
      "Ġbrief": 6130,
      "Ġgods": 6131,
      "Ġuyku": 6132,
      "ĠFI": 6133,
      "Ġrib": 6134,
      "Ġalways": 6135,
      "itor": 6136,
      "Ġdost": 6137,
      "imp": 6138,
      "ĠOs": 6139,
      "Ġnedeni": 6140,
      "Ġlaunched": 6141,
      "Ġnort": 6142,
      "Ġprimary": 6143,
      "ĠbatÄ±": 6144,
      "Ġ1996": 6145,
      "ested": 6146,
      "Ġadmin": 6147,
      "Ġtons": 6148,
      "ĠYear": 6149,
      "ĠÅŁi": 6150,
      "Ġofficers": 6151,
      "berg": 6152,
      "Ġkullanan": 6153,
      "Ġequip": 6154,
      "hast": 6155,
      "ĠbaÄŁlantÄ±": 6156,
      "Ġruns": 6157,
      "osaurus": 6158,
      "say": 6159,
      "Ġkazanan": 6160,
      "Ġquickly": 6161,
      "Ġbelki": 6162,
      "ĠCharles": 6163,
      "cek": 6164,
      "aded": 6165,
      "Ġdefa": 6166,
      "Ġnis": 6167,
      "Ġconcept": 6168,
      "Ġtay": 6169,
      "lament": 6170,
      "Ġtecr": 6171,
      "ĠÅŁirketin": 6172,
      "ĠgerÃ§ekleÅŁtirilen": 6173,
      "Ġmekan": 6174,
      "Ġsporcu": 6175,
      "ĠprogramÄ±": 6176,
      "Ġbol": 6177,
      "Ġteams": 6178,
      "Ġdig": 6179,
      "Ġmom": 6180,
      "Ġadd": 6181,
      "Ġ120": 6182,
      "ains": 6183,
      "ĠÅŁirketi": 6184,
      "Ġmess": 6185,
      "Ġepisodes": 6186,
      "Ġoccurred": 6187,
      "Ġobserv": 6188,
      "Ġfuar": 6189,
      "Ġmedia": 6190,
      "ĠTur": 6191,
      "Ġmeant": 6192,
      "athan": 6193,
      "Ġmedya": 6194,
      "engin": 6195,
      "ĠÃ§evir": 6196,
      "Ġjud": 6197,
      "ĠtanÄ±t": 6198,
      "Ġtim": 6199,
      "Ġhala": 6200,
      "Ġproposed": 6201,
      "ralÄ±": 6202,
      "Ġdraw": 6203,
      "imde": 6204,
      "ĠCroat": 6205,
      "ĠÃ¶ÄŁretmen": 6206,
      "Ġprivate": 6207,
      "madÄ±ÄŁÄ±": 6208,
      "Ġsebeb": 6209,
      "Ġwhether": 6210,
      "Ġlocation": 6211,
      "Ġsomet": 6212,
      "lie": 6213,
      "Ġassigned": 6214,
      "Ġprinc": 6215,
      "ĠCalifornia": 6216,
      "Ġcenaz": 6217,
      "hol": 6218,
      "All": 6219,
      "Ġincrease": 6220,
      "Ġkanal": 6221,
      "yÄ±lmaz": 6222,
      "cell": 6223,
      "ĠgÃ¼nÃ¼mÃ¼z": 6224,
      "Ġforms": 6225,
      "ĠDon": 6226,
      "Ġmetre": 6227,
      "ĠScot": 6228,
      "Ġherkesin": 6229,
      "Her": 6230,
      "Ġparis": 6231,
      "Ġtemiz": 6232,
      "Ġbebe": 6233,
      "Ġult": 6234,
      "Ġdefeat": 6235,
      "Ġdestroyed": 6236,
      "andon": 6237,
      "Ġfans": 6238,
      "Ä±mÄ±za": 6239,
      "Ġchanged": 6240,
      "cilik": 6241,
      "asy": 6242,
      "Ġgot": 6243,
      "anish": 6244,
      "Ġvermek": 6245,
      "Ġ53": 6246,
      "ĠyerleÅŁtir": 6247,
      "ĠÃ§alÄ±ÅŁÄ±yor": 6248,
      "ĠScott": 6249,
      "oration": 6250,
      "ĠVer": 6251,
      "sk": 6252,
      "ĠRose": 6253,
      "Ġproduct": 6254,
      "ĠIsra": 6255,
      "ĠLatin": 6256,
      "Ġ62": 6257,
      "Ġcommission": 6258,
      "Ġeffects": 6259,
      "Ġsonraki": 6260,
      "inia": 6261,
      "Ġearth": 6262,
      "ĠCatholic": 6263,
      "tered": 6264,
      "Ġexper": 6265,
      "ĠnÃ¼n": 6266,
      "Ġlonger": 6267,
      "Ġaccess": 6268,
      "Ġappears": 6269,
      "kurumu": 6270,
      "Ġreform": 6271,
      "And": 6272,
      "ĠÅŁampiyonlar": 6273,
      "ĠonlarÄ±n": 6274,
      "Ġ1930": 6275,
      "Ġtravel": 6276,
      "ĠMcC": 6277,
      "ĠbirleÅŁ": 6278,
      "ladÄ±ÄŁÄ±nÄ±": 6279,
      "Ġcerrahi": 6280,
      "Ġlis": 6281,
      "ĠiÃ§eri": 6282,
      "brek": 6283,
      "ederasyonu": 6284,
      "ĠmÃ¼s": 6285,
      "Ġvaz": 6286,
      "Ġdava": 6287,
      "Ġimpro": 6288,
      "gus": 6289,
      "Ġserbest": 6290,
      "roup": 6291,
      "Ġmeaning": 6292,
      "Ġbirey": 6293,
      "ability": 6294,
      "Ġunc": 6295,
      "ĠÃ¶ncesi": 6296,
      "ixon": 6297,
      "Ġobject": 6298,
      "Ġtraffic": 6299,
      "mÄ±yor": 6300,
      "Ġlyrics": 6301,
      "Ġbox": 6302,
      "Ġarama": 6303,
      "Ġreach": 6304,
      "ĠLight": 6305,
      "Ġnumbers": 6306,
      "Ġhizmeti": 6307,
      "Ġscholar": 6308,
      "Ġcir": 6309,
      "bÃ¼yÃ¼k": 6310,
      "Ġfestivali": 6311,
      "Ġyaparak": 6312,
      "Ġyerel": 6313,
      "Ġjob": 6314,
      "ĠulaÅŁtÄ±": 6315,
      "ĠtaÅŁÄ±yan": 6316,
      "Ġawarded": 6317,
      "ĠendiÅŁ": 6318,
      "Ġsoldiers": 6319,
      "isions": 6320,
      "hou": 6321,
      "Ġbound": 6322,
      "icle": 6323,
      "Ġreb": 6324,
      "Ġcarried": 6325,
      "ĠÃ§evre": 6326,
      "ization": 6327,
      "Ġleave": 6328,
      "acted": 6329,
      "ava": 6330,
      "Ġending": 6331,
      "ruit": 6332,
      "ĠsÄ±nÄ±": 6333,
      "ĠParliament": 6334,
      "ĠStev": 6335,
      "ĠPeter": 6336,
      "ĠÃ§erÃ§evesinde": 6337,
      "Ġcompetition": 6338,
      "Ġfocus": 6339,
      "Ġitalya": 6340,
      "Ġinn": 6341,
      "Ġistif": 6342,
      "ĠdÃ¼zenli": 6343,
      "ĠbahÃ§": 6344,
      "atively": 6345,
      "anti": 6346,
      "ĠFe": 6347,
      "Ġour": 6348,
      "ĠÃ¶nde": 6349,
      "ye": 6350,
      "undred": 6351,
      "Ġdokun": 6352,
      "Ġconducted": 6353,
      "indir": 6354,
      "Ġasp": 6355,
      "Ġbeklent": 6356,
      "Ġdaughter": 6357,
      "Ġmurat": 6358,
      "Ġmersin": 6359,
      "ĠderneÄŁi": 6360,
      "Ġimkan": 6361,
      "ĠtÃ¼mÃ¶r": 6362,
      "Ġayda": 6363,
      "ansiyon": 6364,
      "Ġnatural": 6365,
      "ĠtarÄ±m": 6366,
      "Ġsubsequently": 6367,
      "ugg": 6368,
      "ginia": 6369,
      "Ġamb": 6370,
      "Ġnewsp": 6371,
      "eksi": 6372,
      "Ġrecords": 6373,
      "aven": 6374,
      "rough": 6375,
      "Ġtrade": 6376,
      "Ġcontemporary": 6377,
      "Ġpatriot": 6378,
      "Ġtheme": 6379,
      "Ġara": 6380,
      "Ġsiyah": 6381,
      "isc": 6382,
      "itial": 6383,
      "ĠdoÄŁu": 6384,
      "Ġ700": 6385,
      "Ġhamas": 6386,
      "Ġbring": 6387,
      "ĠDr": 6388,
      "ĠÃ¼stÃ¼n": 6389,
      "soft": 6390,
      "Ġunderst": 6391,
      "ĠÃ¶te": 6392,
      "ĠateÅŁkes": 6393,
      "ĠattÄ±": 6394,
      "Ġconcert": 6395,
      "ills": 6396,
      "Ġfighting": 6397,
      "ilerle": 6398,
      "Ġgirdi": 6399,
      "Ġkonuk": 6400,
      "Ġkaydedildi": 6401,
      "Ġsap": 6402,
      "thing": 6403,
      "Ġwhole": 6404,
      "bed": 6405,
      "Ġgenelkur": 6406,
      "erken": 6407,
      "jik": 6408,
      "Ġuc": 6409,
      "ĠtaÅŁÄ±n": 6410,
      "But": 6411,
      "Ġwindows": 6412,
      "Ġshoot": 6413,
      "Ġ800": 6414,
      "ĠRuss": 6415,
      "ĠSm": 6416,
      "Ġtakes": 6417,
      "bankasÄ±": 6418,
      "lal": 6419,
      "lywood": 6420,
      "Ġdemon": 6421,
      "ĠyÃ¼rÃ¼y": 6422,
      "Ġalarak": 6423,
      "Ġtourn": 6424,
      "Ġcurrent": 6425,
      "ĠhÃ¼rriyet": 6426,
      "Ġoverall": 6427,
      "Ġ46": 6428,
      "Ġcause": 6429,
      "oted": 6430,
      "unday": 6431,
      "Ġtari": 6432,
      "Ġcommented": 6433,
      "ano": 6434,
      "geÃ§": 6435,
      "ĠbahÃ§e": 6436,
      "ĠbÃ¶brek": 6437,
      "Ġadana": 6438,
      "Ġindustry": 6439,
      "ĠayÄ±r": 6440,
      "mal": 6441,
      "ĠDu": 6442,
      "adÄ±klarÄ±nÄ±": 6443,
      "ĠLaw": 6444,
      "Ġchall": 6445,
      "Ġcred": 6446,
      "ĠÃ§evr": 6447,
      "ĠHaw": 6448,
      "alled": 6449,
      "Ġkonut": 6450,
      "Ġfinally": 6451,
      "ĠaldÄ±ÄŁÄ±nÄ±": 6452,
      "Ġasked": 6453,
      "Ġndeki": 6454,
      "ĠiÅŁbirliÄŁi": 6455,
      "Ġplans": 6456,
      "Ġzengin": 6457,
      "ĠMos": 6458,
      "Ġbilgileri": 6459,
      "ĠsorularÄ±nÄ±": 6460,
      "ĠsaÃ§": 6461,
      "lers": 6462,
      "Ġmemn": 6463,
      "aton": 6464,
      "Ġatan": 6465,
      "Ġfilmin": 6466,
      "kal": 6467,
      "ĠyaÅŁlÄ±": 6468,
      "ĠChicago": 6469,
      "ĠbaskÄ±": 6470,
      "Ġwood": 6471,
      "Ġdone": 6472,
      "lanmasÄ±": 6473,
      "ovic": 6474,
      "Ġemer": 6475,
      "ĠÃ§ocuklar": 6476,
      "Ġathlet": 6477,
      "Ġgreater": 6478,
      "mail": 6479,
      "Ġmethod": 6480,
      "ype": 6481,
      "aut": 6482,
      "Ġgenelkurmay": 6483,
      "Ġaj": 6484,
      "Ġkitab": 6485,
      "Ġislam": 6486,
      "ĠBC": 6487,
      "dÃ¼ÄŁ": 6488,
      "Ġrakip": 6489,
      "Ġakp": 6490,
      "Ġlabor": 6491,
      "Ġinfluence": 6492,
      "Ġ95": 6493,
      "liÄŁinde": 6494,
      "ĠsÃ¼rede": 6495,
      "Ġunable": 6496,
      "Ġortadan": 6497,
      "ĠdoÄŁr": 6498,
      "ĠTom": 6499,
      "Ġ57": 6500,
      "ĠCentral": 6501,
      "eda": 6502,
      "Ġfund": 6503,
      "ado": 6504,
      "Ġayk": 6505,
      "Ġkomut": 6506,
      "Ġamerikan": 6507,
      "ĠInf": 6508,
      "Ġaltyap": 6509,
      "Ġmarried": 6510,
      "zi": 6511,
      "fa": 6512,
      "Ġcompared": 6513,
      "Ġmahkeme": 6514,
      "ĠFederer": 6515,
      "Ġstone": 6516,
      "Ġderin": 6517,
      "ĠbaÅŁlayacak": 6518,
      "Ġrein": 6519,
      "owl": 6520,
      "ening": 6521,
      "stitute": 6522,
      "vik": 6523,
      "utoÄŁlu": 6524,
      "elerden": 6525,
      "ĠFrank": 6526,
      "Ġupper": 6527,
      "Ġtedavisi": 6528,
      "aid": 6529,
      "sar": 6530,
      "Ġliving": 6531,
      "Ġadres": 6532,
      "ĠÃ§Ä±kacak": 6533,
      "Ġcann": 6534,
      "ĠFort": 6535,
      "uluyor": 6536,
      "arÄ±nda": 6537,
      "Ġbilet": 6538,
      "Ġheyec": 6539,
      "Ġtail": 6540,
      "Ġmetrek": 6541,
      "Ġnakli": 6542,
      "elendir": 6543,
      "ondra": 6544,
      "Ġmountain": 6545,
      "dence": 6546,
      "Ġspeed": 6547,
      "Ch": 6548,
      "Ġflight": 6549,
      "atÃ¼r": 6550,
      "Ġpun": 6551,
      "Ġrekabet": 6552,
      "ĠSaint": 6553,
      "avi": 6554,
      "diklerini": 6555,
      "aches": 6556,
      "ĠhakkÄ±": 6557,
      "ĠyeÅŁil": 6558,
      "Ġaccom": 6559,
      "Ġlif": 6560,
      "essa": 6561,
      "Ġbuildings": 6562,
      "Ġearned": 6563,
      "iser": 6564,
      "ĠÃ¶den": 6565,
      "Ġcentre": 6566,
      "ander": 6567,
      "sÄ±nÄ±z": 6568,
      "Ġdipl": 6569,
      "ĠdÃ¼ÅŁÃ¼nÃ¼yorum": 6570,
      "kil": 6571,
      "Ġanaly": 6572,
      "Ġneler": 6573,
      "yÄ±": 6574,
      "Ġturk": 6575,
      "Ġaccount": 6576,
      "Ġdij": 6577,
      "ĠhastalÄ±ÄŁÄ±n": 6578,
      "Ġrapid": 6579,
      "ĠNe": 6580,
      "Ġhero": 6581,
      "Ġdoz": 6582,
      "Ġkemik": 6583,
      "Ġparty": 6584,
      "Ġgebelik": 6585,
      "Ġkendisi": 6586,
      "ĠgÃ¼nlerde": 6587,
      "Ġ1992": 6588,
      "tÄ±klarÄ±nÄ±": 6589,
      "Ġbursa": 6590,
      "Ġassociated": 6591,
      "ĠQu": 6592,
      "ĠaralarÄ±nda": 6593,
      "Ġmarked": 6594,
      "Ġ1994": 6595,
      "Another": 6596,
      "ylvan": 6597,
      "veriÅŁ": 6598,
      "Ġpurch": 6599,
      "Ġnucle": 6600,
      "Ġbrother": 6601,
      "Its": 6602,
      "Ġissued": 6603,
      "pression": 6604,
      "ĠCamp": 6605,
      "Ġemniyet": 6606,
      "Ġdirectly": 6607,
      "ĠinÅŁaat": 6608,
      "ĠiÃ§erik": 6609,
      "Ġdetermin": 6610,
      "exas": 6611,
      "ounts": 6612,
      "Ġith": 6613,
      "Ġortalama": 6614,
      "Ġprogress": 6615,
      "Ġacqu": 6616,
      "ĠEver": 6617,
      "Ġpositions": 6618,
      "ĠgeldiÄŁi": 6619,
      "ittee": 6620,
      "Ġ87": 6621,
      "ĠvirÃ¼s": 6622,
      "Ġkampany": 6623,
      "Ġavukat": 6624,
      "lamanÄ±n": 6625,
      "Ġhasan": 6626,
      "hend": 6627,
      "Ġbegins": 6628,
      "ĠÃ¶ngÃ¶r": 6629,
      "ĠWheeler": 6630,
      "ĠMed": 6631,
      "ĠCour": 6632,
      "ĠiÅŁÃ§": 6633,
      "Ġyerde": 6634,
      "ĠsanÄ±k": 6635,
      "Ġetkilen": 6636,
      "Ġterms": 6637,
      "Ġpersonal": 6638,
      "ĠbÃ¼yÃ¼kÅŁehir": 6639,
      "Ġglob": 6640,
      "ĠgÃ¶ren": 6641,
      "Ġ71": 6642,
      "aylor": 6643,
      "rika": 6644,
      "Ġhealth": 6645,
      "ĠPe": 6646,
      "Ġadvan": 6647,
      "Ġpiyasaya": 6648,
      "luj": 6649,
      "Ġlondra": 6650,
      "ĠkÄ±rmÄ±zÄ±": 6651,
      "Ġtell": 6652,
      "Ġbeslenme": 6653,
      "ani": 6654,
      "Ġslight": 6655,
      "ĠOtt": 6656,
      "Ġportray": 6657,
      "Ġwithdra": 6658,
      "ĠdanÄ±ÅŁ": 6659,
      "baÄŁ": 6660,
      "uals": 6661,
      "itation": 6662,
      "ekom": 6663,
      "panya": 6664,
      "Ġunit": 6665,
      "Ġelection": 6666,
      "Ġhelped": 6667,
      "ĠboÄŁ": 6668,
      "Ġhassas": 6669,
      "ĠaltÄ±": 6670,
      "Ġyasa": 6671,
      "ladÄ±klarÄ±nÄ±": 6672,
      "ĠdÄ±ÅŁarÄ±": 6673,
      "Ġcollect": 6674,
      "ĠyÃ¼zden": 6675,
      "Ġsuffered": 6676,
      "ĠyardÄ±mcÄ±sÄ±": 6677,
      "TV": 6678,
      "umed": 6679,
      "Ġsource": 6680,
      "Ġmovement": 6681,
      "ĠGar": 6682,
      "umn": 6683,
      "erset": 6684,
      "Ã¼lÃ¼": 6685,
      "Ġinformation": 6686,
      "his": 6687,
      "cription": 6688,
      "ĠTexas": 6689,
      "ĠedildiÄŁini": 6690,
      "ĠgerÃ§ekten": 6691,
      "Ġstarting": 6692,
      "Ġbooks": 6693,
      "Ġscenes": 6694,
      "ĠyÄ±lÄ±ndan": 6695,
      "belediyesi": 6696,
      "Ġvia": 6697,
      "ĠHist": 6698,
      "Ġmotor": 6699,
      "Ġtraditional": 6700,
      "Ġtrip": 6701,
      "Ġplanned": 6702,
      "icated": 6703,
      "ĠRes": 6704,
      "ĠyÃ¶nÃ¼nde": 6705,
      "ĠDep": 6706,
      "Ġdollar": 6707,
      "yÄ±z": 6708,
      "Ġbad": 6709,
      "ĠTour": 6710,
      "Ġolursa": 6711,
      "Ġroyal": 6712,
      "Ġgiving": 6713,
      "Ġ73": 6714,
      "ino": 6715,
      "abileceÄŁi": 6716,
      "Ġsant": 6717,
      "Ġap": 6718,
      "ĠbÃ¼tÃ§e": 6719,
      "ĠmaÄŁaz": 6720,
      "raat": 6721,
      "ĠNorthern": 6722,
      "Ġince": 6723,
      "Several": 6724,
      "ĠÅŁar": 6725,
      "ĠborÃ§": 6726,
      "Ġjaponya": 6727,
      "Ġclosed": 6728,
      "Ġstatus": 6729,
      "Ġarap": 6730,
      "Ġartist": 6731,
      "ĠHel": 6732,
      "ĠyaptÄ±ÄŁÄ±nÄ±": 6733,
      "Ġgrip": 6734,
      "Ġmachine": 6735,
      "Ġdivision": 6736,
      "ĠbaÅŁlam": 6737,
      "Ġwaters": 6738,
      "Ġfell": 6739,
      "Ġmarriage": 6740,
      "Ġhair": 6741,
      "Ġolma": 6742,
      "Ġkup": 6743,
      "urity": 6744,
      "Ġabandon": 6745,
      "Ġpresented": 6746,
      "Ġsecret": 6747,
      "ĠdÃ¶nÃ¼ÅŁÃ¼m": 6748,
      "ĠAfrican": 6749,
      "Ġinspired": 6750,
      "onna": 6751,
      "Ġotomobil": 6752,
      "Ġschools": 6753,
      "Ġprofes": 6754,
      "ĠeÄŁlen": 6755,
      "Ġleaders": 6756,
      "ĠBattle": 6757,
      "liÄŁin": 6758,
      "Ġhastanesi": 6759,
      "Ġekib": 6760,
      "Ġthick": 6761,
      "Ġhusband": 6762,
      "ĠyazÄ±lÄ±m": 6763,
      "ĠLake": 6764,
      "isiyle": 6765,
      "Ġroom": 6766,
      "eyn": 6767,
      "ĠMe": 6768,
      "ĠarÄ±nÃ§": 6769,
      "Ġraised": 6770,
      "ĠChristmas": 6771,
      "itude": 6772,
      "ylvania": 6773,
      "ura": 6774,
      "anger": 6775,
      "Ġekledi": 6776,
      "eph": 6777,
      "Ġcondoms": 6778,
      "ĠShe": 6779,
      "Ġpresence": 6780,
      "ĠsÃ¶zleÅŁ": 6781,
      "Ġgreatest": 6782,
      "Ġfigure": 6783,
      "Sh": 6784,
      "Ġ180": 6785,
      "Ġinitial": 6786,
      "Ġtesis": 6787,
      "Ġattacks": 6788,
      "ĠiyileÅŁ": 6789,
      "Ġcollection": 6790,
      "aging": 6791,
      "uluÄŁ": 6792,
      "iyer": 6793,
      "ĠOper": 6794,
      "Ġwriters": 6795,
      "ĠkÃ¶k": 6796,
      "Ã¼ler": 6797,
      "Ġdark": 6798,
      "efa": 6799,
      "ĠBey": 6800,
      "ĠÃ¼ncÃ¼": 6801,
      "ĠaÄŁÄ±z": 6802,
      "Ġcovered": 6803,
      "Ġven": 6804,
      "Ġstandart": 6805,
      "ĠdoÄŁalgaz": 6806,
      "ĠÅŁif": 6807,
      "ĠFilm": 6808,
      "Ġ66": 6809,
      "Ġnearby": 6810,
      "dr": 6811,
      "Ġcontinue": 6812,
      "ĠkullanÄ±cÄ±larÄ±n": 6813,
      "ĠHaifa": 6814,
      "Ġwound": 6815,
      "Ġculture": 6816,
      "yal": 6817,
      "aÅŁa": 6818,
      "Ġgur": 6819,
      "use": 6820,
      "uvar": 6821,
      "Ġmemnun": 6822,
      "ĠolacaÄŁ": 6823,
      "Ġitir": 6824,
      "ĠteÅŁvik": 6825,
      "Ġ1991": 6826,
      "Ġimage": 6827,
      "ĠacÄ±": 6828,
      "ĠinanÄ±yor": 6829,
      "rick": 6830,
      "Ġplot": 6831,
      "nis": 6832,
      "Ġemek": 6833,
      "Ġens": 6834,
      "mediÄŁini": 6835,
      "dum": 6836,
      "Ġyunanistan": 6837,
      "ĠInfantry": 6838,
      "ĠArch": 6839,
      "Ġcyclone": 6840,
      "Ġispanya": 6841,
      "Ġyerini": 6842,
      "AS": 6843,
      "Ġphil": 6844,
      "ĠHow": 6845,
      "ĠdoÄŁrudan": 6846,
      "Ġsimp": 6847,
      "Ġannual": 6848,
      "Ġspace": 6849,
      "ĠiÅŁi": 6850,
      "Ġcomplex": 6851,
      "Ġiptal": 6852,
      "Ġtraf": 6853,
      "bour": 6854,
      "Ġcounter": 6855,
      "Ġduyurdu": 6856,
      "anak": 6857,
      "Ġsearch": 6858,
      "ograf": 6859,
      "Ġcomposed": 6860,
      "ĠbÃ¶lge": 6861,
      "ettiÄŁi": 6862,
      "Ġhundred": 6863,
      "back": 6864,
      "ĠbunlarÄ±": 6865,
      "Ġuefa": 6866,
      "Ä±lmasÄ±na": 6867,
      "Ġmaliyet": 6868,
      "dal": 6869,
      "Ġhun": 6870,
      "sÃ¼": 6871,
      "ections": 6872,
      "Ġotel": 6873,
      "ĠSpanish": 6874,
      "ĠParty": 6875,
      "Ã³n": 6876,
      "emen": 6877,
      "Ġkamer": 6878,
      "Ġimm": 6879,
      "Ġamerika": 6880,
      "adam": 6881,
      "Ġpakistan": 6882,
      "gesel": 6883,
      "osk": 6884,
      "Ã§Ä±n": 6885,
      "Ġib": 6886,
      "Ġterritory": 6887,
      "eyer": 6888,
      "Ġextended": 6889,
      "Ġgiderek": 6890,
      "ĠkiÅŁiye": 6891,
      "Ġmedy": 6892,
      "Ġatmos": 6893,
      "ication": 6894,
      "ĠmaÃ§Ä±n": 6895,
      "Ġproducer": 6896,
      "Ġobez": 6897,
      "akap": 6898,
      "Ġgrand": 6899,
      "Ġweap": 6900,
      "Ġ54": 6901,
      "Ġavantaj": 6902,
      "Ġastron": 6903,
      "Ġreally": 6904,
      "ĠDan": 6905,
      "ube": 6906,
      "Ġpolic": 6907,
      "oncÃ©": 6908,
      "ayÄ±f": 6909,
      "embly": 6910,
      "Ġihtiyac": 6911,
      "Ġcommander": 6912,
      "Ġcathedral": 6913,
      "Ġopt": 6914,
      "Ġ61": 6915,
      "Ġveri": 6916,
      "ĠimralÄ±": 6917,
      "eway": 6918,
      "iyel": 6919,
      "anded": 6920,
      "Ġvocals": 6921,
      "Ġinstit": 6922,
      "Ä±lacak": 6923,
      "Ġkind": 6924,
      "Ġuses": 6925,
      "larÄ±mÄ±zÄ±n": 6926,
      "icted": 6927,
      "oph": 6928,
      "ĠolmalÄ±": 6929,
      "Ġnumerous": 6930,
      "ĠhÄ±zla": 6931,
      "II": 6932,
      "Ġho": 6933,
      "Ġthings": 6934,
      "ĠarttÄ±r": 6935,
      "pet": 6936,
      "ĠasÄ±l": 6937,
      "ĠmeÅŁ": 6938,
      "Ġbelirlendi": 6939,
      "utch": 6940,
      "ĠSeries": 6941,
      "ĠdeÄŁerli": 6942,
      "Ġeducation": 6943,
      "Ġpit": 6944,
      "Ġfigures": 6945,
      "ĠSoviet": 6946,
      "Ġhighly": 6947,
      "Ġesas": 6948,
      "Ġkapas": 6949,
      "Ġprevent": 6950,
      "olf": 6951,
      "Ġdise": 6952,
      "Ġservices": 6953,
      "Ġproteins": 6954,
      "Ġsomething": 6955,
      "Ġitibariyle": 6956,
      "ĠEnter": 6957,
      "liÄŁe": 6958,
      "Ġenjoy": 6959,
      "ĠkiÅŁisel": 6960,
      "ĠCarolina": 6961,
      "reye": 6962,
      "Ġmig": 6963,
      "ĠaÅŁÄ±": 6964,
      "Ġgiden": 6965,
      "Ġparlament": 6966,
      "ĠÃ¶zelleÅŁtir": 6967,
      "koÃ§": 6968,
      "uries": 6969,
      "odon": 6970,
      "Ġshel": 6971,
      "Ġ59": 6972,
      "bery": 6973,
      "ĠbeÄŁen": 6974,
      "ĠÃ¶ldÃ¼rÃ¼l": 6975,
      "ĠalÄ±ÅŁveriÅŁ": 6976,
      "Ġmorning": 6977,
      "Ġpath": 6978,
      "Ġattacked": 6979,
      "ĠStudi": 6980,
      "Ġstrength": 6981,
      "Ġ77": 6982,
      "Ġpromin": 6983,
      "taki": 6984,
      "Ġvergi": 6985,
      "ĠCommand": 6986,
      "Ġkarad": 6987,
      "Ġnisan": 6988,
      "Ġlot": 6989,
      "eyt": 6990,
      "Ã§elik": 6991,
      "zÄ±": 6992,
      "That": 6993,
      "ĠgÃ¶steriyor": 6994,
      "ĠyaÅŁÄ±nda": 6995,
      "Ġimmediately": 6996,
      "Ġoperation": 6997,
      "gn": 6998,
      "Ġvizyon": 6999,
      "abileceÄŁini": 7000,
      "ĠyapÄ±lÄ±yor": 7001,
      "Ġspir": 7002,
      "Ġecz": 7003,
      "Ġpurp": 7004,
      "Ġalab": 7005,
      "rag": 7006,
      "Ġbodies": 7007,
      "enek": 7008,
      "Ġattempts": 7009,
      "Ġfill": 7010,
      "ĠPolish": 7011,
      "bey": 7012,
      "Ã¼cÃ¼": 7013,
      "iydi": 7014,
      "Ġinvestig": 7015,
      "Ġindividual": 7016,
      "Ġbayrak": 7017,
      "ils": 7018,
      "Ġbrown": 7019,
      "ĠMr": 7020,
      "Ġuydu": 7021,
      "ĠgÃ¶revl": 7022,
      "ĠbaÅŁvuru": 7023,
      "ĠÅŁaÅŁ": 7024,
      "Ġincelem": 7025,
      "imleri": 7026,
      "Ġallowing": 7027,
      "ĠbalÄ±k": 7028,
      "ĠsÃ¼rpr": 7029,
      "ĠGermany": 7030,
      "ĠbÃ¼lent": 7031,
      "Ġbatter": 7032,
      "gk": 7033,
      "ĠNations": 7034,
      "Ġconfir": 7035,
      "onst": 7036,
      "Ġkurtar": 7037,
      "Ġcompanies": 7038,
      "Ġmiddle": 7039,
      "Ġhip": 7040,
      "ĠNixon": 7041,
      "essions": 7042,
      "itting": 7043,
      "Ġpowerful": 7044,
      "Ġkonfer": 7045,
      "Ġ96": 7046,
      "mamÄ±ÅŁ": 7047,
      "ĠÃ§ay": 7048,
      "ĠWood": 7049,
      "Ġpiano": 7050,
      "track": 7051,
      "Ġmens": 7052,
      "ĠBoy": 7053,
      "ipal": 7054,
      "Ġincor": 7055,
      "Ġgitti": 7056,
      "iami": 7057,
      "Ġtheat": 7058,
      "ĠiÃ§eren": 7059,
      "ĠtoplantÄ±sÄ±": 7060,
      "ĠÅŁehit": 7061,
      "Ġnecess": 7062,
      "Ġfabrik": 7063,
      "Ġnes": 7064,
      "Ġjack": 7065,
      "Ġheykel": 7066,
      "NA": 7067,
      "Ġremoved": 7068,
      "Ġdepo": 7069,
      "mium": 7070,
      "Ġoynan": 7071,
      "Ġ81": 7072,
      "Ġsubject": 7073,
      "ĠtÄ±r": 7074,
      "Ġvariety": 7075,
      "Ġpeaked": 7076,
      "ĠCollege": 7077,
      "ĠsÄ±nÄ±f": 7078,
      "Ġfla": 7079,
      "lands": 7080,
      "ĠVict": 7081,
      "Ġinside": 7082,
      "cÄ±lÄ±": 7083,
      "Ġartiller": 7084,
      "Ġartillery": 7085,
      "Ġbuild": 7086,
      "Ġoffered": 7087,
      "nesota": 7088,
      "ora": 7089,
      "ether": 7090,
      "Ġ72": 7091,
      "Ġsinger": 7092,
      "Ġfriends": 7093,
      "ĠzayÄ±f": 7094,
      "Ġdeprem": 7095,
      "rical": 7096,
      "Ġsituation": 7097,
      "Ġticari": 7098,
      "liÄŁine": 7099,
      "Ġneeded": 7100,
      "Ġnuclear": 7101,
      "ette": 7102,
      "Ġselected": 7103,
      "Ġkick": 7104,
      "box": 7105,
      "ĠtanÄ±tÄ±m": 7106,
      "ĠÃ¼retic": 7107,
      "Ġemin": 7108,
      "ĠvÃ¼cud": 7109,
      "Ġcoach": 7110,
      "Ġken": 7111,
      "Ġmeans": 7112,
      "ĠkoÅŁul": 7113,
      "ikten": 7114,
      "Ġcelebr": 7115,
      "Ġhands": 7116,
      "Ġcopies": 7117,
      "Ġdijital": 7118,
      "ĠGalveston": 7119,
      "tim": 7120,
      "Ġrate": 7121,
      "afer": 7122,
      "ĠSam": 7123,
      "Ġpu": 7124,
      "Ġmuhalif": 7125,
      "Ġheadquarters": 7126,
      "Ġdistance": 7127,
      "Ġtutuk": 7128,
      "ĠkullanÄ±mÄ±": 7129,
      "ĠmÃ¼hend": 7130,
      "Ġarchit": 7131,
      "Ġmurder": 7132,
      "ĠCross": 7133,
      "ĠMuseum": 7134,
      "Ġkilometre": 7135,
      "Ġcasual": 7136,
      "Ġhakan": 7137,
      "Ġnative": 7138,
      "ĠLi": 7139,
      "Ġcountries": 7140,
      "yer": 7141,
      "Ġlear": 7142,
      "ĠdÃ¶nÃ¼ÅŁtÃ¼r": 7143,
      "Ġresponsible": 7144,
      "ĠsaÄŁlay": 7145,
      "Ġtracks": 7146,
      "ĠyaÅŁadÄ±ÄŁÄ±": 7147,
      "Ġrespectively": 7148,
      "Ġscoring": 7149,
      "ĠParis": 7150,
      "Ġsport": 7151,
      "ĠÃ¼ye": 7152,
      "Ġdarbe": 7153,
      "Ġnumar": 7154,
      "ĠkaÃ§ak": 7155,
      "Ġut": 7156,
      "Ġattempted": 7157,
      "ĠSquadron": 7158,
      "Ġetkisi": 7159,
      "Ġbeklenen": 7160,
      "Ġfederal": 7161,
      "ij": 7162,
      "Ġturnuv": 7163,
      "ĠpeÅŁ": 7164,
      "ĠTel": 7165,
      "Ġov": 7166,
      "Ġactive": 7167,
      "ĠJam": 7168,
      "Ġtouchdown": 7169,
      "Ġkurulan": 7170,
      "Ġdescribes": 7171,
      "Ġsets": 7172,
      "Ã¼stÃ¼": 7173,
      "pon": 7174,
      "Ä±klÄ±k": 7175,
      "tures": 7176,
      "zons": 7177,
      "Ġscreen": 7178,
      "zonspor": 7179,
      "ĠkazandÄ±r": 7180,
      "ĠsanatÃ§": 7181,
      "Ġteslim": 7182,
      "Ġwidely": 7183,
      "sylvania": 7184,
      "Ġhigher": 7185,
      "ĠosmanlÄ±": 7186,
      "Ġdevletin": 7187,
      "ĠyapÄ±ldÄ±ÄŁÄ±nÄ±": 7188,
      "Ġkara": 7189,
      "ĠsÃ¶zcÃ¼sÃ¼": 7190,
      "Ġhaftada": 7191,
      "ĠServ": 7192,
      "ĠolmasÄ±nÄ±": 7193,
      "Ġgenus": 7194,
      "urken": 7195,
      "Ġmuay": 7196,
      "Ġtermin": 7197,
      "dian": 7198,
      "ĠfiyatÄ±": 7199,
      "pole": 7200,
      "Ġesn": 7201,
      "kemal": 7202,
      "Ġtv": 7203,
      "ÅŁek": 7204,
      "arlÄ±": 7205,
      "ĠScotland": 7206,
      "Ġbilimsel": 7207,
      "Ġzih": 7208,
      "sim": 7209,
      "Ġcricket": 7210,
      "ĠOpen": 7211,
      "Ġkayn": 7212,
      "ĠRoss": 7213,
      "eÄŁitim": 7214,
      "ĠÅŁen": 7215,
      "ĠyazÄ±": 7216,
      "ĠtecrÃ¼b": 7217,
      "Ġblue": 7218,
      "iyiz": 7219,
      "ĠÃ§i": 7220,
      "ansÄ±": 7221,
      "Ġmole": 7222,
      "Ã¼kle": 7223,
      "acaktÄ±r": 7224,
      "Ġsusp": 7225,
      "ĠEg": 7226,
      "Ġveh": 7227,
      "ĠsÃ¶zlerini": 7228,
      "Ġheavily": 7229,
      "Ġcourse": 7230,
      "Ġobserved": 7231,
      "Ġ182": 7232,
      "ĠQueen": 7233,
      "Ġeyalet": 7234,
      "Ġoppos": 7235,
      "eck": 7236,
      "Ġmeeting": 7237,
      "ĠÃ§ocuÄŁun": 7238,
      "adium": 7239,
      "kÄ±lÄ±Ã§daroÄŁlu": 7240,
      "ecause": 7241,
      "Ġreduced": 7242,
      "ville": 7243,
      "ĠiÃ§ine": 7244,
      "ĠAlice": 7245,
      "Ġray": 7246,
      "ĠFin": 7247,
      "rovers": 7248,
      "Ġsexual": 7249,
      "Ġess": 7250,
      "Ġbelow": 7251,
      "ĠLiverpool": 7252,
      "Ġperformances": 7253,
      "ises": 7254,
      "ĠyarÄ±": 7255,
      "uyoruz": 7256,
      "Ġpick": 7257,
      "Ġxenon": 7258,
      "Ġstudies": 7259,
      "Ġibrahim": 7260,
      "Ġtelefonu": 7261,
      "ĠGames": 7262,
      "ĠaraÅŁtÄ±rmalar": 7263,
      "ĠtÄ±": 7264,
      "ĠDj": 7265,
      "Ġsens": 7266,
      "Ġakdeniz": 7267,
      "aci": 7268,
      "Ġconcluded": 7269,
      "Ġcond": 7270,
      "Ġassa": 7271,
      "ĠiÃ§i": 7272,
      "Ġmatches": 7273,
      "Ġ181": 7274,
      "arÄ±yla": 7275,
      "Ġsokak": 7276,
      "Ġcivil": 7277,
      "ĠCorps": 7278,
      "Ġresulted": 7279,
      "ĠÃ§oÄŁun": 7280,
      "ĠBel": 7281,
      "ĠreÃ§et": 7282,
      "tainment": 7283,
      "Ġrelief": 7284,
      "larÄ±ndaki": 7285,
      "ĠChina": 7286,
      "Ġheart": 7287,
      "mil": 7288,
      "mede": 7289,
      "baÅŁbakan": 7290,
      "ĠkeÅŁf": 7291,
      "ĠSecond": 7292,
      "aped": 7293,
      "well": 7294,
      "ĠÃ§Ä±kÄ±yor": 7295,
      "Ġaudience": 7296,
      "elerle": 7297,
      "Ġdiplom": 7298,
      "Ġsendrom": 7299,
      "ĠgeÃ§iÅŁ": 7300,
      "imli": 7301,
      "ĠgÃ¶ÄŁ": 7302,
      "ĠsaÄŁlayan": 7303,
      "Ġ1986": 7304,
      "Both": 7305,
      "essed": 7306,
      "eyse": 7307,
      "Ġhakem": 7308,
      "Ġrule": 7309,
      "Ġadminist": 7310,
      "Ġmim": 7311,
      "Their": 7312,
      "ĠLos": 7313,
      "Ġadvance": 7314,
      "Ġsixth": 7315,
      "larÄ±mÄ±zÄ±": 7316,
      "isa": 7317,
      "ĠJane": 7318,
      "Ġhayal": 7319,
      "ĠTenn": 7320,
      "Ġuniversity": 7321,
      "Ġkesinlikle": 7322,
      "send": 7323,
      "istanbul": 7324,
      "Ġtrue": 7325,
      "like": 7326,
      "ootball": 7327,
      "indi": 7328,
      "Ġkuvvet": 7329,
      "Ġkuy": 7330,
      "Ġyiy": 7331,
      "Ġanket": 7332,
      "Ġrast": 7333,
      "Ġopportun": 7334,
      "ruck": 7335,
      "Ar": 7336,
      "Ġborder": 7337,
      "Ġstating": 7338,
      "Ġsermay": 7339,
      "uluÄŁu": 7340,
      "allah": 7341,
      "ĠÃ§Ä±kÄ±ÅŁ": 7342,
      "Ġgerekti": 7343,
      "ĠinsanÄ±n": 7344,
      "Ġadvant": 7345,
      "ecting": 7346,
      "ĠBrad": 7347,
      "mÃ¼yor": 7348,
      "iri": 7349,
      "ĠPat": 7350,
      "ledge": 7351,
      "Ġdarb": 7352,
      "ĠalÄ±nmasÄ±": 7353,
      "Ġsense": 7354,
      "Ġpas": 7355,
      "ĠDepartment": 7356,
      "ving": 7357,
      "ĠkarÅŁÄ±lan": 7358,
      "ĠadÄ±nÄ±": 7359,
      "ĠhÃ¼kÃ¼meti": 7360,
      "ump": 7361,
      "lÄ±klÄ±": 7362,
      "Ġortad": 7363,
      "ĠfaktÃ¶r": 7364,
      "Ġoyunun": 7365,
      "Ġikram": 7366,
      "Ġzirv": 7367,
      "Ġlam": 7368,
      "ĠhÄ±r": 7369,
      "Ġmax": 7370,
      "Ġzorun": 7371,
      "Ġmit": 7372,
      "Ġappearances": 7373,
      "Ġservis": 7374,
      "Mont": 7375,
      "doÄŁu": 7376,
      "Ġblood": 7377,
      "Ġactivity": 7378,
      "Ġrevealed": 7379,
      "daÅŁ": 7380,
      "Ġappar": 7381,
      "ĠCenter": 7382,
      "isinden": 7383,
      "Ġolimp": 7384,
      "ĠMart": 7385,
      "Ġ94": 7386,
      "ĠhazÄ±rlanan": 7387,
      "Ġifadesini": 7388,
      "Ġdek": 7389,
      "leyecek": 7390,
      "did": 7391,
      "ĠLady": 7392,
      "Ġseparate": 7393,
      "Ġbird": 7394,
      "ĠCer": 7395,
      "lict": 7396,
      "ĠnÃ¼f": 7397,
      "sizlik": 7398,
      "Ġrefused": 7399,
      "Ġlevels": 7400,
      "Ġcoug": 7401,
      "ĠulaÅŁtÄ±r": 7402,
      "akapo": 7403,
      "ican": 7404,
      "Ġsuc": 7405,
      "ĠdÃ¼ÅŁÃ¼ÅŁ": 7406,
      "ĠyaptÄ±klarÄ±": 7407,
      "Ġdrum": 7408,
      "Ġcompletely": 7409,
      "Ġtrees": 7410,
      "Ġithal": 7411,
      "brÄ±s": 7412,
      "Ġmanaged": 7413,
      "Ä±nar": 7414,
      "Ġkendilerine": 7415,
      "Ġmeme": 7416,
      "Ġkonuyla": 7417,
      "lanacak": 7418,
      "Ġ88": 7419,
      "orship": 7420,
      "ĠHurricane": 7421,
      "ĠiÅŁbir": 7422,
      "Ġquality": 7423,
      "iron": 7424,
      "Ġenerj": 7425,
      "Ġdeclared": 7426,
      "amay": 7427,
      "Ġdisapp": 7428,
      "Ġtrabzonspor": 7429,
      "Ġtoday": 7430,
      "Ġquestion": 7431,
      "muz": 7432,
      "Ġamount": 7433,
      "Ġfinancial": 7434,
      "peror": 7435,
      "ologist": 7436,
      "landÄ±ÄŁÄ±nÄ±": 7437,
      "ĠGl": 7438,
      "liÄŁinin": 7439,
      "ĠkadÄ±nlar": 7440,
      "ĠMinnesota": 7441,
      "Ġkimse": 7442,
      "ĠamerikalÄ±": 7443,
      "uments": 7444,
      "ĠtakÄ±mÄ±": 7445,
      "Ġettiklerini": 7446,
      "ĠDel": 7447,
      "ĠsayÄ±sÄ±nÄ±n": 7448,
      "ĠdÃ¼ÅŁen": 7449,
      "annel": 7450,
      "ĠhatÄ±rlatan": 7451,
      "Ġfeaturing": 7452,
      "erve": 7453,
      "anesi": 7454,
      "ĠyanÄ±tladÄ±": 7455,
      "lili": 7456,
      "Ġcontrovers": 7457,
      "Ġtypically": 7458,
      "ĠinÅŁa": 7459,
      "Ġhistorical": 7460,
      "onymous": 7461,
      "overs": 7462,
      "ĠWas": 7463,
      "Ġcarry": 7464,
      "icole": 7465,
      "ĠolmasÄ±na": 7466,
      "Ġcontrast": 7467,
      "ĠVictor": 7468,
      "John": 7469,
      "miss": 7470,
      "Ġdeplasmanda": 7471,
      "ĠfÄ±rsat": 7472,
      "Ġstra": 7473,
      "ĠPennsylvania": 7474,
      "Ġisv": 7475,
      "Ġexpected": 7476,
      "ĠBeyoncÃ©": 7477,
      "Ad": 7478,
      "Ġrecent": 7479,
      "Ġparents": 7480,
      "Ġapproach": 7481,
      "Ġhalen": 7482,
      "muÅŁtu": 7483,
      "bin": 7484,
      "Ġera": 7485,
      "Ġemb": 7486,
      "Ġkapan": 7487,
      "Ġbelgesel": 7488,
      "Ġgizli": 7489,
      "Ġmali": 7490,
      "ĠalanÄ±": 7491,
      "aund": 7492,
      "Ġkahram": 7493,
      "beer": 7494,
      "eyerbeer": 7495,
      "ĠInter": 7496,
      "Ġfayd": 7497,
      "var": 7498,
      "ansÄ±z": 7499,
      "Ġactions": 7500,
      "Ġuzmanlar": 7501,
      "kay": 7502,
      "abor": 7503,
      "ĠyaptÄ±klarÄ±nÄ±": 7504,
      "ĠForce": 7505,
      "ĠÃ¶ncesinde": 7506,
      "ĠApp": 7507,
      "Ġsolo": 7508,
      "Ġyapmaya": 7509,
      "ĠkaÃ§Ä±r": 7510,
      "ĠNor": 7511,
      "Ġistiyorum": 7512,
      "ĠsÄ±v": 7513,
      "ker": 7514,
      "Ġsoundtrack": 7515,
      "Ġphot": 7516,
      "Ġdetay": 7517,
      "Ġnor": 7518,
      "ĠgenÃ§lik": 7519,
      "Ġsinir": 7520,
      "Ġcluj": 7521,
      "Ġidam": 7522,
      "ĠkomÅŁ": 7523,
      "Ġmicrosoft": 7524,
      "ĠItalian": 7525,
      "Ġconditions": 7526,
      "ĠdesteÄŁi": 7527,
      "ĠLa": 7528,
      "Ġbecomes": 7529,
      "Ġhamil": 7530,
      "Ġfore": 7531,
      "Ġattention": 7532,
      "manÄ±z": 7533,
      "Ġcorn": 7534,
      "ĠnÄ±": 7535,
      "ĠbirliÄŁi": 7536,
      "Ġinters": 7537,
      "Ġemot": 7538,
      "Ġkonus": 7539,
      "ĠHawai": 7540,
      "Ġnation": 7541,
      "po": 7542,
      "ĠTaylor": 7543,
      "Ġartan": 7544,
      "athus": 7545,
      "ĠhalkÄ±n": 7546,
      "Ġbilgiler": 7547,
      "Ġhouses": 7548,
      "ilendir": 7549,
      "ĠanlayÄ±ÅŁ": 7550,
      "ĠÂ·": 7551,
      "Ġmainly": 7552,
      "Ġrhy": 7553,
      "Ġkrizi": 7554,
      "Ġplays": 7555,
      "Ġbitir": 7556,
      "Ġchrom": 7557,
      "ĠÅŁeyler": 7558,
      "Ġcab": 7559,
      "lÄ±klarÄ±": 7560,
      "Ä±ldÄ±ÄŁÄ±nda": 7561,
      "Ġedebiyat": 7562,
      "Ġtrial": 7563,
      "Ġsubst": 7564,
      "Ġaid": 7565,
      "mÃ¼z": 7566,
      "ĠolasÄ±": 7567,
      "ebileceÄŁini": 7568,
      "Ġgirl": 7569,
      "inkel": 7570,
      "FA": 7571,
      "Over": 7572,
      "Ġactivities": 7573,
      "Ġsurrounding": 7574,
      "ĠfransÄ±z": 7575,
      "Ġrout": 7576,
      "Ġbud": 7577,
      "ĠgÃ¼ncel": 7578,
      "ĠbÃ¶lgesinde": 7579,
      "Ġmedical": 7580,
      "icially": 7581,
      "Ġtaki": 7582,
      "ĠbilinÃ§": 7583,
      "ĠÃ¼cretsiz": 7584,
      "hak": 7585,
      "leyman": 7586,
      "Ġspons": 7587,
      "Ġduygu": 7588,
      "Ġorman": 7589,
      "Ġasla": 7590,
      "mark": 7591,
      "iran": 7592,
      "ging": 7593,
      "Ġsac": 7594,
      "ĠÃ¼zerindeki": 7595,
      "Ġcrow": 7596,
      "Ġpow": 7597,
      "imizde": 7598,
      "ĠdÃ¶nemi": 7599,
      "ĠyatÄ±rÄ±mcÄ±": 7600,
      "Ġwebs": 7601,
      "Ġrear": 7602,
      "Ġwing": 7603,
      "Ġaw": 7604,
      "ĠiÅŁit": 7605,
      "Ġspecim": 7606,
      "lank": 7607,
      "ĠBob": 7608,
      "Ġcolor": 7609,
      "Ġseasons": 7610,
      "azz": 7611,
      "Ġactually": 7612,
      "Ġreh": 7613,
      "ĠâĢ¢": 7614,
      "ĠKh": 7615,
      "Ġ98": 7616,
      "Ġcalling": 7617,
      "ĠSea": 7618,
      "mahkem": 7619,
      "Ġglobal": 7620,
      "Ġismi": 7621,
      "ĠBen": 7622,
      "elerinden": 7623,
      "ĠAcad": 7624,
      "raathens": 7625,
      "atives": 7626,
      "Ä±nma": 7627,
      "Ġorganizasyon": 7628,
      "ĠarttÄ±": 7629,
      "ires": 7630,
      "Ġiron": 7631,
      "ĠÃ§evres": 7632,
      "Ġstruck": 7633,
      "Ġolmay": 7634,
      "Ġkanseri": 7635,
      "Ġmam": 7636,
      "Ġhafif": 7637,
      "Ä±sÄ±z": 7638,
      "Ä±yÄ±": 7639,
      "essor": 7640,
      "Ġwrite": 7641,
      "ĠgeleceÄŁ": 7642,
      "Ġentr": 7643,
      "Ġresidents": 7644,
      "mamak": 7645,
      "ĠtanÄ±n": 7646,
      "Ġmadde": 7647,
      "lup": 7648,
      "prise": 7649,
      "Ġstrugg": 7650,
      "Ġkemal": 7651,
      "Ġ67": 7652,
      "ĠihtiyacÄ±": 7653,
      "ellig": 7654,
      "Ġtax": 7655,
      "Ġcannot": 7656,
      "ĠsaygÄ±": 7657,
      "Ġissues": 7658,
      "jen": 7659,
      "Ġbelg": 7660,
      "Ġopera": 7661,
      "Ġ1988": 7662,
      "ĠSociety": 7663,
      "amb": 7664,
      "Ġachieved": 7665,
      "Ġfear": 7666,
      "luluk": 7667,
      "ĠpaylaÅŁÄ±m": 7668,
      "Ġchem": 7669,
      "dat": 7670,
      "ĠtÄ±b": 7671,
      "lediklerini": 7672,
      "ĠyavaÅŁ": 7673,
      "Ġtansiyon": 7674,
      "ĠkadÄ±nlarÄ±n": 7675,
      "Because": 7676,
      "larca": 7677,
      "acan": 7678,
      "ĠsaÄŁlamak": 7679,
      "Ġ1920": 7680,
      "Ġodak": 7681,
      "ĠgÃ¶zlem": 7682,
      "ĠbakanÄ±": 7683,
      "Ġvocal": 7684,
      "Ġspread": 7685,
      "ĠdeÄŁinen": 7686,
      "Ġreinfor": 7687,
      "enge": 7688,
      "esindeki": 7689,
      "Ġrespond": 7690,
      "ĠVirginia": 7691,
      "Ġwear": 7692,
      "ĠÃ¼lkemizde": 7693,
      "Ã¼kleer": 7694,
      "inkelstein": 7695,
      "ores": 7696,
      "road": 7697,
      "Ã¼ny": 7698,
      "Ġtap": 7699,
      "ĠIl": 7700,
      "Ġboard": 7701,
      "Ġtedbir": 7702,
      "Ġalam": 7703,
      "Ġang": 7704,
      "Ġanlamda": 7705,
      "bah": 7706,
      "isyen": 7707,
      "eces": 7708,
      "Ġinstrum": 7709,
      "Ġbirinin": 7710,
      "Ġefforts": 7711,
      "Ġaccepted": 7712,
      "Ġrecomm": 7713,
      "ĠuygulamasÄ±": 7714,
      "ety": 7715,
      "ĠtÃ¼ketic": 7716,
      "Ġgain": 7717,
      "ĠbaÅŁlay": 7718,
      "Ġhalka": 7719,
      "takÄ±m": 7720,
      "Ġcolour": 7721,
      "Ġprimarily": 7722,
      "irt": 7723,
      "Ġscale": 7724,
      "com": 7725,
      "pendence": 7726,
      "ĠConst": 7727,
      "Ġviewers": 7728,
      "ency": 7729,
      "ĠkÄ±zÄ±l": 7730,
      "Ġroles": 7731,
      "iled": 7732,
      "Ġyakal": 7733,
      "Ġtitles": 7734,
      "Ġpractice": 7735,
      "Ġvic": 7736,
      "ĠmaÄŁdur": 7737,
      "ĠÃ¶rneÄŁin": 7738,
      "Ġserious": 7739,
      "etts": 7740,
      "Ġaraz": 7741,
      "ĠRob": 7742,
      "hai": 7743,
      "Ġfiction": 7744,
      "ĠhayÄ±r": 7745,
      "Ġyoktur": 7746,
      "Ġwr": 7747,
      "Ġhind": 7748,
      "ĠkullandÄ±ÄŁÄ±": 7749,
      "overy": 7750,
      "ĠSomerset": 7751,
      "Ġscient": 7752,
      "Ġhac": 7753,
      "onents": 7754,
      "ĠFootball": 7755,
      "ĠÃ¶m": 7756,
      "Ġseyirc": 7757,
      "ĠgerÃ§ekleÅŁti": 7758,
      "ĠaktardÄ±": 7759,
      "Ġgere": 7760,
      "ĠkarÅŁÄ±ya": 7761,
      "ĠvazgeÃ§": 7762,
      "lanmÄ±ÅŁ": 7763,
      "Ġces": 7764,
      "Ġarchitect": 7765,
      "ĠJackson": 7766,
      "ĠdirektÃ¶rÃ¼": 7767,
      "nh": 7768,
      "Ġnest": 7769,
      "Ġelected": 7770,
      "Ġinfantry": 7771,
      "ĠbaÅŁkanlÄ±ÄŁÄ±": 7772,
      "Ġtepk": 7773,
      "Ġthous": 7774,
      "Ġbackground": 7775,
      "Ġowned": 7776,
      "ĠAre": 7777,
      "Ġslightly": 7778,
      "Ġdemonstr": 7779,
      "esb": 7780,
      "ĠkullanÄ±l": 7781,
      "ĠbÃ¼yÃ¼me": 7782,
      "Ġlb": 7783,
      "ĠBas": 7784,
      "Ġtwenty": 7785,
      "ĠSouthern": 7786,
      "Ġsefer": 7787,
      "nik": 7788,
      "ĠdinÃ§": 7789,
      "ĠMet": 7790,
      "ĠmayÄ±s": 7791,
      "Ġinches": 7792,
      "Ġrights": 7793,
      "cre": 7794,
      "ilmesini": 7795,
      "kup": 7796,
      "Ġsonuna": 7797,
      "Ġhospital": 7798,
      "Ġconcent": 7799,
      "Ġhediye": 7800,
      "ĠeÅŁi": 7801,
      "ĠÃ¼m": 7802,
      "ĠÃ¶mer": 7803,
      "Ġdistinct": 7804,
      "ĠnÃ¼kleer": 7805,
      "ĠEgyp": 7806,
      "Ġwords": 7807,
      "ĠÃ¼nivers": 7808,
      "Ġexpressed": 7809,
      "Ġistihdam": 7810,
      "Ġnortheast": 7811,
      "ĠBlue": 7812,
      "Ġdurumun": 7813,
      "ĠOttoman": 7814,
      "Ġturg": 7815,
      "ĠnÃ¶": 7816,
      "Ġtypes": 7817,
      "MS": 7818,
      "Ġyeme": 7819,
      "Ġcaz": 7820,
      "makta": 7821,
      "ibility": 7822,
      "Ġmesaf": 7823,
      "ĠVietnam": 7824,
      "Ġcombat": 7825,
      "ĠTem": 7826,
      "itan": 7827,
      "Ġchampionship": 7828,
      "ĠAI": 7829,
      "Ġfikir": 7830,
      "ĠortadoÄŁu": 7831,
      "ĠadamlarÄ±": 7832,
      "malarÄ±n": 7833,
      "ĠyayÄ±nlanan": 7834,
      "uge": 7835,
      "key": 7836,
      "Ġrough": 7837,
      "ĠMountain": 7838,
      "Ġgenellikle": 7839,
      "En": 7840,
      "Ġdilek": 7841,
      "mayÄ±n": 7842,
      "ĠCourt": 7843,
      "Ġaffected": 7844,
      "ceeded": 7845,
      "ĠbÃ¼ny": 7846,
      "Ġneigh": 7847,
      "bury": 7848,
      "Ġsister": 7849,
      "Ġmarka": 7850,
      "Ġsequence": 7851,
      "uguese": 7852,
      "mahkemesi": 7853,
      "Ġshowed": 7854,
      "uzur": 7855,
      "ĠeriÅŁ": 7856,
      "ounds": 7857,
      "Ġaktif": 7858,
      "cular": 7859,
      "bil": 7860,
      "roid": 7861,
      "ĠAlex": 7862,
      "ports": 7863,
      "ĠyapÄ±lmÄ±ÅŁ": 7864,
      "Ġpenal": 7865,
      "Ġsymbol": 7866,
      "Ġantib": 7867,
      "ĠMo": 7868,
      "Ġdut": 7869,
      "ĠetmiÅŁ": 7870,
      "Ġcontrib": 7871,
      "osen": 7872,
      "ilerden": 7873,
      "ĠsaÄŁlÄ±yor": 7874,
      "Ġsales": 7875,
      "ĠShiva": 7876,
      "Ġcounty": 7877,
      "iklet": 7878,
      "Ġonline": 7879,
      "ulations": 7880,
      "ĠBol": 7881,
      "Ġoffensive": 7882,
      "Ġability": 7883,
      "ching": 7884,
      "kets": 7885,
      "itual": 7886,
      "room": 7887,
      "ĠsaÄŁlayacak": 7888,
      "imler": 7889,
      "oston": 7890,
      "elsh": 7891,
      "ĠOcean": 7892,
      "Ġofficer": 7893,
      "ĠfÄ±rlat": 7894,
      "Ġsout": 7895,
      "Ġ69": 7896,
      "Ġcultural": 7897,
      "Ġsays": 7898,
      "Ġ99": 7899,
      "Ġbattalion": 7900,
      "ero": 7901,
      "Ġmeyve": 7902,
      "ĠAcademy": 7903,
      "Ġdomest": 7904,
      "ĠdalÄ±": 7905,
      "aÄŁÄ±n": 7906,
      "intin": 7907,
      "Ġakt": 7908,
      "ĠaracÄ±": 7909,
      "Ġolun": 7910,
      "ĠLive": 7911,
      "Ġdepart": 7912,
      "inizi": 7913,
      "ilirken": 7914,
      "Ġcasualties": 7915,
      "lark": 7916,
      "Ġfruit": 7917,
      "ĠbaÅŁkenti": 7918,
      "Ġgeride": 7919,
      "Ġforest": 7920,
      "Ġtitled": 7921,
      "shire": 7922,
      "mond": 7923,
      "Ġolmas": 7924,
      "ilmesinin": 7925,
      "ĠkaybÄ±": 7926,
      "adel": 7927,
      "Ġ74": 7928,
      "ĠterÃ¶rist": 7929,
      "Ġdistrib": 7930,
      "Ġdisease": 7931,
      "Ġclim": 7932,
      "Ġincorpor": 7933,
      "ĠÃ¶rgÃ¼tÃ¼": 7934,
      "Ġhabit": 7935,
      "hale": 7936,
      "Ġizlen": 7937,
      "ĠAlkan": 7938,
      "lediÄŁini": 7939,
      "Ġona": 7940,
      "aranasi": 7941,
      "Ġsust": 7942,
      "Ġalkol": 7943,
      "ĠbaÅŁlÄ±yor": 7944,
      "Ġearliest": 7945,
      "Ġmaster": 7946,
      "aka": 7947,
      "Ġscul": 7948,
      "Ġmuhabirine": 7949,
      "dak": 7950,
      "ĠtakÄ±mÄ±n": 7951,
      "ĠbaÅŁladÄ±ÄŁÄ±nÄ±": 7952,
      "Ġkomisyonu": 7953,
      "ĠsÃ¼rdÃ¼": 7954,
      "mpire": 7955,
      "Ġnewspaper": 7956,
      "Ġlit": 7957,
      "Ġcontinues": 7958,
      "ĠyurtdÄ±ÅŁ": 7959,
      "ilebilir": 7960,
      "ĠAngeles": 7961,
      "Ġproduce": 7962,
      "ogad": 7963,
      "memesi": 7964,
      "Ġcombined": 7965,
      "Ġmentioned": 7966,
      "ĠÃ¼niversite": 7967,
      "Ġyeri": 7968,
      "tÄ±ÄŁÄ±mÄ±z": 7969,
      "ĠHorse": 7970,
      "Ġucuz": 7971,
      "Ġancient": 7972,
      "ĠolacaktÄ±r": 7973,
      "ĠyapÄ±ldÄ±ÄŁÄ±": 7974,
      "while": 7975,
      "ingu": 7976,
      "ĠAlb": 7977,
      "pedo": 7978,
      "ĠPortuguese": 7979,
      "23": 7980,
      "sed": 7981,
      "ĠService": 7982,
      "esbitt": 7983,
      "ĠHighway": 7984,
      "Ġfolk": 7985,
      "ĠgÃ¼cÃ¼": 7986,
      "ĠPrince": 7987,
      "aycan": 7988,
      "erbaycan": 7989,
      "Ġpic": 7990,
      "ĠArg": 7991,
      "Ġoynayan": 7992,
      "Ġalex": 7993,
      "Ġbridge": 7994,
      "Ġhalde": 7995,
      "Ġhid": 7996,
      "Ġremark": 7997,
      "Ġligde": 7998,
      "celi": 7999,
      "ĠedilmiÅŁ": 8000,
      "ĠgÃ¶ÄŁÃ¼s": 8001,
      "Ġbayram": 8002,
      "Ã§ak": 8003,
      "Ġedition": 8004,
      "Ġ84": 8005,
      "Ġribaund": 8006,
      "ĠSpain": 8007,
      "teki": 8008,
      "Ġcerem": 8009,
      "Ġdyn": 8010,
      "Ġindi": 8011,
      "Ġtavs": 8012,
      "Ġpanel": 8013,
      "hood": 8014,
      "ĠGo": 8015,
      "Ġolimpiyat": 8016,
      "ĠoynadÄ±ÄŁÄ±": 8017,
      "Ġteb": 8018,
      "Ġflooding": 8019,
      "Ġolmadan": 8020,
      "Ġkritik": 8021,
      "Ġscript": 8022,
      "Ġhors": 8023,
      "ĠiÃ§indeki": 8024,
      "Ġsisteminin": 8025,
      "linois": 8026,
      "bur": 8027,
      "Ġdaily": 8028,
      "Ġstep": 8029,
      "heim": 8030,
      "Ġunivers": 8031,
      "ogue": 8032,
      "BA": 8033,
      "landÄ±ÄŁÄ±": 8034,
      "Ġ68": 8035,
      "Ġinfluenced": 8036,
      "Ġfully": 8037,
      "Ġexcav": 8038,
      "ĠMiami": 8039,
      "Ġartists": 8040,
      "Ġresulting": 8041,
      "ersey": 8042,
      "Ġauthorities": 8043,
      "Ġtower": 8044,
      "ĠÅŁiir": 8045,
      "ĠChe": 8046,
      "Ġadopted": 8047,
      "Ġnob": 8048,
      "Ġcinayet": 8049,
      "Ġakci": 8050,
      "Ġmission": 8051,
      "ĠbiliÅŁim": 8052,
      "va": 8053,
      "Ġbasis": 8054,
      "arnia": 8055,
      "ĠdÃ¶k": 8056,
      "ironment": 8057,
      "Ġmalz": 8058,
      "enant": 8059,
      "Ġnered": 8060,
      "ĠYue": 8061,
      "Ġtransl": 8062,
      "Ġlegal": 8063,
      "ĠilginÃ§": 8064,
      "Ġcaptain": 8065,
      "ĠSmith": 8066,
      "Ġcle": 8067,
      "wen": 8068,
      "ĠÃ§ekiyor": 8069,
      "Ġactor": 8070,
      "ĠverdiÄŁini": 8071,
      "Ġgrass": 8072,
      "set": 8073,
      "ĠonlarÄ±": 8074,
      "ĠÅŁeyi": 8075,
      "Ġvurg": 8076,
      "eman": 8077,
      "Ġ1989": 8078,
      "Ġenergy": 8079,
      "enathus": 8080,
      "daenathus": 8081,
      "ĠLand": 8082,
      "Ġinci": 8083,
      "Ġrekor": 8084,
      "Ġyellow": 8085,
      "helm": 8086,
      "Ġscience": 8087,
      "ĠzararlÄ±": 8088,
      "station": 8089,
      "Ġbozuk": 8090,
      "ĠÂĸ": 8091,
      "ĠMer": 8092,
      "acaklarÄ±nÄ±": 8093,
      "Ġtoward": 8094,
      "Ġwinter": 8095,
      "ĠEmpire": 8096,
      "ĠkÄ±zÄ±": 8097,
      "usal": 8098,
      "ĠkadÄ±nlarda": 8099,
      "Ġrepresented": 8100,
      "ĠyetiÅŁtir": 8101,
      "Ġyour": 8102,
      "ĠkonuÅŁma": 8103,
      "Ġ1985": 8104,
      "ĠRosebery": 8105,
      "Ġbelediy": 8106,
      "tuk": 8107,
      "Ġkg": 8108,
      "Ġmob": 8109,
      "Ġentir": 8110,
      "ĠtaÅŁÄ±yor": 8111,
      "nown": 8112,
      "diy": 8113,
      "house": 8114,
      "Ġreports": 8115,
      "Ġalone": 8116,
      "Ġcoming": 8117,
      "Ġtorpedo": 8118,
      "Ġjournal": 8119,
      "Ġsquare": 8120,
      "ĠdÃ¶": 8121,
      "rown": 8122,
      "manÄ±": 8123,
      "ĠsilahlÄ±": 8124,
      "Ġnedir": 8125,
      "eball": 8126,
      "Ġmanuf": 8127,
      "Ġredd": 8128,
      "Ġmanufac": 8129,
      "Ġcinsel": 8130,
      "lip": 8131,
      "elli": 8132,
      "iki": 8133,
      "elidir": 8134,
      "Ġnaz": 8135,
      "ĠgÃ¶rdÃ¼k": 8136,
      "Ġsever": 8137,
      "Ġoccasion": 8138,
      "Ġedge": 8139,
      "ĠmÃ¼hendis": 8140,
      "ĠÃ¶ncelikle": 8141,
      "ĠTe": 8142,
      "lÄ±klar": 8143,
      "Ġtane": 8144,
      "cÄ±nÄ±n": 8145,
      "Ġdele": 8146,
      "antin": 8147,
      "Ġrelatively": 8148,
      "Ġalongside": 8149,
      "Ġdelay": 8150,
      "Ġadvantage": 8151,
      "underbir": 8152,
      "cers": 8153,
      "ĠsÃ¼rdÃ¼rdÃ¼": 8154,
      "Though": 8155,
      "ĠIsrael": 8156,
      "apped": 8157,
      "erior": 8158,
      "Ġemekli": 8159,
      "ĠOlympic": 8160,
      "Ġnarrow": 8161,
      "Le": 8162,
      "Ġsides": 8163,
      "Ġreign": 8164,
      "Ġworkers": 8165,
      "Ġbinlerce": 8166,
      "Ġ110": 8167,
      "30": 8168,
      "ĠVan": 8169,
      "Ġsorumluluk": 8170,
      "ĠHum": 8171,
      "Ġencour": 8172,
      "Ġexhib": 8173,
      "Ġklas": 8174,
      "Ġkakapo": 8175,
      "Ġarmed": 8176,
      "Ġokuy": 8177,
      "Ġfounded": 8178,
      "Ġhaberine": 8179,
      "Ġniyet": 8180,
      "ification": 8181,
      "Ġnorthwest": 8182,
      "Ġrif": 8183,
      "Ġtutuklu": 8184,
      "ĠtÄ±bbi": 8185,
      "acaÄŁÄ±m": 8186,
      "Ġsizin": 8187,
      "ĠsÃ¼reÃ§te": 8188,
      "edar": 8189,
      "ĠlÃ¼k": 8190,
      "ĠWater": 8191,
      "Ġyerinde": 8192,
      "Ġpaper": 8193,
      "Ġtransferred": 8194,
      "stone": 8195,
      "Ġcadmium": 8196,
      "orus": 8197,
      "ĠMich": 8198,
      "Ġihlal": 8199,
      "Ġcore": 8200,
      "Ġtournament": 8201,
      "rem": 8202,
      "emesi": 8203,
      "ĠTw": 8204,
      "Ġattended": 8205,
      "ocks": 8206,
      "ĠManchester": 8207,
      "ius": 8208,
      "saÄŁ": 8209,
      "Ġdirection": 8210,
      "Ġmechan": 8211,
      "ĠSha": 8212,
      "Ġmile": 8213,
      "Ġofficially": 8214,
      "Ġindividuals": 8215,
      "Ġilan": 8216,
      "Ġtried": 8217,
      "Ġkarn": 8218,
      "Ġillustr": 8219,
      "umber": 8220,
      "oses": 8221,
      "Ġphysical": 8222,
      "memiz": 8223,
      "Ġsiv": 8224,
      "Ġorganized": 8225,
      "Ġchief": 8226,
      "Ġthemes": 8227,
      "Ġez": 8228,
      "ĠyargÄ±lan": 8229,
      "Ġmuhalefet": 8230,
      "Ä±sÄ±t": 8231,
      "alarla": 8232,
      "Ġverilecek": 8233,
      "lined": 8234,
      "ÄŁinden": 8235,
      "ĠgÃ¶rÃ¼le": 8236,
      "Ġayakk": 8237,
      "Ä±ndÄ±r": 8238,
      "ilian": 8239,
      "Ġletters": 8240,
      "Ġperman": 8241,
      "ĠeÅŁit": 8242,
      "tÄ±yor": 8243,
      "Ġeffort": 8244,
      "ĠSecret": 8245,
      "Ġlosing": 8246,
      "Ġjun": 8247,
      "ĠLong": 8248,
      "Ġtalk": 8249,
      "Ġofficials": 8250,
      "ĠCaptain": 8251,
      "lings": 8252,
      "Ġproved": 8253,
      "fÄ±": 8254,
      "ĠmÃ¼l": 8255,
      "ĠarasÄ±": 8256,
      "bat": 8257,
      "ulmaz": 8258,
      "ĠLan": 8259,
      "Ġmensup": 8260,
      "Ġextra": 8261,
      "Ġzehir": 8262,
      "ĠLou": 8263,
      "Ġcapture": 8264,
      "Ġdedicated": 8265,
      "Ġazerbaycan": 8266,
      "ĠJohnson": 8267,
      "vekili": 8268,
      "mediÄŁi": 8269,
      "AA": 8270,
      "Ġmetin": 8271,
      "Ġantibiyot": 8272,
      "Ġ#": 8273,
      "alardan": 8274,
      "ĠMosley": 8275,
      "Ġriski": 8276,
      "Ġdiyet": 8277,
      "Ġsek": 8278,
      "labama": 8279,
      "Ġmeslek": 8280,
      "lÄ±ÄŁÄ±nda": 8281,
      "Ġedilecek": 8282,
      "ĠArt": 8283,
      "Ġ1984": 8284,
      "ĠgÃ¶rÃ¼ldÃ¼": 8285,
      "ĠaÄŁrÄ±sÄ±": 8286,
      "Ġdiyal": 8287,
      "axy": 8288,
      "ĠmÃ¼slÃ¼": 8289,
      "Through": 8290,
      "Ġfast": 8291,
      "Ġrainfall": 8292,
      "Ġlives": 8293,
      "ĠMont": 8294,
      "ĠalÄ±m": 8295,
      "omer": 8296,
      "Ġ97": 8297,
      "ĠaÄŁust": 8298,
      "ela": 8299,
      "itness": 8300,
      "ilerde": 8301,
      "Ġdoing": 8302,
      "ĠkÃ¼t": 8303,
      "iyorlar": 8304,
      "ĠWelsh": 8305,
      "meyecek": 8306,
      "ĠhoÅŁ": 8307,
      "Sim": 8308,
      "ĠGroup": 8309,
      "ĠWay": 8310,
      "Ġkurban": 8311,
      "Ġintensity": 8312,
      "Ġemph": 8313,
      "Ġpersonel": 8314,
      "rab": 8315,
      "Ġthir": 8316,
      "ihanna": 8317,
      "Ġbid": 8318,
      "bÃ¶l": 8319,
      "utions": 8320,
      "ĠÃ¼yeleri": 8321,
      "ĠteÅŁkil": 8322,
      "mec": 8323,
      "ĠÃ§Ã¶": 8324,
      "Ġyoun": 8325,
      "Ġmaximum": 8326,
      "sekret": 8327,
      "Ġrang": 8328,
      "Ġgenelinde": 8329,
      "Ġkoruy": 8330,
      "Ġimprov": 8331,
      "ĠkullanÄ±cÄ±lar": 8332,
      "Ġshortly": 8333,
      "hab": 8334,
      "Ġpossibly": 8335,
      "ĠanÄ±m": 8336,
      "abilmek": 8337,
      "Ġheyet": 8338,
      "Ġexam": 8339,
      "ĠsonuÃ§lar": 8340,
      "Ġgazetecilerin": 8341,
      "Ġ79": 8342,
      "ĠaÄŁustos": 8343,
      "Ġdefense": 8344,
      "Ġekonomi": 8345,
      "Ġhoc": 8346,
      "Ġhorse": 8347,
      "uyorum": 8348,
      "maha": 8349,
      "Ġalle": 8350,
      "ĠHal": 8351,
      "Ġbununla": 8352,
      "Ġconflict": 8353,
      "Ġreplac": 8354,
      "Ġdivided": 8355,
      "Ġandroid": 8356,
      "ĠStorm": 8357,
      "Ġeye": 8358,
      "Ġbott": 8359,
      "Ġistifa": 8360,
      "ĠBalt": 8361,
      "phere": 8362,
      "tified": 8363,
      "ĠyapmÄ±ÅŁ": 8364,
      "Ġacting": 8365,
      "Ġdesignated": 8366,
      "Ġartarak": 8367,
      "ĠakciÄŁer": 8368,
      "Ġtemin": 8369,
      "Ġsimply": 8370,
      "Ġaray": 8371,
      "Ä±klarÄ±": 8372,
      "Ġyenil": 8373,
      "Ġburak": 8374,
      "igan": 8375,
      "Ġpiece": 8376,
      "ĠÄ±ÅŁÄ±k": 8377,
      "Ġvere": 8378,
      "Ġ1987": 8379,
      "icial": 8380,
      "Ġtalim": 8381,
      "unic": 8382,
      "Ä±klarÄ±nÄ±": 8383,
      "Ġsergil": 8384,
      "ĠgÃ¼venli": 8385,
      "Ġolder": 8386,
      "ĠtÃ¼": 8387,
      "Ġshape": 8388,
      "Ġbuldu": 8389,
      "Ġstrateg": 8390,
      "ĠConf": 8391,
      "If": 8392,
      "Ġfaced": 8393,
      "Ġpaid": 8394,
      "Ġyolc": 8395,
      "Ġfollows": 8396,
      "Ġ130": 8397,
      "ĠEngine": 8398,
      "Ġbask": 8399,
      "Ġmovie": 8400,
      "Ġalbums": 8401,
      "ĠPerÃ³n": 8402,
      "adelph": 8403,
      "Ġhuzur": 8404,
      "eyecek": 8405,
      "Ġpremi": 8406,
      "Ġmanagement": 8407,
      "Ġpaint": 8408,
      "ishu": 8409,
      "ervation": 8410,
      "ĠGovernment": 8411,
      "ogadishu": 8412,
      "ĠYank": 8413,
      "Ġsolun": 8414,
      "Car": 8415,
      "bc": 8416,
      "ĠPet": 8417,
      "Ġmaliye": 8418,
      "Ġpul": 8419,
      "sta": 8420,
      "Ġpattern": 8421,
      "imore": 8422,
      "hu": 8423,
      "Ġ89": 8424,
      "Ġacil": 8425,
      "Ġturkcell": 8426,
      "Ġnefes": 8427,
      "ĠkanÄ±": 8428,
      "Ġonto": 8429,
      "Ġportion": 8430,
      "kulÃ¼bÃ¼": 8431,
      "Ġtablo": 8432,
      "Ġtemsilcisi": 8433,
      "Ġistikrar": 8434,
      "illi": 8435,
      "Ġbroken": 8436,
      "ĠBook": 8437,
      "ĠPit": 8438,
      "Ġsociety": 8439,
      "Ġkept": 8440,
      "Ġforeign": 8441,
      "Ġspot": 8442,
      "ĠWeek": 8443,
      "ĠInde": 8444,
      "Ġprofesyon": 8445,
      "adelphia": 8446,
      "ĠlÄ±": 8447,
      "Ã¼lmesi": 8448,
      "Ġdissip": 8449,
      "Ġplaces": 8450,
      "ĠâĢ¦": 8451,
      "ricul": 8452,
      "Ġmind": 8453,
      "ĠÅŁahin": 8454,
      "Ġrobot": 8455,
      "Ġemphas": 8456,
      "Ġmide": 8457,
      "Ġ1964": 8458,
      "Ġsites": 8459,
      "Ġpotential": 8460,
      "Ġdetermined": 8461,
      "Ġoyuncular": 8462,
      "Ġbuz": 8463,
      "Ġdeste": 8464,
      "ĠaraÅŁtÄ±rmacÄ±": 8465,
      "ĠbaÄŁÄ±r": 8466,
      "isti": 8467,
      "ĠbÃ¼yÃ¼kel": 8468,
      "Ġfunction": 8469,
      "greg": 8470,
      "Ġ86": 8471,
      "wide": 8472,
      "Ġbirinc": 8473,
      "ĠiÅŁletim": 8474,
      "lendiÄŁini": 8475,
      "Ġrepe": 8476,
      "Ġletter": 8477,
      "We": 8478,
      "ĠbÃ¶lgesel": 8479,
      "Ġpotans": 8480,
      "Ã¼lÃ¼yor": 8481,
      "Ġsecurity": 8482,
      "ĠgeliÅŁmeler": 8483,
      "Ġliraya": 8484,
      "top": 8485,
      "Ġrat": 8486,
      "Ġtext": 8487,
      "Ġbilgiye": 8488,
      "icks": 8489,
      "Ġvural": 8490,
      "Ġmikro": 8491,
      "Ġoscar": 8492,
      "ĠForm": 8493,
      "Ġprem": 8494,
      "Ġallah": 8495,
      "Ġdenet": 8496,
      "Ġimpact": 8497,
      "ĠDir": 8498,
      "ĠOmaha": 8499,
      "Ġcharge": 8500,
      "Ġargued": 8501,
      "Ġegz": 8502,
      "Ġkapasit": 8503,
      "idan": 8504,
      "ĠbÃ¼yÃ¼": 8505,
      "ĠFrancis": 8506,
      "Ġple": 8507,
      "Ġadvert": 8508,
      "Ġimages": 8509,
      "ĠmÃ¼dahale": 8510,
      "Ġetmeye": 8511,
      "Ġdomestic": 8512,
      "Ġfox": 8513,
      "hum": 8514,
      "ĠLo": 8515,
      "ĠÃ§alÄ±ÅŁmasÄ±": 8516,
      "ĠJim": 8517,
      "ĠinsanlarÄ±": 8518,
      "Ġsuggests": 8519,
      "Ġauthority": 8520,
      "ĠinÅŁallah": 8521,
      "Ġneredeyse": 8522,
      "Ġcomedy": 8523,
      "ĠsektÃ¶rÃ¼nde": 8524,
      "ĠartÄ±ÅŁÄ±": 8525,
      "Ġendeksi": 8526,
      "Ġdocument": 8527,
      "Ġsources": 8528,
      "Ġgrew": 8529,
      "ĠGold": 8530,
      "Ġcontent": 8531,
      "Ġsahne": 8532,
      "Ġnam": 8533,
      "Ġsorusuna": 8534,
      "amadÄ±": 8535,
      "partisi": 8536,
      "ĠalÄ±ÅŁkan": 8537,
      "ĠiÅŁin": 8538,
      "Ġ78": 8539,
      "Ġevet": 8540,
      "Ġprotesto": 8541,
      "ĠWashington": 8542,
      "Ġca": 8543,
      "ĠFant": 8544,
      "Ġdepth": 8545,
      "ĠaÃ§Ä±dan": 8546,
      "abd": 8547,
      "ugby": 8548,
      "Ġplaystation": 8549,
      "Ġoynay": 8550,
      "ĠcezasÄ±": 8551,
      "Ġantibiyotik": 8552,
      "Ġfitch": 8553,
      "gari": 8554,
      "Ġnu": 8555,
      "ĠÅŁeb": 8556,
      "Ġlegis": 8557,
      "onun": 8558,
      "Ġpatron": 8559,
      "Ġitiraz": 8560,
      "inda": 8561,
      "ĠRoute": 8562,
      "Ġbelong": 8563,
      "Ġindependent": 8564,
      "Ġkonular": 8565,
      "ortal": 8566,
      "Ġelement": 8567,
      "Ġnokia": 8568,
      "Ġwebsite": 8569,
      "laÄŁ": 8570,
      "ĠAv": 8571,
      "ĠMeyerbeer": 8572,
      "istics": 8573,
      "ĠFleet": 8574,
      "ardo": 8575,
      "alyan": 8576,
      "Ġkavram": 8577,
      "ĠanÄ±msat": 8578,
      "Ġgerektir": 8579,
      "Ġadeta": 8580,
      "Ġpap": 8581,
      "Ġtwice": 8582,
      "Ġcouple": 8583,
      "right": 8584,
      "yum": 8585,
      "Ġunk": 8586,
      "lardÄ±r": 8587,
      "hedul": 8588,
      "baÅŁbakanÄ±": 8589,
      "Ġschedul": 8590,
      "ĠgeliÅŁim": 8591,
      "Station": 8592,
      "ĠValley": 8593,
      "Ġapart": 8594,
      "Ġgreen": 8595,
      "Ġprofesyonel": 8596,
      "eÅŁem": 8597,
      "Ġhere": 8598,
      "Ġsistemin": 8599,
      "alesef": 8600,
      "Ġcausing": 8601,
      "Ġmaalesef": 8602,
      "Ġultimately": 8603,
      "Ġwor": 8604,
      "Ġsuy": 8605,
      "Ġmakin": 8606,
      "helse": 8607,
      "Ġtarget": 8608,
      "ĠgÃ¶rÃ¼ÅŁme": 8609,
      "Ġpatent": 8610,
      "Ġkimlik": 8611,
      "Ġgained": 8612,
      "ĠBusch": 8613,
      "ĠKent": 8614,
      "ilme": 8615,
      "iÅŁehir": 8616,
      "Ġdebuted": 8617,
      "Ġcriticized": 8618,
      "Ġkaraci": 8619,
      "ĠAnderson": 8620,
      "ÅŁah": 8621,
      "ĠAdam": 8622,
      "Ġfavour": 8623,
      "Ġentrance": 8624,
      "Ġhor": 8625,
      "Ġ91": 8626,
      "ĠkapÄ±": 8627,
      "names": 8628,
      "ĠpayÄ±": 8629,
      "Ġremix": 8630,
      "ĠyÃ¼kselt": 8631,
      "Ġstructures": 8632,
      "Ġhers": 8633,
      "ĠÅŁef": 8634,
      "Ġprison": 8635,
      "Ġprojects": 8636,
      "Ġalternatif": 8637,
      "ĠistediÄŁini": 8638,
      "Ġnitelik": 8639,
      "Ġopin": 8640,
      "Ġmuseum": 8641,
      "ester": 8642,
      "Ġ160": 8643,
      "ĠkavuÅŁ": 8644,
      "ĠArgent": 8645,
      "Ġtwe": 8646,
      "Ġappeal": 8647,
      "Ġplanet": 8648,
      "ML": 8649,
      "Ġkum": 8650,
      "Ġhomes": 8651,
      "ĠÃ¼lkeye": 8652,
      "ĠRecords": 8653,
      "Ġcontaining": 8654,
      "entsel": 8655,
      "Ġtet": 8656,
      "ĠmÃ¼zesi": 8657,
      "Ġasgari": 8658,
      "Ġkural": 8659,
      "Ġhastane": 8660,
      "Ġcouncil": 8661,
      "ĠsorunlarÄ±": 8662,
      "kare": 8663,
      "writ": 8664,
      "edkare": 8665,
      "Ġinceleme": 8666,
      "ĠcivarÄ±nda": 8667,
      "Ġneut": 8668,
      "Ġmoral": 8669,
      "Ġteki": 8670,
      "Ġetme": 8671,
      "Ġchosen": 8672,
      "Ġcities": 8673,
      "ĠyaklaÅŁÄ±m": 8674,
      "Ġism": 8675,
      "ĠmÃ¼slÃ¼man": 8676,
      "Ġwave": 8677,
      "Ġvess": 8678,
      "ĠHome": 8679,
      "ĠbÃ¼yÃ¼y": 8680,
      "Ġhonor": 8681,
      "Ġturgut": 8682,
      "iro": 8683,
      "ahat": 8684,
      "Ġburied": 8685,
      "Ġobtain": 8686,
      "Ġtenis": 8687,
      "oir": 8688,
      "atops": 8689,
      "ĠJup": 8690,
      "Ġdeploy": 8691,
      "ĠCommission": 8692,
      "ĠDev": 8693,
      "Ġreact": 8694,
      "ĠDem": 8695,
      "ĠÃ§Ä±kmasÄ±": 8696,
      "ĠgerektiÄŁi": 8697,
      "helsea": 8698,
      "ilmesine": 8699,
      "ĠkadÄ±nÄ±n": 8700,
      "ordon": 8701,
      "ĠsÃ¼recinde": 8702,
      "ĠbebeÄŁin": 8703,
      "oli": 8704,
      "ĠCal": 8705,
      "Ġdefence": 8706,
      "Ġdakikada": 8707,
      "Ġwa": 8708,
      "enture": 8709,
      "Ġoyuncusu": 8710,
      "ĠWalpole": 8711,
      "Ġkentsel": 8712,
      "Ġyah": 8713,
      "Ġsez": 8714,
      "kupasÄ±": 8715,
      "Ġelse": 8716,
      "ĠkÃ¶pr": 8717,
      "Ġgezeg": 8718,
      "Ġfi": 8719,
      "Ä±za": 8720,
      "Ġbiliyor": 8721,
      "Ġbulundur": 8722,
      "Ġdefensive": 8723,
      "Ġsculpt": 8724,
      "Ã¶re": 8725,
      "adir": 8726,
      "ĠBowl": 8727,
      "Ġ1947": 8728,
      "Ġskor": 8729,
      "Ġgranted": 8730,
      "Ġsunuyor": 8731,
      "Ġassault": 8732,
      "Ġgrowing": 8733,
      "Ġmouth": 8734,
      "icles": 8735,
      "acts": 8736,
      "ruf": 8737,
      "Ġrejected": 8738,
      "Ġmoment": 8739,
      "Ġabandoned": 8740,
      "Ġox": 8741,
      "ĠTessa": 8742,
      "Ġdismiss": 8743,
      "mekte": 8744,
      "Ġformation": 8745,
      "ĠPlayStation": 8746,
      "Ġprominent": 8747,
      "ĠBab": 8748,
      "Ġacar": 8749,
      "Ġreference": 8750,
      "ĠPl": 8751,
      "ĠÃ¼rÃ¼nlerin": 8752,
      "Ġdub": 8753,
      "Ġarab": 8754,
      "ĠÃ¶y": 8755,
      "ĠparÃ§asÄ±": 8756,
      "ĠgÃ¶rÃ¼nt": 8757,
      "Ġconsecutive": 8758,
      "Ġkilling": 8759,
      "ĠAssembly": 8760,
      "Ġrating": 8761,
      "ĠboÄŁaz": 8762,
      "bÃ¼yÃ¼kÅŁehir": 8763,
      "Ġhapis": 8764,
      "Ġstanding": 8765,
      "Ġcezaev": 8766,
      "ĠCat": 8767,
      "ĠFar": 8768,
      "ĠTintin": 8769,
      "ĠgÃ¶revi": 8770,
      "Ġvitam": 8771,
      "Ġvisited": 8772,
      "ĠRad": 8773,
      "Ġyetkililer": 8774,
      "ĠOut": 8775,
      "Ġanimal": 8776,
      "ĠOff": 8777,
      "Ġkulak": 8778,
      "Ġcolony": 8779,
      "ĠPalest": 8780,
      "Ġuyd": 8781,
      "Ġdefin": 8782,
      "Ġkesim": 8783,
      "Ġrestaur": 8784,
      "ĠsÄ±vÄ±": 8785,
      "ĠSen": 8786,
      "ĠNews": 8787,
      "Ġtherefore": 8788,
      "Ġ1941": 8789,
      "Ġtrabzon": 8790,
      "ĠtoplantÄ±da": 8791,
      "ĠGreen": 8792,
      "Ġkendine": 8793,
      "tav": 8794,
      "lardaki": 8795,
      "Ġkongr": 8796,
      "Ġintellig": 8797,
      "Ġwild": 8798,
      "Ġ82": 8799,
      "Ġresults": 8800,
      "anlÄ±k": 8801,
      "ĠTropical": 8802,
      "Ġtemple": 8803,
      "Ġbattles": 8804,
      "Ġencoun": 8805,
      "Ġbedel": 8806,
      "ĠeÄŁitimi": 8807,
      "Ġrich": 8808,
      "Ġtemas": 8809,
      "ĠkatÄ±lÄ±mcÄ±": 8810,
      "Ġinch": 8811,
      "ĠÃ¶ks": 8812,
      "Ġdahi": 8813,
      "Ġorders": 8814,
      "Ã¶dÃ¼l": 8815,
      "ĠÃ§ak": 8816,
      "Ġbrigade": 8817,
      "ros": 8818,
      "Ġyenilen": 8819,
      "Ġekibi": 8820,
      "ĠyÄ±lbaÅŁÄ±": 8821,
      "Ġorganization": 8822,
      "mission": 8823,
      "acks": 8824,
      "Ġsergi": 8825,
      "ĠyapÄ±lab": 8826,
      "Ġyola": 8827,
      "ĠÃ§oÄŁu": 8828,
      "ĠRam": 8829,
      "ĠsatÄ±ÅŁÄ±": 8830,
      "ĠColon": 8831,
      "ĠlayÄ±k": 8832,
      "ĠsÃ¼rpriz": 8833,
      "ĠolaÄŁ": 8834,
      "ĠyÄ±lÄ±nÄ±n": 8835,
      "ĠVen": 8836,
      "asty": 8837,
      "Ġdiam": 8838,
      "Ġcilt": 8839,
      "ĠCast": 8840,
      "ĠolduÄŁunun": 8841,
      "Ġoynanan": 8842,
      "Ġstudent": 8843,
      "Ġequipment": 8844,
      "ĠdoÄŁrult": 8845,
      "VD": 8846,
      "lewh": 8847,
      "ĠLord": 8848,
      "lewhite": 8849,
      "yone": 8850,
      "ĠUnder": 8851,
      "Ġbroke": 8852,
      "Ġdevi": 8853,
      "ĠkarÅŁÄ±n": 8854,
      "Ġsche": 8855,
      "Ġassass": 8856,
      "Ġsystems": 8857,
      "ĠmuhteÅŁem": 8858,
      "ĠJupiter": 8859,
      "Am": 8860,
      "ĠÃ¶calan": 8861,
      "ĠCard": 8862,
      "Ġcondition": 8863,
      "ĠLittle": 8864,
      "ĠreÃ§ete": 8865,
      "Ġconver": 8866,
      "Ġthr": 8867,
      "isters": 8868,
      "Ġseconds": 8869,
      "Ġregions": 8870,
      "ĠistediÄŁi": 8871,
      "ĠbaÅŁlangÄ±": 8872,
      "espor": 8873,
      "ĠdaÄŁ": 8874,
      "Ġakadem": 8875,
      "Ġrecep": 8876,
      "Ġkaybeden": 8877,
      "Ġclaims": 8878,
      "ibbe": 8879,
      "anta": 8880,
      "Ġmales": 8881,
      "ĠkitabÄ±": 8882,
      "Ġwounded": 8883,
      "Ġbirim": 8884,
      "azy": 8885,
      "aspor": 8886,
      "Ġanaliz": 8887,
      "Ġseems": 8888,
      "Ġtemperature": 8889,
      "arÄ±nÃ§": 8890,
      "Ġsingles": 8891,
      "usion": 8892,
      "lues": 8893,
      "Ġbildiren": 8894,
      "ĠolaÄŁan": 8895,
      "Ġdolu": 8896,
      "Ġreaching": 8897,
      "Ġadj": 8898,
      "lusion": 8899,
      "Ġcells": 8900,
      "onstruction": 8901,
      "lit": 8902,
      "Ġfan": 8903,
      "Ġidentified": 8904,
      "Ġfix": 8905,
      "Ġpus": 8906,
      "ĠDVD": 8907,
      "Ġkoydu": 8908,
      "mun": 8909,
      "ĠbÃ¶lgesi": 8910,
      "ĠhalkÄ±nÄ±n": 8911,
      "Ġvurgulayarak": 8912,
      "hastanesi": 8913,
      "Federer": 8914,
      "Ġahead": 8915,
      "ĠIllinois": 8916,
      "imony": 8917,
      "ĠSir": 8918,
      "Ġsaha": 8919,
      "Ġdress": 8920,
      "jects": 8921,
      "ĠSar": 8922,
      "Ġgelmesi": 8923,
      "Ġenemy": 8924,
      "Ä±yorum": 8925,
      "Ġcases": 8926,
      "anet": 8927,
      "ĠCivil": 8928,
      "ĠAg": 8929,
      "ĠaÃ§tÄ±": 8930,
      "Ġnominated": 8931,
      "ĠdÃ¼ÅŁÃ¼nc": 8932,
      "ĠolabileceÄŁini": 8933,
      "ĠÃ¶ksÃ¼r": 8934,
      "Ġdata": 8935,
      "ĠsÃ¼rÃ¼yor": 8936,
      "ĠaracÄ±lÄ±ÄŁÄ±": 8937,
      "ĠColumb": 8938,
      "Ġizleyic": 8939,
      "Ġsitesi": 8940,
      "adÄ±klarÄ±": 8941,
      "uyucu": 8942,
      "Ġgam": 8943,
      "Ġhasar": 8944,
      "fi": 8945,
      "Ġromanya": 8946,
      "Ġ09": 8947,
      "Ġtedavisinde": 8948,
      "Ġolmaya": 8949,
      "ĠInstitute": 8950,
      "Ġgurur": 8951,
      "Ġsamp": 8952,
      "avrupa": 8953,
      "ĠkÃ¶ÅŁ": 8954,
      "ĠgÃ¶nÃ¼l": 8955,
      "lot": 8956,
      "Ġaired": 8957,
      "Ġinhab": 8958,
      "Ġheight": 8959,
      "Ġcollab": 8960,
      "Ġkoleksiyon": 8961,
      "Ġunique": 8962,
      "Ġbulut": 8963,
      "ĠKore": 8964,
      "Ġmekt": 8965,
      "Ġrare": 8966,
      "Ġaktaran": 8967,
      "Ġfres": 8968,
      "ĠSix": 8969,
      "ĠayrÄ±l": 8970,
      "Ġcuma": 8971,
      "ĠyakÄ±ndan": 8972,
      "ilies": 8973,
      "ĠdolaÅŁ": 8974,
      "ĠkÄ±smÄ±": 8975,
      "Ġoil": 8976,
      "Ġdrop": 8977,
      "Ġhang": 8978,
      "Ġnewly": 8979,
      "Ġopposed": 8980,
      "Ġlooking": 8981,
      "ĠaÅŁkÄ±n": 8982,
      "Ġreturning": 8983,
      "Ġknowledge": 8984,
      "mit": 8985,
      "Ġwalk": 8986,
      "ĠÃ¶ÄŁrenci": 8987,
      "ĠClub": 8988,
      "ĠYoung": 8989,
      "ĠdÃ¼nyadaki": 8990,
      "arts": 8991,
      "ĠsÃ¼redir": 8992,
      "Ġokur": 8993,
      "Ġsupporting": 8994,
      "duÄŁumuz": 8995,
      "Ġ1972": 8996,
      "diff": 8997,
      "ocrat": 8998,
      "ĠSur": 8999,
      "yol": 9000,
      "Ġrakib": 9001,
      "urther": 9002,
      "Ġperfect": 9003,
      "Ġkahv": 9004,
      "ĠkarÄ±ÅŁ": 9005,
      "saspor": 9006,
      "Ġenvironment": 9007,
      "ocated": 9008,
      "Ġmuham": 9009,
      "Ġmaruz": 9010,
      "ĠBBC": 9011,
      "astic": 9012,
      "Ġfired": 9013,
      "Ġetik": 9014,
      "lenmiÅŁ": 9015,
      "ĠgetirdiÄŁi": 9016,
      "Ġfazl": 9017,
      "ĠamaÃ§lÄ±": 9018,
      "iyeli": 9019,
      "ĠNight": 9020,
      "ĠÃ¶deme": 9021,
      "Ġaddress": 9022,
      "ĠdoÄŁrultusunda": 9023,
      "otes": 9024,
      "Ġweather": 9025,
      "Ġsilver": 9026,
      "Ġtasarruf": 9027,
      "ĠdÃ¶nemine": 9028,
      "ĠolayÄ±n": 9029,
      "memiÅŁ": 9030,
      "Ġunknown": 9031,
      "Ġshare": 9032,
      "ĠÃ§Ä±kart": 9033,
      "Ġoperated": 9034,
      "Ġtransit": 9035,
      "millet": 9036,
      "Ġtarz": 9037,
      "ĠsÃ¼rece": 9038,
      "Ġyoksa": 9039,
      "ĠalmasÄ±": 9040,
      "Ġweight": 9041,
      "suzluk": 9042,
      "ĠCeres": 9043,
      "then": 9044,
      "lines": 9045,
      "ĠSR": 9046,
      "tah": 9047,
      "ĠSAF": 9048,
      "ĠLock": 9049,
      "Ġburns": 9050,
      "ĠSAFE": 9051,
      "Ġplant": 9052,
      "Ġbelirtiliyor": 9053,
      "Ġavoid": 9054,
      "Ġprovok": 9055,
      "ĠÃ¶ÄŁrenildi": 9056,
      "akat": 9057,
      "ĠeczacÄ±": 9058,
      "ĠhastasÄ±": 9059,
      "obbit": 9060,
      "Ġadapt": 9061,
      "ĠGreek": 9062,
      "ĠAirport": 9063,
      "Ġfreeway": 9064,
      "ĠJust": 9065,
      "ĠThunderbir": 9066,
      "Ġbass": 9067,
      "emek": 9068,
      "Ġbreeding": 9069,
      "Ġrot": 9070,
      "Ġcommonly": 9071,
      "Ġideas": 9072,
      "Ġhistorian": 9073,
      "Ġyang": 9074,
      "Ġplum": 9075,
      "ĠBl": 9076,
      "ĠFred": 9077,
      "Ġvari": 9078,
      "Ġconfirmed": 9079,
      "lisi": 9080,
      "ĠBig": 9081,
      "aoÄŁlu": 9082,
      "Ġgazeteci": 9083,
      "Ġbelieve": 9084,
      "airs": 9085,
      "ĠgeÃ§miÅŁte": 9086,
      "Ġbirik": 9087,
      "Ġnews": 9088,
      "Ġyu": 9089,
      "ĠMount": 9090,
      "ĠliralÄ±k": 9091,
      "Ġaccompan": 9092,
      "efore": 9093,
      "Ġexplained": 9094,
      "Ġani": 9095,
      "oldur": 9096,
      "Ġsolunum": 9097,
      "Ġincreasingly": 9098,
      "ĠyalnÄ±zca": 9099,
      "Ġwrites": 9100,
      "Ġadvanced": 9101,
      "Ġzinc": 9102,
      "Ä±f": 9103,
      "adi": 9104,
      "chen": 9105,
      "ĠaraÅŁtÄ±rmaya": 9106,
      "Ġtheory": 9107,
      "Ä±klÄ±": 9108,
      "Ġsony": 9109,
      "ĠÃ¶nemlidir": 9110,
      "dia": 9111,
      "Ġtarihleri": 9112,
      "ĠdeÄŁeri": 9113,
      "Ġikinc": 9114,
      "ĠaÃ§Ä±lan": 9115,
      "ĠÃ§alÄ±ÅŁmalarÄ±nÄ±": 9116,
      "Ġdeng": 9117,
      "ĠZhou": 9118,
      "uda": 9119,
      "ĠEr": 9120,
      "ucu": 9121,
      "Ġalg": 9122,
      "rior": 9123,
      "ĠkarÅŁÄ±lÄ±": 9124,
      "lÃ¼ÄŁe": 9125,
      "eval": 9126,
      "ĠkonuÅŁmasÄ±nda": 9127,
      "Ġgrowth": 9128,
      "alions": 9129,
      "ĠNC": 9130,
      "Ġhaval": 9131,
      "gency": 9132,
      "ĠEdward": 9133,
      "Ġbear": 9134,
      "Ġuygulamaya": 9135,
      "illiam": 9136,
      "ĠGi": 9137,
      "Ġsinging": 9138,
      "ĠÃ¼rÃ¼nleri": 9139,
      "Ġcontrolled": 9140,
      "ĠyÄ±ldÄ±rÄ±m": 9141,
      "Ġeconomic": 9142,
      "Ġherself": 9143,
      "ĠolacaÄŁÄ±": 9144,
      "Ä±mÄ±zda": 9145,
      "Ġconsisted": 9146,
      "Ġtemmuz": 9147,
      "Ġrequest": 9148,
      "Ġdoldur": 9149,
      "Ġklasik": 9150,
      "Ġheyecan": 9151,
      "Ġismail": 9152,
      "ĠkararlÄ±": 9153,
      "ĠyÄ±la": 9154,
      "park": 9155,
      "Ġcry": 9156,
      "Ġfemales": 9157,
      "ĠselÃ§": 9158,
      "ims": 9159,
      "where": 9160,
      "ĠDist": 9161,
      "gÃ¼nay": 9162,
      "hine": 9163,
      "leyici": 9164,
      "obi": 9165,
      "Ġbursaspor": 9166,
      "ĠSarnia": 9167,
      "iÅŁi": 9168,
      "Ġ1944": 9169,
      "Ġayakta": 9170,
      "Ġbulan": 9171,
      "ĠkatÄ±ldÄ±ÄŁÄ±": 9172,
      "Ġlands": 9173,
      "ĠvatandaÅŁlarÄ±n": 9174,
      "Ġsemi": 9175,
      "Ġmakam": 9176,
      "anya": 9177,
      "ĠTru": 9178,
      "ĠEva": 9179,
      "Each": 9180,
      "Ġscr": 9181,
      "Ġstations": 9182,
      "Ġpeace": 9183,
      "ĠÃ§aÄŁÄ±r": 9184,
      "Ġnoktada": 9185,
      "Ġbenef": 9186,
      "kun": 9187,
      "ĠMounted": 9188,
      "eanwhile": 9189,
      "Ġenstit": 9190,
      "arma": 9191,
      "ĠEastern": 9192,
      "Ġstrip": 9193,
      "Ġsettlement": 9194,
      "Ġpieces": 9195,
      "oday": 9196,
      "medik": 9197,
      "Ġhappen": 9198,
      "Ġsizi": 9199,
      "ĠKa": 9200,
      "Ġtakv": 9201,
      "Ġhayran": 9202,
      "Ġ112": 9203,
      "ella": 9204,
      "ĠgelmiÅŁ": 9205,
      "Ġfirma": 9206,
      "Ġfas": 9207,
      "Ġvek": 9208,
      "lerindeki": 9209,
      "ĠfarkÄ±": 9210,
      "Ġcampus": 9211,
      "Ġastronom": 9212,
      "meyin": 9213,
      "opter": 9214,
      "iner": 9215,
      "ilton": 9216,
      "ĠiÅŁitme": 9217,
      "Ġtask": 9218,
      "Ġtakdirde": 9219,
      "Ġinterpr": 9220,
      "Ġguest": 9221,
      "ĠÃ§alÄ±ÅŁÄ±yoruz": 9222,
[...]
